#version: 0.2
d e
Ġ e
Ġ de
Ġ l
e r
o s
Ġ c
Ġ p
a r
e n
Ġ s
a n
a s
o n
e s
Ġ a
o r
c i
u e
Ã ³
a d
Ġ m
Ġl a
Ġe n
u n
i n
Ã Ń
a l
r e
q ue
t e
Ġe l
Ġ t
Ġ que
s t
d o
Ġ h
a b
Ġ un
d i
r a
Ġc on
o m
Ġ n
Ã ¡
i c
Ã³ n
Ã ©
Ġs e
r o
Ġ f
ÃŃ a
t o
r i
Ġ v
t i
Ġ E
a m
Ġ y
Ġs u
Ġ C
â Ģ
Ġe s
t a
l e
Ġ S
Ġ Ċ
ad o
l a
Ġl os
Ġ A
Ġde l
Ġ 1
o l
âĢ Ķ
Ġ M
Ġ P
ci Ã³n
Ġa l
Ġ L
Ġ o
Ġ re
i s
Ġ b
Ġ in
Ġp ar
Ġp or
Ġ =
i en
Ġc om
Ġ '
Ã ±
c h
Ġe st
d a
i l
r es
Ġun a
Ġ g
l o
Ġn o
Ġ di
en te
q u
Ġl as
Ġ 2
Ġ d
Ġ (
en t
m p
t u
Ġ D
c u
ad a
Ġ R
i o
ab a
Ġ T
Ġ B
e l
i g
r an
t er
Ġc u
i a
t r
i r
er o
d ad
Ġde s
Ġl o
e c
Ã º
Ã¡ s
u s
i e
Ġpar a
Ġ F
Ġh ab
i st
i er
m a
Ġm e
i t
ci a
Ġ N
Ġ G
g o
an do
ic a
Ġ1 9
a c
Ġ2 0
ci on
Ġcom o
Ġp ro
b re
g u
Ġ H
s e
Ġl e
Ġ J
Ġm u
Ġe x
Ġ I
j o
p a
m o
c a
c o
u l
er a
an t
i z
Ã¡ n
a t
d os
ĠE n
Ġt o
Ġm Ã¡s
b i
r u
Ġ V
Ġ "
v i
Ġp o
ĠE l
Ġ âĢĶ
Ġp er
Ġ j
Ġa c
ad os
t os
p e
t or
v o
ic o
Ġs i
Ġ i
de n
al es
Ġh a
e z
Ã© n
u r
Â ¿
Ġ qu
Ġsu s
Ġ te
i Ã³n
c e
Ġ U
p o
Ġs o
ĠL a
t ra
i ci
u er
Ġ an
Ã© s
Ġ as
r as
Ġhab ÃŃa
v er
i dad
u m
Ġ O
p ar
cion es
Ġs er
i m
e m
g un
Ġf ue
Ġ ar
i b
c es
am ente
t re
en s
an o
a y
u b
ri m
de r
an te
v a
t ro
in a
u es
l os
or a
i da
m ente
Ġ20 1
0 0
Ã± o
Ġc a
Ġ r
ĠR e
ch o
Ġt en
Ġ res
en do
ÃŃ an
ar a
p er
Ġp ero
i do
d u
m e
ĠE s
de s
t en
l as
f er
n a
t ar
an a
c on
g ar
z a
j e
Ġp r
am bi
in o
Ġe ra
Ġc as
g a
m b
Ġa b
ad or
i os
Ġp re
ĠS e
Ġ Ã©
Ãº n
Ġ K
ĠE st
Ġl le
v e
ien to
ĠA l
t es
l es
Ġ20 0
Ġ 3
Ġo b
Ġm is
Ġ W
Ġ Â¿
ab an
Ġ Y
en ci
Ã± os
ĠU n
ant es
l ar
ad as
Ġen tre
Ġc ar
t as
Ġv er
ambi Ã©n
l an
Ġp as
on es
d as
Ġ or
Ġs in
Ġso bre
Ġh ac
en cia
Ġm i
p u
Ġp rim
ar on
h e
Ġs ig
ÃŃ n
Ġi mp
ĠI n
en to
Ġm o
t Ã³
Ġp a
Ġp ue
on a
Ġcom p
Ġs on
as ta
ĠM ar
Ġf or
tr as
Ã± a
c l
ist a
i v
Ġs al
ie mp
Ġc am
Ġc o
Ġ *
Ġc or
Ġes c
Ġt ra
Ġm an
tr os
b a
m an
Ġm ar
Ġd os
Ġt ambiÃ©n
t on
in g
Â ¡
g ra
ol o
ĠN o
ch a
Ġt an
' ,
m os
i f
Ġp e
p or
ĠC h
Ġo f
1 9
ĠD e
j a
Ġdi s
u st
ĠÃ© l
a ciÃ³n
Ġin ter
Ġt r
om b
) ,
Ġh asta
t al
ĠA n
Ġcu ando
Ġa m
ĠC on
n o
en ta
Ġp res
âĢ ¦
Ġd u
s i
) .
ic os
Ġl u
ĠA r
âĢĶ .
en a
Ġa p
Ġto do
ue l
j os
m as
r os
Ġl l
Ġb a
i Ã³
Ġf in
or es
Ġ1 8
Ġc ab
Ġest aba
o b
al mente
Ġc re
Ġy a
Ġm a
om bre
E l
Ġ 4
Ġa Ã±os
d r
c ciÃ³n
ver s
Ġp os
qu i
ĠS an
c ar
Ġe mp
Ġme di
tu ra
Ġn a
ab le
Ġv ez
Ġh e
u di
m in
Ġg ran
Ġ19 9
Ġel la
ar io
e o
p os
Ġ do
Ġt er
ÃŃ as
ti l
p on
Ġd on
Ġn i
s on
Ġf uer
pu Ã©s
z o
cion al
ran te
Ġmu y
p i
n os
ar se
ic as
v en
Ġes te
Ġt ien
o ci
ci p
ĠS u
x t
j er
ĠL os
ÃŃ s
enci as
r en
f or
âĢĶ Â¿
Ġest a
ent es
Ã© r
un to
Ġ ro
i u
e t
ĠUn i
il l
o y
que l
g r
Ġn ue
t ado
Ġv ol
N o
i or
Ġdes de
Ġm en
Ġ 5
Q u
ci o
ec es
. .
ĠM e
Ġt u
Ġm ay
o c
Ġest Ã¡
te xt
al l
endo f
| >
< |
endof text
Ġc os
ti do
ÃŃ o
i tu
e ci
Ġs ab
Ġdon de
Ġpar te
Ġm un
Ġde ci
ti r
s o
Ġc er
i ta
al iz
ien do
ti v
ĠL e
L a
Ġ 0
am os
ĠC ar
g os
ri b
u t
Ġt iemp
Ġc h
er os
ar d
ĠP ar
Ġa quel
Ġ ra
l ic
di Ã³
ch e
Ġc an
Ġ us
ier a
ri s
ad re
r al
Ġc al
Ġc ol
d ÃŃa
Ġh i
ue go
Ġre g
e b
Ġde b
fer encias
pa Ã±
en er
ĠC om
" .
an z
Ġh er
u g
iu dad
Ġcon s
ĠN a
Ġll am
u d
Ġtiemp o
Ġha cia
Ġmis mo
Ġs ol
ti vo
e g
Ġcu al
âĢ ĵ
i as
Ġdes puÃ©s
2 0
Ġqu Ã©
f ici
c tor
t ica
Ġse gu
Ġhac er
Ġb ien
Ġex p
m i
ien tras
c as
an d
Ġde j
Ġ X
Ġf u
g en
Ġ19 8
Ġcon tra
Ġal gun
i on
or ia
la ciÃ³n
Ġ Ã
pe ci
os o
l ti
st ru
t in
Ġm ir
or t
e a
Ġ 6
e d
Ġtr aba
it ar
Ġas ÃŃ
Ġse Ã±
g an
Ġa par
Ġun o
Ġten ÃŃa
l ica
ic h
Ġpro p
Ġpr in
Ġy o
c os
v is
Ġ Â¡
Ġp ol
ĠM a
Ġ Ã¡
Ġdu rante
l l
Ġes p
ar go
' .
Ġlle v
gu a
Ġa d
as e
al a
us o
ig u
il la
ez a
Ġin cl
Ġa Ã±o
Ġto dos
g e
Ġex ter
m iento
c er
Ġm on
ĠP or
i d
in e
" ,
un que
ĠD es
Ġa h
u en
Ġdi st
er on
Ġprin cip
Ġp ens
Ġv ida
i den
Ġes e
cu r
Ġv ar
or d
Ġre p
Ġme j
di jo
gra f
es ti
Ġf r
Ġc iudad
Ġe mb
di do
t ico
Ġ antes
ien te
Ġfor ma
ri Ã³
Ġsi do
Ġlu gar
Ġl ib
ĠC o
ĠP ero
Ġf un
an os
Ġpro du
Ġen con
ĠF ran
de m
ent os
Ġmu jer
Ġes peci
Ġal go
i ciÃ³n
Ġm ientras
Ġtien e
Ġv e
a p
Ãº lti
Ġm om
Ġ Z
Ġ 7
f ec
ĠT o
Ã³ lo
Ġde n
b le
er ÃŃa
n e
ci as
Ġv i
ĠRe ferencias
E n
Ġest ado
am iento
Ġt ras
am il
Ġmay or
al idad
Ġpue de
Ġ k
ÃŃ cu
Ġt ran
Ġencon tr
Ġha y
dos e
u y
Ġo tro
ch os
g Ãºn
Ġque d
ti Ã³
Ġcas a
pa Ã±a
ar ÃŃa
ĠL as
ĠP a
ton ces
Ġv en
o z
em os
Ġp al
Ġpar ec
Ġ1 5
Ġto da
Ġ19 7
Ġ1 0
Ġt i
Ġes o
Ġh ist
Ġd ÃŃa
Ġ Ãºlti
Ġn ada
p re
Ġpor que
ĠL o
ĠL u
ador es
Ġprim era
la ces
er n
ri g
l ÃŃ
is te
cu ent
l i
Ġt res
Ġ 8
Ġexter nos
Ġb ar
Ġca p
di a
Ġp ues
Ġprim er
u ra
Ġo tros
ri st
Ġp es
ti va
Ġin v
Ġpo co
a v
ib le
Ġh ombre
I I
Ã³ mo
graf ÃŃa
c en
Ġo tra
Ġre ci
at ro
Ġg u
b ol
Ãº s
Ġlle g
Ġe ran
Ġa u
o t
Ġen cuent
Ġmom ento
Ġt om
Ġper son
l ub
st itu
b er
Ġmu er
ier on
te g
Ġn os
Ġen tr
ĠC u
Ġp la
Ġs olo
Ġ 9
Ġc ada
u ro
i to
ri l
Ġo jos
Ġqu ien
Ġse gun
ĠT e
Ġg ru
Ġte mp
qu ÃŃ
iemp re
i ones
Ãº b
s a
Ġsig u
Ġ1 7
Ġn ombre
iz o
Ġs en
Ġe qui
er v
Ã³ r
or m
Ġp i
Ġtan to
Ġhab ÃŃan
Ġdi re
c tu
Ġpar ti
it al
r ado
Ġsig lo
ĠA s
Ġh omb
cu l
l ig
ĠC a
Ġre c
v in
Ġmej or
Ġf amil
Ġa le
Ġp uer
Ġc ent
Ġl i
Ġt ar
Ġp el
Ġa unque
d or
Ġ u
vi Ã³
Ġe di
em bre
ĠEn laces
Ġcon f
Ġpro f
Ġ da
ĠC am
Ġmu cho
ĠS i
an g
Ġpe que
Ġun os
Ġm il
Ġdeci r
Ġs ÃŃ
an cia
ti on
qu ier
Ġel los
Ġmen os
Ġ1 6
t ic
Ġn eces
os a
l or
Ġg ener
i re
Ġcon oci
Ġhe cho
Ġ ir
t h
2 00
ĠG u
Ġm es
Ġh an
Ġmun do
Ġsu per
st a
.. .
y a
i p
Ġm al
Ġhab er
ĠEs paÃ±a
t aba
ĠP er
Ġes a
de ra
Ġpo b
Ġ19 6
g ÃŃa
c re
Ġ1 2
ĠR o
âĢĶ Â¡
Ġin f
Ġah ora
m ar
Ġm in
Ġcab eza
ĠB ar
r ÃŃa
ĠJ o
Ġnue vo
ien tos
ĠJ u
p en
Ġest udi
Ġba jo
is mo
te d
Ġ ru
Ġs ent
Ġfuer on
Ġn ues
Ã¡n do
Ġm ano
ĠUni dos
Ġs iempre
ci Ã³
ĠEst ados
dem Ã¡s
Qu Ã©
or n
at al
ĠM on
el l
ul ar
e p
ĠP ro
Ġa cu
Ġimp ort
ĠC as
p ues
Ġl es
Ġac tu
ĠUni vers
Ġper s
Ġin g
Ã© c
Ġin di
Ġs ue
or te
ig o
ici p
Ġsu b
j as
Ġj unto
Ġb as
Ġ1 1
ar ro
Ġb o
uer ra
Ġtran s
Ġs Ã³lo
un ca
Ġen tonces
Ġpre gun
Ġcu er
ida des
om o
ci l
ci al
en e
c an
a g
Ġpo dÃŃa
ta ciÃ³n
Ġ z
c al
Ġp ie
Ġp adre
c Ã³
Â º
ist as
Ġn e
Ġp l
Ġin t
Ġes per
Ġesc ri
p ec
Ġemb argo
ol u
Ġm ÃŃ
ter ior
Ġt he
di o
ch as
Ġof ici
Ġt al
Ġl uego
Ġh um
y o
Ġb an
dr ÃŃa
Ġa f
Ġh izo
Ġre aliz
or ÃŃa
z Ã³n
i le
Ġv al
da des
Ġg an
c k
c ÃŃa
i an
E s
Ġp u
am a
Ġa y
ier no
Ġ1 3
t amente
Ġcu l
Ġdi jo
Ġ1 4
Ġpol ÃŃ
Ġde st
c el
Ġc in
c ri
is o
Ġan te
Ġf al
ier ra
es t
Ġ os
i k
p x
Ġ Ãºn
s iÃ³n
i al
Ġpal ab
Ġj un
ĠJ os
om e
Ġin s
en z
Ġan ti
b o
Ġ ri
1 8
Ġl ado
ier to
h a
Ġ -
Ġpa ÃŃs
il o
Ġan d
r Ã³
Ġp lan
ÃŃ st
Ġ 00
ĠS in
Ġde f
ĠA m
ĠA le
v ÃŃa
Ġ* *
Ã¡n dose
Ġcomp le
Ġa quÃŃ
Ġm ie
Ġno che
ĠC ol
en o
Ġv oz
Ġp on
S e
ue la
Ġe je
Ġv is
Ġh ub
Ġfu era
Ġres ul
Ġcon tin
om a
Ġcom un
ĠM an
i dos
ter a
ÃŃ tu
Ġpo der
Ġg ra
in as
Ġcu enta
Ġv uel
Ã³ m
Ġcon v
Ġp ub
z as
ĠP o
Ġto das
i ma
Ãº m
ce p
l lo
Ġg ob
j ar
r ar
P or
t ad
Ġest ar
Ġest o
ĠÃ ģ
bi do
Ġcon si
f ic
Ġal lÃŃ
ens a
ri a
v es
Ġcon stru
Ġcas i
Ġh or
Ġhac e
Ġo p
z os
ci do
ĠM un
r on
til iz
ar ios
l u
Ġ19 5
Ġre v
Ġest u
Ġo tras
c ado
Ġfamil ia
Ġsi tu
Ġf ran
Ġno v
Ġre la
ĠC lub
ĠC or
Ġv eces
Ġdi rig
Ġcon se
Ġhomb res
g ent
Ã¡ r
ĠseÃ± or
Ġb us
y ec
h o
Ġor ig
tiv os
er do
Ġa mb
d ado
qu es
Ġd ÃŃas
Ġfin al
Ġ19 4
Ġtar de
Ġi de
Ġpers ona
Ġv a
Ġe v
Ġpuer ta
ri d
ci s
ĠB a
Ġmis ma
ĠS al
Ġre f
Ġac er
ar ia
i es
g as
on o
bi Ã³
ĠP e
if ic
Ġdi fer
Ġn unca
g ado
Ã¡ g
Ġa g
vis iÃ³n
ica ciÃ³n
tu ral
Ġm at
di da
Ġ ol
ĠV al
Ġu tiliz
T he
Ġs ac
20 1
f r
Ġv iv
ĠM o
Ġm adre
Ġc las
ci os
e x
k e
Ġsu r
ist o
Ġ jo
f e
Ġperson as
v il
Ġc e
Ġle v
Ġd ar
mp l
ra ciÃ³n
Ġc Ã³mo
Ġtraba jo
ti s
Ġ ,
ĠO r
Ġ :
Ġin st
Ġmun icip
ĠNa cional
t an
ig a
r ero
i Ã©n
Ġb lan
or ada
Ġgru po
Ġb uen
ĠD u
Ġt or
Ġj u
ĠP re
Ġhist oria
ĠS o
ĠT he
r y
for ma
ĠM Ã©
Ã¡ l
Ġcos as
un d
Ġman os
Ġlle gar
j es
ĠF ue
p as
paÃ± ol
e ta
Ġrep res
Ġg ol
Ġten er
Ġor den
E st
in os
tu r
ĠUnivers idad
Ġ Qu
ĠJu an
am ento
Ġ19 3
Ġest Ã¡n
Ġencuent ra
Ġ201 0
Ġpob laciÃ³n
de l
Ġc r
Ġto tal
on d
Ġre con
Ġgener al
Ġmedi o
ĠR a
D e
Ġl anz
cu b
ĠM ad
Ġp ri
ch i
ti o
Ġa gua
ĠY o
Ġm or
il idad
h i
Ġj ug
c to
Ġfor m
Ġn Ãºm
Ġdes arro
Ġs ino
Ġcu atro
t ados
ul io
i ado
p ti
ar lo
es e
ĠC al
r era
Ġdi ci
ĠS a
Ġde re
Ġemp ez
Ġus ted
Ġcuer po
Ġex tra
te l
ĠN ue
il lo
Ġg ri
Ġdes a
M e
ĠN e
m ent
ran do
Ġcom enz
Ġb ra
ru z
t s
Ã ¼
ĠB o
Ġdi o
m ana
Ã¡ f
ÃŃtu lo
Ġa po
Ã³ g
Ġest aban
on g
ĠG ran
teg orÃŃa
Ġp unto
Ġ2 5
Ġman era
Ġcontin u
Ġg ust
k a
Ġes cu
ĠC an
Ġ3 0
m bre
Ġequi po
ĠI s
Ġs a
Ġhi jo
Ġes pa
Ġden tro
Ġa Ãºn
Ġalgun os
Ġcas o
Ġ is
Ġg r
ĠU na
Ġde r
ĠF e
ÃŃ r
v ar
ĠCu ando
t icos
Ġmuer te
19 9
x ico
Ġm Ãºs
Ġel ec
gan iz
ĠJos Ã©
er ic
Ġob s
is iÃ³n
eci Ã³
i ero
Ġpel ÃŃcu
g er
ad io
Ġk m
c or
Ġser ie
h n
an to
ig n
Ġes paÃ±ol
Ġs iste
Ġau tor
tr Ã¡s
p h
un a
Ġs Ã©
Ġfr ente
Ġter min
Ġap ro
Ġm us
Ġtu vo
Ġpue b
Ġlev ant
ad ie
t ando
ien tes
ÃŃ f
Ġre cu
Ġpr on
Ġde m
ens o
Ġp un
v Ã©s
d al
ĠD a
Ġ* '
Ġs il
m Ã¡
i mo
ĠP ara
Ġh o
A l
re a
Ġ w
b io
ĠE uro
Ġs iendo
Ã¡ c
Ã± as
Ġte le
l io
Ġi ma
Ġcom paÃ±
om in
Ġin ici
Ġmo do
ĠS er
ec e
Ġm er
ri o
Ġn eg
Ġlo c
iden te
Ġpro vin
Ġdes e
1 0
Ġprof es
Ġc ambi
ĠH a
Ġb u
Ġtra vÃ©s
ĠEs te
Ġa v
t ada
g el
i el
b um
Ġdes cub
Ġex ist
Ġob je
ĠIn ter
Ġhab l
le g
j Ã³
Ġo cu
p el
er as
Ġr om
Ġl argo
Ġre y
ĠT ambiÃ©n
i ra
t bol
ic k
di al
n as
z ar
L os
t icas
Ġest re
Ġcual quier
Ġg uerra
Ġest os
Ġser vi
ĠS h
ĠMÃ© xico
Ġca pa
in al
ĠC ent
Ġ igu
olo gÃŃa
m it
Ġpres ent
Ġc l
Ġjo ven
Ġi ba
Ãº tbol
res pon
ctu bre
Ġp Ãºb
Ġmie mb
l Ã©s
Ġaquel la
es te
ĠnÃºm ero
Ġse a
Ġv ia
Ġti po
ĠH ist
Ġcu ar
ci dad
Ġ ub
Ġdist in
den te
Ġa tra
pti embre
Ġf e
ch ar
Ġconsi der
ĠE x
ar es
ĠT h
Ġo cur
de z
Ġreg res
Ġ Q
Ġac ab
b r
rib u
Ġgran des
Ġmay o
Ġm as
Ġa ta
Ġhab lar
L o
Ġvol viÃ³
Ġpub lic
er io
Ġdi cho
Ġeje mp
R e
Ġ( '
Ġde mas
Ġa demÃ¡s
Ġs or
Ã©r ica
ris a
tor ia
Ġcer ca
ant as
Ġvar ios
Ġo ctubre
Ġpue den
ci n
Ġse ptiembre
Ġqu ier
Ġcom er
C u
gent ina
Ġ201 1
Ġob ra
Ġint ent
m er
us a
av or
Ġmar zo
ri r
gos to
Ġ00 0
Ġnue v
P ero
f f
i ano
ier ta
Ġp in
ĠMad rid
ĠT en
ÃŃ do
en as
ĠE ra
Ġmu chos
Ġa gu
tu vo
Ġj ulio
le c
Ġ2 2
o d
âĢĶ ,
u da
Ġper mi
Ġsegun do
ci to
in gun
Ġsigu iente
re de
k i
ci endo
di r
Ġjun io
u la
al e
tu d
Ġe fec
ir m
era ciÃ³n
S ÃŃ
i cia
Ġt Ãº
ĠH ab
ĠMar ÃŃa
Ġa t
Ġtr ad
ter o
Ã© ase
Ġpo drÃŃa
les ia
Ġc ara
Ġhub iera
oso tros
l bum
ĠM or
ĠNue va
Ġing lÃ©s
Ġl ÃŃn
Ġpro ble
Ġc lar
Ġver dad
Ġ201 2
ĠR es
Ġb or
Ġhac ÃŃa
ces o
an za
ĠÃºlti mo
ic e
Ġf il
ie mbre
1 7
Ġres pon
ab les
Ġf avor
Ġr os
Ġlu z
t ante
tor es
Ġpalab ras
Ġa gosto
Ġpos ible
v al
Ġam or
Ġor ganiz
Ġhab it
g n
m en
ar Ã¡
Ġab ril
Ġm os
Ġmujer es
Ġen ero
Ġparec ÃŃa
or k
Ġr ÃŃo
ĠP la
Ġg en
Ġ200 8
Ġqu er
ĠFran cia
Ġexp res
1 5
Ġsig n
Ġser ÃŃa
m il
ĠCam pe
den cia
Ġprincip al
Ġv ie
Ġh u
Ġg ente
Ġcu b
Ġdici embre
ĠÃ ī
an as
ĠG ar
pre gun
Ġ201 5
Ġpro gra
Ġ201 4
Ġm ant
f a
am e
Ġ2 4
Ġincl uso
Ġsab ÃŃa
k o
Ġn orte
Ġm Ã©
d on
na cional
m io
Ġt ro
ic al
Ġpues to
ĠM i
Ġnov iembre
Ġn adie
ten ciÃ³n
Ġvol ver
Ġex per
Ġin te
por t
Ġ201 3
vi d
ra g
Ġ200 9
Ġgob ierno
Ġn omb
Ġcon tro
Ġun as
Ġb ri
Ġ2 3
ĠEst a
se Ã±
Ġc ien
1 2
Ġos cu
Ġt ierra
Ġmo vi
Ġpro yec
le cciÃ³n
j Ã©r
for m
Ġan im
de o
ĠR ob
Ġv isto
on ia
i vers
Ġ200 7
m ientos
t Ã¡n
o cu
ĠpelÃŃcu la
ĠDes puÃ©s
Ġest able
Ã± ana
ib lio
m ano
u do
Ġ201 6
re g
ĠB er
Ġpueb lo
ĠA b
Ġsiste ma
a u
Ġp udi
Ġdemas iado
ti vi
Ġpes ar
Ġalgun a
is a
Ġmir ada
Ġofici al
eb rero
Ġcin co
Ġsab er
v ia
l ico
Ġ20 00
1 6
ĠCom o
Ġv io
ri dad
Ġn ingun
Ġcol or
ien e
ĠÃ¡ lbum
ona to
ĠSan ta
ina ciÃ³n
ac ter
Ġcos a
Ġtemp orada
Ġpas o
Ġmunicip io
ĠH o
Ġcent ro
Ġest as
b or
ĠM us
ĠJo hn
Ġ19 2
' )
Ġper ten
Ġc ir
Ġqu erÃŃa
Ġel lo
it os
Ġle y
Ġincl uy
Ġub ic
Ġpa pel
Ġal rede
Ġnue va
Ġpas ado
C on
ci miento
tor io
in ar
Ġay ud
Ġper man
ĠRe p
ĠCa tegorÃŃa
Ġigu al
gu ien
ĠP res
Ġmu cha
cion ales
Ġ200 6
l y
ri z
Ġna cional
i das
er s
Ġc ant
ĠP rim
de ro
b ar
Ġcon oc
Ġde c
Ã© is
mp le
Ġna tural
ĠS us
ad ora
Ġ2 1
Ġv ista
Ġr Ã¡
g res
it y
e dad
Ġal gÃºn
ĠA t
t ÃŃn
Ġf ebrero
qu iera
ĠAr gentina
ĠmÃºs ica
Ġprovin cia
p ular
b u
Ġimport ante
Ġc ora
f o
Ġdi f
Ġpar tido
ĠP r
Ġo cas
ĠCar los
re z
Ġsue lo
Ġt ri
ĠT er
iv el
Ġmir Ã³
ĠÃ© po
Ã¡ m
Ġse gÃºn
Ġab and
Ġal c
Ġpron to
Ġtoda vÃŃa
ĠH e
ac k
Ġmin u
ĠV Ã©ase
Ġhab rÃŃa
Ġemp res
ita ciÃ³n
Ġsegun da
l Ã©
Ġas es
Ġtien en
Ġd in
ĠH er
p ren
ar me
b e
ar la
ĠT a
Ġide a
Ġlo gr
Ġcal le
Ġf a
Ġparec e
ĠI I
Ġcam ino
gr Ã¡f
le y
ĠP ol
Ġl ÃŃ
ri do
Ġde bido
Ġf o
jÃ©r cito
Ġma Ã±ana
ad amente
Ġalgun as
ar an
Ġl ar
pregun tÃ³
ĠA Ã±o
Ġlib er
Ġe p
Ġsil enci
i ores
ĠD ios
Ġs os
ga ciÃ³n
ri to
19 8
ol Ã³g
p ir
Ãºb lica
es a
Ġlib ro
Ġl en
tiv as
i ana
ti a
U n
Ġobs erv
at or
b an
ĠX X
t Ã©
Ġanti gu
Ġso ci
ĠH ar
pec to
Ġz ona
di endo
Ġcon du
Ġpar tir
on io
Ġlleg Ã³
Ġa ire
Ġ2 6
in ado
p l
Ġmil itar
b as
Ġma ter
ĠDu rante
A n
h ora
Ġh on
Ġdesa par
Ġf i
ĠÃºn ico
h er
u al
Ġfuer za
Ġcon ver
ĠLu is
ue gos
Ġvar ias
min ist
Ġalc anz
ion al
Ġdest ac
ĠM in
ig os
Ġe con
c om
1 4
ĠT or
lan d
m or
ĠA demÃ¡s
ĠAn ton
Ġ201 7
ta g
m Ã¡n
Ġpre par
ĠY a
qu il
Ġinv esti
ĠA d
Ġof re
Ġab s
Ã³n de
ĠV er
ĠFran cis
Ġ .
Â ²
ue lo
Ġde di
un iden
g Ã³
âĢ Ļ
tu ras
Ġejemp lo
v ieron
ĠHist oria
Ġhabit antes
m ento
ur as
Ġalrede dor
ol es
ĠR os
Ġdi ce
Ġespeci e
Ġcom par
y Ã³
pues to
ĠM u
Ġen ci
ĠÃ©po ca
Ġj ust
ac e
ca ciÃ³n
1 3
al o
Ġn ivel
L e
ĠMun dial
ch Ã³
Ġac ep
Ġ2 7
Ġ200 5
Ġar t
di ente
Ġel eg
ĠÃ¡ r
a ciones
l in
Ġ2 8
l la
Ġdi vers
Ġestado uniden
Ġm ill
fici o
Ġal guien
er se
Ġpas a
r or
Ġcu anto
Ġconv ir
forma ciÃ³n
Ġh ora
Ġconoci do
T e
Ġ201 8
ig h
Ġacu erdo
Ġen car
Ġ il
ĠY ork
ĠX V
Ġob lig
Ġmu chas
Ġe t
ar do
Ġn osotros
Ġ âĢĵ
ĠCh ile
ĠÃºlti ma
in i
Ġsu f
Ġrepres ent
Ġtele visiÃ³n
r ic
ĠP al
ĠF ern
ing Ãºn
ĠCo pa
ĠDes de
v an
Ã¡ b
Ġf on
Ġt a
Ġinter ior
Ġes pos
r ada
Ġv ent
Ġcora zÃ³n
Ġa z
Ġher mano
Ġhor as
Ġr en
Ġre alidad
d ra
Ġten go
cl am
qu Ã©
r Ã¡
en n
man ia
Ġcon ten
Ġ )
l er
Ġse cre
Ġv o
ĠO b
Ġtraba j
x im
if ica
Ġesp ec
ĠEst ado
Ġdeb e
Ġban da
Ġce le
Ġprop io
Ġcar rera
Ġre co
Ġcam bio
de pen
di co
ec er
Ġre un
ĠB uen
Ġmayor ÃŃa
Ġpas ar
Ġaband on
Ġcomp ren
ti dad
Ġen fer
Ġpeque Ã±o
ĠR ec
Ġh as
Ġqued Ã³
Ġm Ã¡
Ġmos tr
er va
chi vo
Ġan terior
Ġac om
or ge
b ur
Ġhi ja
Ġest oy
Ġp en
Ġpre ocu
Â ª
ĠS oci
er t
ĠlÃŃn ea
ĠB e
Ġ200 4
Ġsu ce
Ġes os
g ue
ĠP os
Ġfuer te
ch es
ĠD i
Ġj e
ÃŃ os
Ġ2 9
Ġcap ital
Ġdej Ã³
m on
Ġcon te
d ÃŃan
I n
ich a
par t
Ġc ierto
ĠD an
lar es
i ro
' :
Ġn ingÃºn
Ġcomenz Ã³
ĠT ra
Ġse par
Ġsen tido
iv il
olu ciÃ³n
Ġgol pe
Ġreg iÃ³n
Ġdem Ã¡s
ci na
l am
Ġre al
Ġbo ca
Ġp uso
ie lo
Ġj uego
Ġal to
ĠJ a
Ġros tro
Ġd orm
p ol
Ġcab o
Ġllam ado
Ġrec ord
Ġdej ar
ĠJ e
Ġp at
Ġprim ero
Â °
h an
ĠSe gÃºn
Ġcan ciÃ³n
Ġel las
Ġun ivers
ĠpolÃŃ tica
Ġra zÃ³n
it as
Ã©c n
Ġconse gu
Ġb al
Ġme tros
Ġpue do
on e
ĠV en
Ġ1 00
Ġinter pre
Ġdes con
Ġc rist
ent al
Ġpro b
pos iciÃ³n
ci ente
n es
e v
ĠI tal
Ġh oy
ci r
ĠG uerra
Ġex t
c ta
Ġc lub
iz a
ĠFrancis co
Ġdo min
Ġd ado
' s
di ciÃ³n
u ri
Ġdes cri
ed ro
Ġf Ã¡
Ġdire ctor
Ġhab itaciÃ³n
Ġningun a
uer to
Ġpres idente
Ġter ri
pa ciÃ³n
ĠEn tre
ay a
Ġpas Ã³
Ġpeque Ã±a
ĠV ic
Ġob ras
in s
p res
ĠPar tido
Ġmes es
ora ciÃ³n
om as
Ġ Âº
ĠB el
ĠRe al
i va
Ġpalab ra
t Ã³n
Ġb ol
cu lo
ĠT ras
Ġamb os
ĠÃ© x
Ġf Ãºtbol
Ġ201 9
di os
1 1
Ġcon t
ĠS te
Ġse x
Ġestadouniden se
Ġs ang
Ġc ruz
h am
Ġmes a
Ġper io
i de
pues ta
Ġam igo
Ġs ir
ĠseÃ± al
te c
Ġprop ia
om ÃŃa
d ÃŃ
ti sta
Ġes ca
p Ã³
Ġsal ir
Ġbu ena
Ġprim eros
Ġesc rib
T o
st as
v iera
Ġpu do
i ar
ĠG al
Ġcu r
Ġacom paÃ±
Ġima g
ri endo
Ġcon tr
Ġre fer
g iÃ³
Ġdifer entes
Ġre laciÃ³n
5 0
bi os
Ġemp le
Ġdin ero
Ġenci ma
ĠI g
un ci
Ġsilenci o
Ġcar acter
a te
Ġprogra ma
ĠG e
l ado
Ġder ro
ĠG ener
is h
Ġhi jos
ĠD iv
er ro
ĠAnton io
s os
re o
ve la
ic amente
i res
Ġbas tante
Ġh ici
Ġ19 0
ĠEuro pa
Ġnues tra
Ġt Ã©r
Ġac tivi
an e
ĠL ib
Ġt ÃŃtulo
Ġqu iero
ĠL ond
ĠD el
cel ona
ĠAle mania
c Ã©s
ĠRep Ãºblica
ĠB iblio
tar on
Ġprof un
ĠDe por
dad os
ĠG ra
Ġmill ones
Ġli bre
w n
Ġse is
ĠA ust
able mente
Ġre lig
s h
ĠP as
ĠG o
z Ã³
us iÃ³n
Ġgran de
ĠS ur
um b
Ġpens ar
t y
ĠX I
j or
Ġminu tos
an s
Ġ200 3
Ġdire cciÃ³n
Ġpr ue
Ġc olo
Ġde por
ec ÃŃa
Ġa ut
Ġas e
n er
Ġparti ci
Ġencontr ar
Ġcr ÃŃ
Ġsegu ir
al la
ant os
Ġ200 1
Ġrecon oci
eci do
Ġen vi
am po
ĠA u
enta ciÃ³n
Ġparti cip
ĠT r
Ġfun d
Ġv as
Ġen fr
Ġcon ti
Ġt re
il las
ĠAs ÃŃ
Ġten ÃŃan
t Ã¡
Ġg Ã©n
til lo
Ã©n dose
o k
Ġen ten
Ġsitu aciÃ³n
vi du
II I
Ã±o la
Ġnues tro
S u
19 7
ĠB an
ĠS ol
ÃŃcu lo
Ġb es
Ġe dad
ĠW ill
Ġdeb ÃŃa
Ġf el
Ġpo pular
Ġedi ciÃ³n
iz Ã¡
ĠIn g
Ġmo de
ĠL uego
Ġb ase
Ġcam po
Ġcu ales
i ciones
Ġcab al
ĠM al
ci da
Ġni Ã±os
w a
Ġar ro
Ġcon j
ĠNe w
ar t
Ġres to
Ġ on
ĠP edro
C Ã³mo
Ġha ciendo
Ġcu ad
ar e
Ġ5 0
Ġsi tio
Ġlen gua
Ġgu ar
ĠPar ÃŃs
Ġp ier
ĠRe g
l Ã¡
Ġmedi a
Ġcor respon
p ciÃ³n
Ġ ig
Y o
ci den
Ġcon ci
c le
Ġbra zos
Ġv ac
Ġso cial
ens iÃ³n
p es
Ġten ido
Ġep iso
ĠI S
Ġs enci
du st
gu st
m entos
Ġl ig
Ġsang re
Ġclas e
Ġmovi miento
ĠS on
p le
Ġs omb
Ġ4 0
Ġin m
Ġv ic
Ġap re
ĠBar celona
Ġsuper fici
L as
D es
Ġinter es
Ġcon stitu
z ado
Ġl im
e as
ĠA unque
ĠE d
i la
Ġcam a
Ġc ine
Ġmiemb ros
Ġcom ien
Ġ200 2
ar le
Ġprincip io
ie dad
ĠAm Ã©rica
Ġcontro l
Ġespeci al
ĠCampe onato
Ġin me
ĠItal ia
Ġex tre
Ġen c
ir se
Ġes as
atal la
p an
ti endo
Ġpar e
Ġa trÃ¡s
Ġe r
Ġle g
A r
Ġreci b
ĠM as
i am
Ġd Ã©c
Ġvuel ta
terior mente
ĠM er
c ando
c ent
ar ca
ĠT u
ist ro
Ġsi quiera
Ġs ens
Ġso y
or o
ĠAr chivo
Ġ iz
rim onio
in Ã³
Ġpos e
fici ente
ar i
Ġen ter
if icaciÃ³n
l ad
Ġdo lor
Ġfun cion
d amente
Ġsab e
am b
v ir
Ġvi ol
ĠMar tÃŃn
Ġre tir
Ġser Ã¡
im e
Ġal ta
la v
Ġcar go
tar io
Ġpos ib
Ġesc al
c aba
Ġus o
Ã± ad
Ġf re
Ġdi ez
im os
man as
Ġver siÃ³n
el as
Ġclar o
Ġpun tos
Ġcomp r
ĠF o
am eric
ĠI mp
ter ÃŃa
Ġestu vo
Ġper fec
ab lo
Ġprodu cciÃ³n
ÃŃst icas
ĠPa ÃŃs
ampo co
it Ã³
ĠD is
S i
l d
Ã¡ st
Ġpel ig
Ġson risa
ĠT om
Ġdel ante
h u
c ciones
ĠG re
Ġincl u
Ġ18 9
ĠseÃ± ora
Ġest ru
Ġaquel los
ĠHab ÃŃa
cu encia
ĠEl la
Ġrec or
Ġcele b
in es
Ġv an
em en
Ġal ma
ĠM at
Ġpos iciÃ³n
ĠGener al
t t
Ġcre o
Ġob ten
Ġsor pren
Ġcam pe
Ã©n do
y n
Ġn um
x to
Ġe du
Ġestudi o
ic ÃŃa
Ġor o
Ġar ri
ie te
Ġiz quier
Ġsi mple
ĠÃºn ica
Ġsent ÃŃa
Ġmen or
ĠF in
it ado
Ġqu iÃ©n
at Ã³
st ante
ĠM il
ĠD o
E R
it Ã¡n
ĠLond res
Ġimp res
ĠC rist
ĠC ab
Ġb r
Ġar m
ĠL i
ĠR am
Ġmo der
ier an
Ġloc alidad
ĠE di
ces a
Ġa tenciÃ³n
it or
ĠB en
Ġah ÃŃ
Ġdis co
ad res
di eron
Ġis la
ĠÃ©x ito
Ġs an
ĠJ un
Ġde stru
Ġsegu ro
j ado
Ġn ar
g ada
ĠQ ue
2 5
Ġb el
ĠA ires
Ġve in
3 0
ar Ã©
ĠpÃºb lico
ĠC iudad
Ġar te
Ġblan co
Ġcor re
Ġro de
Ġde trÃ¡s
B N
Ġni Ã±o
Ġest ilo
ien cia
Ġt ur
Ġa um
ĠN orte
Ġt Ã©cn
p ro
Ġf ra
Ġcon dado
am ientos
ab or
Ġa del
la ter
f on
Ġgra cias
Ġ ur
tro du
y s
Ġc ri
Ġcom pe
Ġa do
ues to
Ġso la
Ġpr Ã¡c
Ġedi ficio
c era
Ġindi vidu
Ġesp al
Ġservi cio
y e
Ġfran cÃ©s
Ġmon ta
Ġver da
Ġdesarro llo
Ġ199 9
Ġempez Ã³
Ġ Ã³r
Ġes f
Ġdere cho
Ġam igos
Ġde ter
ĠB r
Ġa gr
Ã© l
tia go
c ada
orn eo
ĠV ol
part amento
ĠB io
ĠB al
Ġfuer zas
Ġv es
Ġ ;
ĠPre mio
l las
Ġpe lo
Ġhist Ã³r
ĠSe gun
Ġespos a
Ġhacer lo
ĠS ch
Ġdo cu
Ġecon Ã³m
ri os
or me
Ġdif ÃŃ
ent Ã³
Ġespa cio
A R
ti tud
ĠÃī l
ti fic
ĠL iga
on as
ĠF il
Ġde ba
Ġase gu
in ta
Ġval or
d ar
Ġpo dr
k er
Ã³n ica
Ġte ma
si ones
Ġam ar
ti da
ci en
tic ular
i x
ti en
Ġi den
Ġe jÃ©rcito
Ġje fe
Ġin formaciÃ³n
Ġsen tir
Ġfon do
Ã ¶
) :
us e
ĠG ob
Ġ199 8
Ġlo cal
ĠDiv isiÃ³n
Ġg al
gen es
Ã ī
Ġexp lic
Ġap enas
Ġde ten
ti dos
Ġpi el
lica ciÃ³n
stitu to
C h
ĠUn iÃ³n
Ġpro vo
ent ar
Ġ +
ÃŃf ico
til la
v ol
Ġconvir tiÃ³
Ã³ vil
p s
b al
Ġla bios
Ġin stru
ĠÃ¡r bol
Ġllam ada
Ġtra ta
Ġdis par
Ġcon m
Ġactu al
Ġg es
Ġel em
Ġa mpl
Ġmedi ante
Ġre du
Ġpro ce
Ġfal ta
ig uel
Ġab a
gu lar
Ġllev Ã³
ĠBuen os
tiv amente
Ġmie do
ĠRes ul
Ġaz ul
l ores
un ciÃ³
Ġpr ome
Ġref le
Ġcons igu
ici o
Ġve lo
un idad
Ġllev aba
Ġconstru cciÃ³n
Ġau to
ir Ã³
Ġca us
M ar
Ġorig en
p era
Ġp ant
Ġh os
Ġad minist
v as
ĠM ay
Ġna ve
ĠF or
ian za
Ġas ist
Ġig lesia
ĠPrim era
ĠAn d
ĠpaÃŃs es
Cu ando
on te
ĠA hora
ĠgÃ©n ero
tu ro
Ġpro ceso
Ġco che
ĠcompaÃ± ÃŃa
de mos
Ġfin ales
Ġsign ifica
Ġ <
Ġne go
il es
Ġt itu
Ġ ras
ier tos
v ent
Ã© m
o ce
Ġquier e
am es
ĠK a
Ġestudi os
Ġay uda
later ra
Ġdis pon
me tros
Ġ #
Ġdu da
Ġfue go
4 0
Ġb os
gu ay
ĠF u
Ġproble mas
Ġp Ã¡g
Ã© tica
p ado
Ġsuperfici e
ĠB ro
Ġg as
Ġv ir
ĠR us
s u
Ġ Ã©s
ar o
Ġperson al
ĠF a
Ġdo ctor
) '
ĠMan uel
ĠIS BN
Ã¡ndo le
Ġcom b
Ġc ivil
cion ado
b el
Y a
Ġca usa
ĠJ es
Ġen em
Ġing res
Ġ18 8
Ġd Ã©
in t
Ġv ÃŃ
Ġv ig
ĠA c
Ġpres encia
Ġ199 7
Ġ< <
Ġhist or
Ġ ital
on da
Ġneg ro
iz aciÃ³n
Ġcom Ãºn
Ġorig inal
ul s
Ġprincip ales
y os
Ġin ten
at os
ĠR u
ĠV ir
Ġn ie
r ados
itu d
Ġc ru
Ġllev ar
Ġproyec to
ĠIng laterra
Ġima gen
il ar
Ġev itar
c ol
Ġbra zo
Ġbri tÃ¡n
Ġmiemb ro
ĠB u
i te
Ġvia je
Ġcon ven
tes tÃ³
Ġf ir
ur Ã³
Ġgob ern
er te
ĠSan tiago
si on
esti Ã³n
es tra
Ġlevant Ã³
Ġmant en
Ġher mana
Ġap ren
ĠP ue
b y
ĠInter nacional
Ġcon vers
Ġequi pos
Ġfin almente
U na
Ġpla ta
ÃŃst ica
Ġpar tes
Ġpar ticular
Ġpi es
19 6
j ero
Ġse mana
Ġhon or
Ġm it
am Ã¡s
ul l
Ġp an
Ġsuper ior
Ġsu ficiente
en d
Ġpre ci
on z
ĠO s
A N
ab e
om os
ĠB ras
ĠC os
w ard
cep ciÃ³n
Ġv oy
ri tu
Ġdis pu
Ã ¨
Ġfo to
tag on
Ġda tos
ĠfÃ¡ cil
ĠJ ap
Ġcapa z
Ġvie jo
Ġo c
ab ilidad
Ġtom ar
2 2
Ġf ÃŃs
er to
ĠEst o
Ġfr on
ĠM iguel
Ġle jos
Ġb atalla
ĠDa vid
k y
Ġba ja
ter iores
Ġdist ancia
ĠD on
i vo
Ġlib ros
Ġin depen
p lic
er e
ĠRe y
Ġa fec
Ġcan ciones
Ġsal iÃ³
Ġ199 0
Ġpregun tÃ³
r Ã©
Ġentr ar
f t
ĠPer Ãº
Ġinf lu
Ġsu pon
Ġeje cu
it aba
âĢ ķ
Ġparti dos
ĠBiblio grafÃŃa
A s
Ġj a
ĠpolÃŃ tico
Ġgru pos
Ġcuar to
ar te
Ġc ielo
Ġlleg ado
ĠRe ino
Ġen seÃ±
j ada
ĠH ay
t riz
Ġin cor
an ce
is e
ri que
Ġ3 1
Ġal im
ĠSu per
Ġav anz
Ġresul tado
Ġentr ada
ĠE r
Ġsigu ientes
Ġ199 6
ĠF el
im iento
Ġdes p
Ġempres a
Ġab riÃ³
ĠH u
ĠS am
ĠCh ar
Ġp adres
Ġr ad
Ġd Ã³nde
Ġn orm
ca dem
ci ales
ĠB ol
r er
o g
Ġinter Ã©s
ĠE du
Ġsi mil
Ġres puesta
Ġ199 4
Ġcons erv
Re ferencias
ala cio
ar ias
Ġno ti
g al
ci pe
Ġdesarro ll
ĠdifÃŃ cil
Ġm ente
Ġcu mpl
ĠC atal
is s
Ġre ac
Ġexpres iÃ³n
Ġcom e
t adas
ĠÃºlti mos
ĠDe mo
ad u
Ġd aba
un g
ĠF C
Ġe ta
Ġproble ma
Ġnum eros
Ġde mos
cia ciÃ³n
ĠÃģ n
c ra
Ġmuer to
ĠC ap
in d
Ġgr ab
or ld
Ġimport antes
Ġal lÃ¡
Ġinter nacional
ĠC la
Ġt ampoco
Ġ18 7
Ġpro te
Ġcon ce
le t
Ġme z
Ġpon er
Ġdec lar
Ġest aciÃ³n
Ġo cul
Ġen er
Ġcu id
se gu
ĠdÃ©c ada
Ġmit ad
ĠE qui
2 3
Ġcom ba
Ġviv ir
ab el
Ġbus car
Ġubic ado
ĠtÃ©r m
Ġam ena
Ġsal a
le v
ĠJ ul
Ġc el
por te
E S
Ġpro por
Ġsal ud
Ġdes per
Ġreci biÃ³
Ġmant ener
ĠP at
Ġinst ante
Ġde cÃŃa
ÃŃ si
ĠM ac
ĠF er
ĠR om
Ġpol icÃŃa
Ġpens Ã³
Ġal ter
Ġpudi era
ad Ã¡
Ġ18 6
un t
Ġj ue
g re
cu los
Ġb re
jer os
Ġf irm
ĠSegun da
ÃŃn cipe
Ġin dust
Ġdire c
gres o
ĠM c
ĠC ruz
x ic
r Ã¡n
ri ente
as h
Ġen s
Ġb eb
2 1
Ġsegu ridad
Ġc ay
Ġmedi os
Ġdes c
Ġf ru
Ġpro teg
tar se
Ġantigu o
Ġefec to
el lo
es tiv
b les
f ica
ĠB ri
Ġapo y
er an
Ġhay a
Ġo port
ĠD ist
m ios
ier e
Ġ199 5
r Ã³n
Ġar mas
ĠI II
Ġencontr aba
Ġh emos
Ġex ten
Ġsin tiÃ³
Ġpr Ã³
Ġ3 5
ĠÃ¡ rea
ÃŃ m
Ġespeci es
te ca
ĠAl gun
Ġres ist
ĠrÃ¡ pi
ĠIg lesia
Ġdeter min
cur so
Ġe jer
ĠWill iam
Ġb ur
ĠN or
Ġqu in
Ġcomp os
ĠP h
ĠD ie
ĠR oma
tr Ã³
Ġrelig ios
ĠP an
ĠB ur
di ciones
ĠH en
Ġp ien
ac to
p ido
omb ia
di dos
on el
ĠB as
A S
Ġe vi
Ġimp os
ne y
Ġin trodu
il Ã³
e mp
k s
t aban
Ġaba jo
igh t
ac a
ĠA y
un tos
Ġarri ba
ĠEs c
ĠBras il
Ġt ono
clam Ã³
ĠMe jor
Ġencuent ran
Ġper der
Ġar qui
Ġest Ã¡s
Ġtom Ã³
Ġconj unto
ĠCent ro
Ġw eb
f es
ĠT ierra
c tura
Ġde tal
Ġpo cos
ĠH ol
Ġquien es
i ales
ch ado
d Ã³
mp icos
ĠB or
Ġsegu ÃŃa
ĠÃ©s te
Ġentr en
B uen
Ġdere cha
Ġ Ã¡n
Ġespa Ã±ola
ĠEst aba
ĠFern ando
ĠS ec
olo g
p ul
Ġf igu
Ġdes pe
Ġc uel
p ital
un da
fr ica
ĠM Ã¡s
Ġa vi
Ġesc uela
c y
Ġcent ral
ĠF re
Ġlle va
Ġprincip ios
Ġterri torio
Ġpie dra
Ġde pen
b ra
ĠAl ber
c am
C ar
Ġmedi da
ĠM ientras
Ġal tura
2 4
Ġf emen
ĠJ uegos
Ġre par
Ġp ul
Ġdej ado
Ġ199 2
if orn
c tos
Ġl ec
ĠG er
oc al
Ġs iete
Ġsign ific
Ġbri ll
ĠUn ido
Ġno vela
ues tra
Ġesf uer
tor ial
Ġtien es
Ġhu bi
re as
Ġo cho
Ġexper im
Ġcu yo
Ġsoci edad
Ġl ista
ĠJap Ã³n
ĠEst Ã¡
z ada
grÃ¡f ica
Ġde dos
Ġcab all
Ã¡m ara
Ġespeci almente
Ġt ir
Ġcan tidad
ĠN i
ĠÃģn gel
ĠRe v
ĠXI X
ĠC ul
Ġapro xim
ran s
ru po
ĠLe Ã³n
s en
ĠF Ãºtbol
Ġ3 6
man os
Ġconoci da
as a
Ġt us
ĠtÃ©rm ino
Ġrecu per
Ġconver tir
es tro
Ġcar re
Ġdi g
ven es
ren o
Ġsu je
Ġizquier da
an cias
t ÃŃa
Ġcon ta
Ġpri v
Ġac os
Ġf ies
Ġe uro
ta ciones
Ġe res
ĠSe Ã±
er vi
Ġcien t
ran o
ĠS t
Ġres pecto
ec a
Ġj ard
ĠCol ombia
le z
Ġgri e
al d
dal la
Ġcap itÃ¡n
ĠBio grafÃŃa
Ã³ venes
Ġdeci diÃ³
ĠCon se
Ġespal da
Ġpro tagon
Ġca er
ĠF lor
Ġv ino
Ġsen ti
ĠS im
ĠS il
Ġt ab
em ente
or e
qu ia
Ġcu ya
ĠW il
f i
ĠT al
C A
ri e
iu dades
ist erio
Ġdist rito
Ġin fer
Ġma dera
Ġe mo
ribu ciÃ³n
ten cia
es o
Ġsu puesto
T en
P o
Ġnuev os
Ġo este
n y
00 0
am Ã¡
Ġnues tros
cep to
Ġorig in
t ales
Ġpe cho
y as
Ġg ar
i pe
ÃŃcu los
Ġapar ece
Ġdeba jo
Ġet c
Ġcar ta
den a
Ġni Ã±a
Ġla bor
ĠJ ack
Ġimp or
ĠGar cÃŃa
Ġv eci
leg io
ĠAle x
Ġescri tor
Ãº a
Ġe m
Ġ199 1
iforn ia
Ġacer ca
Ġj amÃ¡s
Ġconm igo
ĠT ur
ĠA cadem
Ġin stitu
qu ina
ĠC re
Ġsegu ra
estiv al
Ġper ÃŃo
Ġen f
ĠW orld
Ġar ti
Ġse c
Ġtrad u
oc k
ĠG eo
Ġcon de
Ġ3 3
Ġve ÃŃa
Ġdis f
Ġf amos
ru mp
Ġale mÃ¡n
x imo
ĠS ab
P ar
for d
Ġlu cha
ing ton
g ia
Ġ199 3
ĠPe ter
Ġin gen
ator io
Ġabs olu
or den
x ima
Ġmat rimonio
w e
ut h
ĠTen ÃŃa
Ġden omin
ent as
Ġconoc er
Ġi do
Ġsu erte
ci dente
ĠS ub
ĠL in
o od
Ġas pecto
Ġmus ical
Ġpersona je
ĠPa ul
ĠTo do
Ġ198 0
tu mb
Ġadel ante
ĠB la
Ġ' "
Ġges to
fici os
Ġtraba jar
f Ã©
ĠGob ierno
ti ene
Ġinvesti gaciÃ³n
ĠD E
ill er
El la
Ġo ÃŃdo
2 7
Ġsue Ã±o
Ġh ier
Ġcomple to
Ġdifer encia
Ġman if
Ġel im
ĠMun icip
ues ta
cu lar
f il
2 6
it h
Ġsig ue
fer encia
Ã¡n dez
Ġcon tar
it ario
Ġprofes or
Ġpo bre
ĠV e
Ã¡ tico
Ġf ues
Ġimport ancia
Ġvol un
O N
ĠG a
f ac
ĠCh ina
T A
Ġconsegu ir
Ġa di
ĠD ire
ĠG onz
ti m
ĠCon s
Ġsol dados
Ġj Ã³venes
Ġf ac
ac o
Ġqu izÃ¡
tu s
Ġentr Ã³
d y
Ġanti gua
respon diÃ³
Ġa Ã±ad
ĠMus eo
Ġac ciÃ³n
Ġmar ido
Ġenfr ent
Ġdi os
Ġh all
Ġcuel lo
ĠJ orge
Ġ3 8
Ġlar ga
ĠO l
2 8
Ġten dr
ĠR ÃŃo
et h
b il
Ġmen udo
Ġor ien
rib le
Ġ" '
Ġsu ces
f re
Ġte atro
Ġsu p
Ġrespon s
w s
Ġs iento
Ġmi rando
Ġgu ard
Ġr adio
Ġ3 4
un o
Ġepiso dio
ente mente
Ġper dido
Ġdes pa
Ġllam a
Ġden s
ĠVen ez
Ġpregun ta
Ġli mp
l en
Ġnuev as
Ġ4 5
Ġocas iones
Ġdef in
ri eron
Ġener gÃŃa
ĠIn stituto
l ÃŃn
g io
Ġab ra
ĠDepor tivo
d an
Ġ Ã³
la ciones
Ġcon cl
Ġdi vi
ĠJ ust
Ġg uer
Ġjug ador
ĠCal ifornia
Ġt ama
Ġinst al
qu is
Ġdi se
g Ã¼
cion ar
Ġg a
ĠEst adio
Ġpr omo
Ã³ l
ĠV i
Ġgan Ã³
t ina
u re
Ġprimer as
ist er
Ġata que
Ġtras lad
ĠM en
Ġcomple tamente
at h
tr on
ciden tal
ĠFe cha
ĠRob ert
Ġhomb ros
Ġjun tos
ctor es
Ġll or
Ġhub o
an da
Ġk ilÃ³
si to
Ġpo dÃŃan
Ġdes eo
Ġprue ba
Ġtiemp os
Ġmej ores
Ġdes cen
v or
ĠB ra
Ġes con
an der
f ÃŃa
Ġmu lti
Ġrev ista
Ġplan ta
ĠJ ames
Ġper iÃ³
st er
c Ã³n
l los
Ġ198 6
ĠrÃ¡pi damente
ĠEn tonces
os os
Ġeuro pe
Ġcas os
Ġsigu iÃ³
O S
lica ciones
ĠM os
Ġres pe
ĠO lÃŃ
ec en
Â Ń
Ġin form
ĠH el
Ġcapa cidad
Ġfe cha
ĠCent ral
Ġvelo cidad
Ġson riÃ³
Ġmode lo
Ġll en
Ġres ta
Ġfigu ra
Ġprincip almente
ier ras
pe z
ĠO fici
ber g
and ro
Ġmar cha
2 9
Ġ ...
Ġfu turo
Ġobje tivo
Ġapo yo
ĠTe le
Ġc iudades
s te
c ados
r ÃŃ
H ab
f ono
S an
I N
Ġservi cios
di ca
g ri
icha el
Ġcon oce
ĠL or
ĠV illa
ĠA z
Ã¡c ter
la ve
Ġmu estra
o la
ĠE mp
ĠEst udi
Ġre cur
tur ales
ĠR ich
bi ta
Ġf ab
Ġcir c
Ġcos ta
Ġc ier
Ġprofes ional
Ġdi bu
Ġrecu er
Ġque da
di entes
M a
ci dos
Ġm ensa
l ia
Ġelec ciones
Ġse de
Ġactivi dad
Ġencontr Ã³
Ġes co
Ġpublic ado
ib les
dera ciÃ³n
Ġeta pa
ĠFe der
Ġte lÃ©
ra m
Ġdirig iÃ³
ĠRe t
Ġn ervi
Ġb e
g ro
Ġher mos
Ġemp u
Ġneces ario
Ġfor mas
Ġ $
Ġsenci llo
Ġ6 0
Ġson ido
Ġcar Ã¡cter
ĠC las
Ġpa z
Ġenfer me
ĠEuro pe
ĠG ab
Ġjust o
Ġacer cÃ³
Ġreg ist
Ġre almente
ero p
Ġapar eciÃ³
ril lo
Ġpeque Ã±os
Ġin cre
Ġop in
Ġv enta
Ġb ot
it an
Ġo ÃŃr
es iÃ³n
Ġra to
Ã³ s
is po
Ġcor te
S in
E N
R A
Ã ¤
Ġliber tad
v el
Ġsa tis
Ġ198 5
ĠD omin
Ġm ol
pi as
Ġex ac
ent ado
Ġcontr ario
B A
Ġcon cent
an ci
Ġse manas
ris te
c ti
Ġca tegorÃŃa
Ġ20 20
Ġd ul
Ġten emos
ĠW al
Ġre cha
Ġvi deo
Ġro b
iv os
E so
vi do
ĠM el
Ġdis cu
Ġbuen o
ĠEqui po
Ġorganiz aciÃ³n
u lo
Ġen orme
ter n
M i
la z
ĠperÃŃo do
Ġlanz Ã³
Ġocas iÃ³n
Ġju gar
Ġ198 9
ĠN ic
tion al
ĠA mb
Ġf lo
ri el
ĠRus ia
19 5
Ġconte mp
Ġver ano
Ġel ev
t able
ÃŃst ico
Ġdens idad
ĠK e
Ġnatural eza
Ġhum anos
ĠJ er
Ġescri to
j u
Ġm ec
i anos
o p
lÃ© tico
Ġ ran
Ġtama Ã±o
Ġneces idad
Ġch ica
Ġg o
Ġext ran
ĠB re
Ġ3 7
ĠVenez uela
Ġro pa
Ġvent ana
Ġac tor
ĠK ar
Ġcon diciones
Ġh om
Ġt on
Ġse lecciÃ³n
en da
te ll
p r
da p
c la
m y
Ġpres ente
ÃŃ p
3 5
Ġocu p
Ġin con
ĠW ar
tic amente
Ġpro ces
Ġme m
j aba
ĠT iene
ĠS ta
n i
es per
) ;
ĠResul tado
Ġpersona jes
Ġve h
il le
Ġop era
En tonces
ic es
Ġv iento
aliz aciÃ³n
Ã¡n ico
Ġtemp or
Ġhac en
tar ÃŃa
ĠSe gu
Ġco cina
ĠF uer
Ġesper aba
Ġm ad
ĠEs o
tr Ã³n
Ġtro pas
ÃŃ ritu
is is
ĠOr den
Ġincor por
Ġter cera
Ġpas os
8 0
ien cias
w ay
m es
Ġpo demos
cri pciÃ³n
Ġter cer
Ġaquel lo
ĠAust ral
ĠA st
en se
Ġencuent ro
ol d
Ġrela cion
Ġexist encia
v illa
Ġher manos
4 7
Ġelem entos
Ġanim ales
Ġ18 5
Ġcer c
ĠCh rist
Ġcon qu
Ġ197 0
l ie
ĠmÃ© dico
Ġb ru
ici dad
Ġfal le
ĠC er
Ġra z
Ġ Âª
Ġ ant
Ġpue da
Ġ ÃŃn
Ġl ong
Ã¡ndo lo
Ġm ando
ĠRec ord
ent amente
ĠU r
Ġli ter
Ġforma ciÃ³n
Ġmu riÃ³
Ġ198 8
Ġa ten
ĠConse jo
Ġpar ed
Ã¡n ica
Ġte mas
tera tura
Ġlugar es
ĠS ÃŃ
ti ciÃ³n
er ador
ÃŃtu los
Ġcul tura
Ġinte lig
ul as
ti z
Ġmor ir
ĠCas a
Ġgu itar
Ġrela ciones
3 3
Ġcl Ã¡s
Ġdeb erÃŃa
Ġpo dido
to do
Ġes pe
Ġex iste
Ġmem oria
mÃ¡ tica
ti les
Ġpar eciÃ³
g ido
Ġlogr Ã³
Ġimpos ible
ĠB lan
Ġsens aciÃ³n
Ġinte gr
Ã §
Ġ Ð
Ġs uel
ÃŃ da
Ġma gn
Ġ( )
Ã¡ndo la
Ġmom entos
Ġn u
v os
am or
Ġpier nas
gr ÃŃa
Ġf ras
ĠSu d
Ġpl antas
Ġpla za
di s
Ġperten eci
Ġvic toria
C o
iden cia
Ġinme dia
Ġnomb rado
Ġmo tivo
i ados
Ġsab es
Ġhici eron
in ter
Ġpos teriormente
Ġm ÃŃo
Ġc ierta
Ġal ar
ut bol
Ġobje to
ĠkilÃ³ metros
Ġob tuvo
Ġt ales
ĠA na
Ġtrad i
Å į
O h
Ġdeb er
Ġcre er
ron ce
Ġol vid
ĠJes Ãºs
Ġar ras
am o
Ġvi vo
il los
Ġesc ena
Ġpres enta
Ġc atÃ³
di das
u x
3 6
Ġcre aciÃ³n
tis mo
ra mos
t ino
aliz ado
Ġsos pe
ĠPro vin
Ġm ue
Ġab rir
in tiÃ³
Ġmis mos
Ġte mb
Ġdere chos
ĠJe an
erop uerto
Ġe mi
Ġdes can
ran tes
Ġrealiz Ã³
Ġeleg ido
ĠI V
Ġsegun dos
Ġde partamento
di ce
Ġfues e
a ve
Ġas unto
b ia
t le
d Ã³n
C I
4 5
ĠP ablo
mp e
Ġin for
ĠMa g
Ġte c
ĠG rupo
di cos
mÃ¡ genes
Ġex cl
ĠH um
Ġpre ten
ĠAn dr
Ġ198 7
Ġar re
Ġn or
d ores
Ġmir ar
ĠH an
ex clamÃ³
Q ue
P ara
ĠB ern
Ġ /
Ġdef en
Ġpr ÃŃncipe
Ġg eo
Ġcan dida
Ġexper iencia
ĠTo dos
Ġp s
ĠEn rique
Ġdes n
ĠMon te
Ġrep ro
l ada
Ġesper ar
Ġdeci siÃ³n
Ġcom ida
Ġescrib ir
ĠS Ã³lo
l ora
Ãº l
ĠA ctu
Ġd ra
gu as
ĠV an
Ġt ard
Ġhubi ese
Ġac triz
ĠMe di
um en
Ġhum ano
Ġcant ante
ĠM ichael
ur m
Ġa de
Ġencontr ado
Ġquier es
Ġa dap
Ġre ina
Ġad qui
Ġbus ca
Ġmater ial
ĠP ub
Ġb on
Ġmer cado
Ġv in
4 8
Ġdivers os
ru guay
Ġfr ÃŃo
r aba
Ġhab itu
Ġdi seÃ±
Ġrealiz ar
Ġamb as
Ġa gra
Ġd ando
te dr
Ġbar rio
Ġme xic
iz ado
Ġ8 0
ĠSoci al
O R
Ġgust a
Ã©c tr
on y
es ta
Ġposib ilidad
ĠAcadem ia
it Ã©
ĠC ity
Ġescri biÃ³
Ġ [
p al
Ġexter ior
Ġ3 9
Ġbor de
l ing
Ġb ene
ab as
u ales
Ġt ierras
Ġestru ctura
Ġo tor
z z
Ġvein te
Ġcirc un
g ip
ĠtelÃ© fono
Ġd Ã³
ĠD ar
au gu
e tas
Ġimp er
Ġado p
A h
Ġdi je
Ġextre mo
Ġh ar
Ġten drÃŃa
Ġdest ino
gue z
Ġde tuvo
ĠAt lÃ©tico
Ġconta cto
Ġ" .
es s
di at
ĠSal v
Ġtra taba
3 7
bur go
gent ino
fon so
Ġcam paÃ±a
ic ales
C om
6 0
ĠImp erio
Ġho gar
ĠE jÃ©rcito
3 9
Ġro jo
Ã £
Ġincluy endo
Ġoport unidad
Ã³ pez
Ġna ciÃ³
n et
Ġpue des
vi dad
Ġsitu ado
Ã± ado
den es
Ġestu viera
ĠÃ¡rbol es
Ġpermi te
ĠJ im
in ada
ven ida
Ġver de
Ġenten der
Ġpre cis
Ġcal or
Ġpes o
Ġsos ten
ir ma
Ġdemos tr
le x
Ġdirec tamente
ĠT V
ri da
m ul
Ġc Ã¡
Ġpuer tas
de ras
Ġcol on
Ġob stante
Ġin augu
Ġc ic
Ġb lo
Ġt ÃŃo
ros o
Ġapro ve
ĠA p
Ġrecib ir
Ġagu as
Ġtr en
Qu iÃ©n
de res
qu ÃŃa
Ġcas as
Ġdi c
Ġdo ble
ĠDan iel
ĠI r
Ġ3 2
Ġcomun idad
Ġclas ific
Ġaquel las
Ġt riste
' ),
Ġprob ablemente
Ġh ue
ra c
el la
man n
Ġar reg
Ġprop ie
Ġest ra
olÃ³g ico
E ra
Ã³r do
Ġa udi
Ġl Ã¡g
Ġa gar
Ġh el
Ġcabal lo
Ġsal ida
ug h
Ġ198 4
Ġparec er
Ġmas cul
Ġactivi dades
Ġacu s
Ġdes car
con testÃ³
im en
den tes
Ġpr os
Ġc enso
ĠCas tilla
ĠL Ã³pez
ch aba
I S
ish es
ĠM ur
Ã± Ã³
Ġ ign
is la
Ġ5 00
man es
ĠV is
Ġm ara
Ġre pe
Ġsu st
ĠGeo grafÃŃa
ĠAle j
ti eron
am p
En laces
Ġide as
i des
Ġesca par
vil le
Ġves tido
rib uy
to l
Ġactu almente
Ġen cen
ĠIs abel
Ġcam p
ĠL at
ĠTe mp
Ġedu caciÃ³n
Ġsu m
ĠEsc uela
Ġi ban
Ġlong itud
Ġdisf ru
Ġinf an
t z
it ante
Ġvuel to
ien es
3 8
F A
Ġubic ada
Ġcas tillo
H e
Ã¡ndo me
Ġex ig
Ġso b
f icaciÃ³n
diat amente
Ġrecon oc
Ġad mi
di to
Ġa j
ĠAr m
ĠB os
Ġf as
Ġa us
Ġde ri
d ri
ur os
re mos
Ġfel iz
ch ando
Ġmay ores
Ġt orneo
Ġpre mio
u de
na ciÃ³n
if e
Ġtraba jos
Ġz onas
c omo
ĠFel ipe
Ġfun ciÃ³n
ĠB ill
Ġconsigu iÃ³
Ġl ad
Ãī l
Ġrecu erdo
Ã¡b amos
Ġ7 0
Ġb omb
ĠU S
ĠJ ac
re y
ra el
Ġa pa
rim as
ad ura
ĠM is
Ġcal les
Ġs illa
Ġdise Ã±o
Ġcomba te
Ġ( "
Ġd ue
tion s
Ġlleg ada
Ġcon den
Ã¡l isis
me tro
Ġpens amiento
Ġre d
me j
Ġa un
il idades
E L
iz ada
ĠrÃ¡ pido
Ġvar i
Ġ198 2
Ġlle ga
Ġdef ensa
ĠNo tas
a j
ĠPor tu
Ġpe or
iz ar
Ġf lores
Ġdescon oci
ĠO ro
am i
Ġcuid ado
Buen o
Ġ198 3
rag Ã³n
u Ã±a
Ġtermin Ã³
Ġsimple mente
ĠP Ã©
as o
Ġdes ign
is p
Ġp iso
iel d
Ġdi visiÃ³n
Ġa tre
Ã³rdo ba
Ġpens aba
ia ciÃ³n
ol ina
ĠLo u
c ero
Ġrepres enta
anz as
ĠpelÃŃcu las
Ġsu stitu
Ġac ceso
Ġde mo
Ġtec n
ĠO c
ic ciÃ³n
Ġconvers aciÃ³n
mit h
Ġsac erdo
ĠR i
Ġtre inta
H a
Ġte orÃŃa
v ista
Ġprop iedad
Ġca fÃ©
Ġpelig ro
Ġdef ini
Ġfor mar
ĠS ant
Ġhabl ando
u ma
3 4
g in
Ġj ud
ĠD os
Ġdese mpe
fic ul
Ġac ar
J o
Ġrec om
Ġmin istro
Ġcar ne
r ÃŃan
Ġil um
Ġmen cion
Ġbos que
Ġde cl
Ġest Ã©
Ġdesc rib
Ġdivers as
Ġc Ã³
Ġ za
Ġc m
p ero
ĠGe orge
Ġperio di
Ġi mÃ¡genes
Ġcu estiÃ³n
di go
ĠOlÃŃ mpicos
lo gÃŃa
P ues
Ã¡ lez
Ġparticip Ã³
Ġes cul
Ġf ig
Ġl ic
ĠLe y
Ġest amos
Ġll u
Ġblan ca
Ġesp ÃŃritu
Ġaut om
z e
Ġsor pres
ĠFran k
Ġdi ficul
Ġse mej
Ġsimil ar
Ġvuel ve
Ġf res
Ġle er
Ġcol um
Ġsitu ada
Ð °
os as
iÃ©n dose
ĠH asta
Ġcan s
Ġres tos
Ġ196 0
Ġatra ves
Ġgra ve
Ġte m
Ġv amos
7 0
Ġblan cos
Ġhab la
ĠV o
Ġenc ant
Ġas c
ĠCon greso
al u
Ġcarre tera
Ġrefer encia
Ġsal va
ort h
ĠG an
tor no
Ġab o
i di
Ġfran cesa
Ġg ris
A L
Ġa mp
ĠvÃŃ cti
Ġtotal mente
Ġrev el
Ġcom and
aliz ar
car se
ĠGonz Ã¡lez
Ġa ver
Ġf lu
l Ã¡n
ios o
Ġbol s
ĠAustral ia
Ġpas e
Ġvol v
Ġperio do
Ġinflu encia
Ġam eric
Ġart ÃŃculo
ĠP lan
m ina
ĠF estival
Ġcer eb
pir Ã³
Ġac to
" '
Ġpeque Ã±as
ĠMar tin
Ġmo tor
Ġincluy e
ĠB ot
t ara
Ã¡ is
ĠÃ© sta
ĠT rans
4 9
Ġter ror
Ġco lec
par a
ch er
Ã£ o
Ġc en
ÃŃsi mo
ĠD ere
Ġper mit
Ġextra Ã±o
ĠCos ta
Ã¡ ticos
ĠA ir
en ario
di as
it ada
Ġav ent
3 1
Ġp is
Ġsol u
Ġdici endo
v era
l icos
ĠS ar
Ġmilitar es
ĠlÃŃn eas
le ta
4 6
ĠDie go
Ġpermi tir
p in
Ġofici ales
Ġt esti
Ġing les
Ġrep ente
Ġan o
Ġin tenciÃ³n
Ġdifer ente
Ġinter na
pi raciÃ³n
Ġarqui tec
Ġcan al
P ro
Ġfies ta
ch ada
ĠK o
all er
le o
Ġre bel
Ġm oles
Ġf ase
Ġv esti
ag ue
Ġ9 0
plic Ã³
Ġm ala
L u
Ġn ub
ĠlÃ¡g rimas
am Ã©rica
g ados
Ġme tal
Ġ âĢ
Ġcon tes
Ġconf lic
ue va
i j
Ġnomb res
v ie
k u
ĠVal encia
Ġfr om
ĠW e
ter as
es ÃŃa
Ġ198 1
di miento
Ġllegar on
g aba
3 2
yec toria
em e
av ier
Ġde ja
es tr
ĠP on
Ġtri un
Ġdej ando
Ġllam Ã³
ĠYo u
Ġte xto
Ġcient ÃŃf
c aron
ĠRa fa
Ġconoci miento
Ġdi cha
ĠEs pa
ĠS en
der os
Ġoscu ro
ri al
ic ul
Ġpr om
ĠS olo
ĠC lar
P a
Ġfun dad
Ġf erro
Ġjard ÃŃn
Ġital iano
ĠDe f
ĠAn ti
ĠPr in
Ġcom ent
Ġdar le
ĠO ri
Ġba j
Ġsecre to
ĠP uerto
bi da
Ġru ido
Ġd an
Ġmun dial
Ġt es
Ġre emp
r om
Ġpartici paciÃ³n
ĠEst os
Ġdo c
Ġalcanz ar
Ġnuev amente
P er
r ales
Ġdistin gu
ĠpolÃŃ ticos
ĠD ÃŃa
Ġ197 9
ĠC ub
uel ta
Ġar ran
qu ie
Ġv iene
ĠAl fonso
Ġpos i
Ġhe chos
ĠO n
Ġdi entes
Ġcu Ã¡n
Ġbar co
9 0
Ġobten er
ĠTo ur
g ando
am in
Ġch ico
ĠC Ã³rdoba
Ġpublic Ã³
Ġa ter
ter io
Ġmis iÃ³n
c Ã³mo
le m
âĢ¦ ,
Ġp Ã©r
Ġan ci
Ġinter rump
ĠL ista
er ia
ĠP u
Ġm m
e da
ĠAlgun os
Ġescu char
Ġh un
Ġcontinu aciÃ³n
Ġpri ma
Ġf lor
Ġmir aba
um e
Ġro ck
ab es
Ġprop ios
Ġqued ado
Ġllam ar
Ġpu ente
ĠE se
s es
ĠIn cl
Ġoscu ridad
Ġhum ana
Ġsoci ales
Ġcomp uesto
Ġal can
Ġcay Ã³
Ġpare ja
Ġp ena
Ġqued aba
C omo
Ġpe le
Ġmo di
as t
dr ÃŃ
z an
ĠdÃ³ lares
Ġcal idad
Ġdes l
ik e
iz Ã³
Ġsent ado
ĠC e
Ġesper ando
it z
Ġca Ã±
Ġcre ar
Ġho jas
ĠC at
ĠPres idente
ĠDemo grafÃŃa
ven ciÃ³n
c Ã¡n
Ġna cionales
Ġactu alidad
ĠY u
Ġas cen
Ġprue bas
ĠRich ard
qu Ã©s
ĠUn o
Ġpens ando
ĠE cu
ĠSan to
t ador
Ġhomb ro
Ġg ira
As ÃŃ
Ġso por
ĠÃ³r denes
Ġpar que
ue las
ĠTe atro
Ġf us
Ġan unciÃ³
Ġdu que
Ġpartici par
ĠFern Ã¡ndez
ĠW a
Ġo per
Ġdi ver
ĠS ue
ec ÃŃan
Ġllev ado
ĠAl lÃŃ
Ġpla cer
ĠS em
Ġesfuer zo
e k
Ġel Ã©ctr
Ġcomp on
ĠIn dia
ĠV ie
Ġm ÃŃn
ĠF al
Ġi di
Ġconoc ÃŃa
irm Ã³
ĠT an
G ra
ion ales
Ġpueb los
drÃŃ guez
Ġp p
s us
ig ue
ĠH or
Ġap lic
os amente
Ġsal Ã³n
Ġesp era
p ida
Ġopin iÃ³n
l Ã³
rib un
Ã³lo go
ĠC D
Ġcomp ro
Ġest ren
ĠpÃºb lica
Ġsig los
v ado
Ġcien cia
ĠC ada
g i
v io
tor ios
Ġpa gar
ĠÃģ frica
te o
Ġa ust
Ġsobre vi
Ġre ino
Ġnues tras
Ġsol ici
Ġam ist
Ġgan ar
Ã ł
ĠS tar
Ġvis ita
ing s
Ġol vi
Ġcomun icaciÃ³n
Ġpresent Ã³
ĠT ar
p uso
Ġtor no
ĠRo drÃŃguez
Ġconti go
Ġro di
ĠTo tal
ris is
Ġal cal
Ġpe dir
Ġquer ido
ĠT ro
ĠPÃ© rez
b la
Ã³n imo
Ġf antas
ĠcompaÃ± eros
ĠIn depen
4 4
Ġdorm ir
Ġ197 6
Ġur b
ie za
Ġpro tes
A hora
Ġcampe Ã³n
Ġtemp lo
Ġint ens
Ġser io
Ġnue ve
u p
Ġp alacio
Ġse lec
ay o
t om
d ro
des a
Ã© tico
Ġas ust
Ġex pe
Ġdirig ida
Ġfir me
Ġtor re
Ġenferme dad
Ġam iga
Ġsec und
utbol ista
Ġinme diatamente
ĠespaÃ±ol es
Ġt um
ment al
Ġfa cil
Ġanim al
ol as
Ġfu ente
Ġe chÃ³
Ġaproxim adamente
Ġar tista
ĠM y
Ġpas ando
ĠP Ã¡g
Ġiden tific
k in
ĠT im
Ġ197 8
ĠS ha
Ġfin anci
Ġhos pital
Ġcon stante
ĠTh omas
Ġ4 6
Ġas intiÃ³
li ma
ĠIn f
Ġal um
Ġsorpres a
Ġfamil iar
Ġcompren der
Ġcambi ar
Ġma estro
Ġinfer ior
g es
Ġest im
Ġref ug
t antes
Ġcre e
Ġp ilo
Ġpuer to
iv ia
ĠC enso
ent ales
ier te
de a
du cciÃ³n
n al
Ġfron tera
t te
Ġverda dera
ĠCom un
ed or
Ġj uegos
on al
Ġcol ores
Ġtemp era
w ell
Ã© ro
ĠPla ta
Ġprodu jo
gr ado
Ġade cu
Ġconse cu
cu s
Ġb ronce
Ġconsider ado
Ġil ust
Ã± ar
E x
ĠC l
Ġar gu
Ġin ca
i us
em as
ĠP ac
mi te
i um
iv amente
ĠS mith
Ġcor riente
Ġan teriores
ĠSi tio
Ġayud ar
ter os
Ã¡ tica
Ġli teratura
Ġregres o
Ġconv enci
P ue
ĠV I
ab oraciÃ³n
Ġdeb en
ĠT re
ord in
ĠT ri
Ġresul tados
Ġcontinu Ã³
Ġj ur
Ġqu is
Ġ' (
Ġb iblio
le za
p eraciÃ³n
Ġar que
Ġconver tido
an es
Ġto car
ĠVal le
jer on
ĠAlber to
Ġestre llas
Ġpos terior
ch ez
Ġobje tos
Ġar ma
Ð ¾
ac es
Ġne gra
ic s
ĠL ar
Ġclas es
Ġd or
Ġ4 8
Ġr Ã©
Ġfre cu
Ġs es
so ciaciÃ³n
Ġarti stas
Ġab ierto
% )
Ġesper anza
ĠLe g
Ġdi go
Ġgobern ador
Ġc rim
Ã ģ
Ġlanz ado
Ġl Ã¡
ĠPre mios
ĠM ich
ĠR ic
Ġg ir
Ġconsi dera
Ġsiste mas
Ġemp erador
Ġvolun tad
M an
tedr al
Ġen ga
ĠE mil
ĠL es
Ġvis iÃ³n
ĠCon stitu
Ġtom a
rim iento
Ġbre ve
Ġequi vo
Ġmar ca
Ġmuer tos
Ġter reno
7 5
w er
Ġho tel
Ġenem igo
Ġis las
ĠAr te
ĠN unca
4 2
Ġv eo
t ri
] .
Ġcur so
ĠA quel
Ġ197 5
Ġab ierta
Ġg ig
Ã¡ lo
Ġcon cre
S o
Ġtu vieron
do l
g ica
Ġ197 7
ĠS tu
l var
d in
bi to
Ġa pe
C ap
Ġcir cu
ĠprÃ¡c tica
ĠU ruguay
Ġ197 3
Est Ã¡
Ġra ÃŃ
Ġcre ÃŃa
ĠPortu gal
ĠIn v
ĠP l
Ġconte mpl
ĠB at
c rÃ¡
Ġdes en
Ġpropor cion
7 8
Ġas omb
Ġven ido
cu enta
ĠAn tes
Ġimpor ta
un ta
que z
ĠseÃ±or ita
Ġcol abor
el os
olu cion
Ġcabal los
r ente
' "
Ġpregun tas
Ġconse cuencia
Ġsol amente
Ġc atal
N e
Ġh ues
Ġc Ã¡mara
ĠSec re
Ġir re
Ġign or
t un
r arse
Ã©s ar
Ġalgun o
Ġri es
Ġdi ario
ĠXV III
aliz ada
pi ro
P re
Ġprodu ctos
erva ciÃ³n
ĠV ar
Ġti pos
or y
Ġse ctor
ĠSe bas
ez as
ĠBer lÃŃn
Ġr onda
Ġsa cu
Ġa co
ĠV as
cas o
c ara
Ġno ches
ĠL ocal
ina to
l lar
lo j
a to
it ados
ĠlÃŃ der
Ġcambi os
Ġcons ul
Ġter rible
Ġcor rer
qu iv
ĠBla ck
Ġl entamente
ĠP ens
Ġas oci
Ã© st
ĠMar y
Ġjug adores
S al
Ġdescub ierto
ĠPÃ¡g ina
on s
vent ud
Ġsal vo
Ġun idad
ĠVic toria
Ġpare des
Ġcub ierta
Ġconti ene
Ġch il
ĠRecord s
Ġpant al
ĠLe on
Ġepiso dios
w ood
Ġcomun ic
in aba
Ġse m
Ġmedi ados
ci mientos
Ġor gu
Ġg rado
Ġsent Ã³
Ġ18 0
c lo
Ġg e
ĠGu ad
til l
Ġda Ã±o
Ġcomer cial
Ġneces itaba
Ġmat ar
Ġmas a
ĠAr tes
ĠSe villa
Ġdo m
Ġper diÃ³
Ġ5 5
Ġhabl aba
Ġcomien za
Ġk g
p la
A M
Ġcircun st
am ble
Ġinten to
Ġperteneci ente
Ġin quie
Ġdef ens
4 3
Ġacar ici
tar ia
se lo
Ġte x
Ġo jo
ĠS ara
Ġre mo
ĠPres s
4 1
Ġmucha cho
tivi dad
Ġdistin tos
Ġregres Ã³
Ġc Ã¡l
iv as
ĠMartÃŃn ez
Ġmo ver
Ġ197 4
olÃ³g ica
f as
Ġconci encia
Ġnorm al
ĠRe d
ĠCan adÃ¡
Ġfun da
ĠPh il
it s
Ġocur rido
tu al
ĠE m
Ġsegu ido
Ġcre ado
u rante
u f
Ġcar ga
ĠTr aba
ĠO tros
ĠRafa el
itar ia
Ġdo ce
oso fÃŃa
Ġcul pa
Ġmovi mientos
Ġen tra
em ent
Ġre tra
Ġcul tural
r eras
Ġmucha cha
Ġreci Ã©n
eci eron
Ġcom is
ĠN os
in to
ci das
Ġm ic
Ãº til
Ġedi ficios
an i
l icas
Ġs ome
Ġconten ido
Ġsu ya
Ġin icia
u ta
Ġfran ces
Ġevi dente
Ġinmedia to
Ġcon ec
Ġpas aba
all ado
an n
ĠPar ti
Ġvig il
va ciÃ³n
ab il
Ġpose e
ĠActu almente
Ġpo cas
Ġloc ales
ĠE con
an ÃŃa
ĠL ima
Ġus ar
ĠChar les
ien ta
Ġtermin ar
at as
Ġr in
ÃŃ dos
j era
ĠSe lecciÃ³n
Ġca ja
ter rÃ¡n
B C
Ġsi mp
ĠG ol
Ġcar tas
Ġpre fer
ĠÃģ lvar
Ġp ista
Ġdul ce
E D
ĠB oy
Ġf en
Ġprecis amente
Ġefec tos
Ġap res
t rando
or ÃŃas
Ġch o
ta des
en os
Ġla go
Ġdes em
Ġverda dero
am bre
ĠXV I
ec k
Ġso f
Ġb Ã¡s
ĠE p
ĠSebas ti
Ġempres as
grÃ¡f ico
Ġantigu os
Ġvie ja
unt amiento
Ġ197 2
ĠPo pular
g encia
ĠT ÃŃtulo
iz Ã¡s
Ġfre cuencia
ub lic
Ġv ÃŃa
Ġdistin tas
ĠC iencias
Ġnoti cias
v ino
t amiento
Ġ196 8
m un
Ġra za
Ġca u
r eros
Ġcu rios
gu es
Ġll ena
ĠDe b
ĠV il
Ġch a
Ġar tes
Ġdes gra
qu er
Ġtan ta
ÃŃ b
Ġcin cuenta
iller mo
ĠMin isterio
Ġale j
Ġfab ric
Ġra zas
ĠS Ã¡n
Ġh al
ĠG il
e di
Ġnumeros os
Ġmensa je
Ġres i
Ġpun ta
Ġr ue
Ġco giÃ³
Ġmar ch
Ġfamil ias
ĠCh am
ad able
I A
Ġresul ta
Ġrealiz ado
Ġm ÃŃa
ĠVir gen
Ġhac ÃŃan
Ġ4 9
Ġen v
Ġad ul
ĠR ol
an ta
Ġsomb ra
Ġme t
ĠFin almente
Ġg lo
Ġfund am
ĠAlej andro
Ġre ÃŃr
Ġll eno
Ġf is
h al
at es
Ġregres ar
c adas
Ġan unci
ĠOfici na
ĠMay or
ĠB ea
tu a
ran a
Ġf ol
ĠA gu
Ġcaracter ÃŃsticas
y l
Ġmanif es
Ġdi pu
s in
Ġexist en
Ġexac tamente
l amento
Ġsu yo
ĠH am
Ġocur re
Ġpar ro
Ġocu par
ĠB l
e y
ĠAm eric
Ġg or
Ġbus cando
ĠC Ã©sar
cul tad
Ġcons ist
Ġ195 0
Ġgan ado
en ti
Ġ4 7
Ġpor tu
Ġtran quil
Ġcon vo
Ġ7 5
Ã¡f ico
unda ciÃ³n
Ġac onte
ĠC Ã¡
ad Ã©m
Ã± ez
Ġgol es
s al
ĠF icha
Ġmunicip al
ĠR oy
Ġman tuvo
ash ington
Ġreci bido
Ġtra tar
Ġpa ci
m ir
Ġpi diÃ³
per tura
ĠA sociaciÃ³n
Ġsac Ã³
Ġca dena
aliz Ã³
ĠSÃ¡n chez
an ia
Ġv uelo
Ġpl ante
b all
ĠD ra
e os
Ġc lav
ĠNue vo
Ġmi ra
Ġr ab
Ġform ado
Ġval le
tr al
Ġb en
Ġt ÃŃp
mar Ã©s
m ado
Ġas um
Ġparec ÃŃan
Ġus u
ĠAust ria
ust o
gra ma
is mos
Ġalter na
m ol
Ġac ciones
Ã³ sito
ĠP ri
ĠSalv ador
ĠGab riel
Ġmonta Ã±a
w in
Ġfin es
co la
200 7
Ġac ce
ĠJ ane
ĠSoci edad
Ġest arÃŃa
ĠA h
Ġcer rÃ³
Ġcon taba
i jo
ador as
gri tÃ³
Ġcontra to
ad y
ĠpÃ¡g ina
ĠLu gar
Ġutiliz ado
Ġin cen
Ã į
Ġcre a
ust a
Ġsu ave
ios a
Ġma te
y endo
ĠO li
ĠJ ulio
t am
ĠUnivers ity
Ġser vir
tel la
as te
Ġper ro
ĠB on
ĠGu ar
Ġa ma
Ġven ir
d ras
h en
que ta
Ġdeb ut
Ġre gular
Ġc risis
Ġningun o
ĠcrÃŃ tica
ĠMun do
l ando
m al
Ġso br
h at
Ð ¸
Ġv ues
si as
Ġp Ã¡
ub o
Ġcar i
Ġo yÃ³
Ġavi Ã³n
Ġper ci
Ġc ÃŃr
ig as
ĠR en
Ġacos tumb
Ġtien da
0 5
Ġ** *
Ġa vis
Ġprodu ctor
Ġs ar
t n
el er
ur t
ĠpolÃŃ ticas
Ġr uso
Ġdu ra
ĠbritÃ¡n ico
Ġdecl ara
ĠW in
y er
Ġagra de
D Ã³nde
Ġintent Ã³
ĠF ar
Ġpie zas
ĠH al
Ġcas ti
ĠA ward
Ġprop Ã³sito
201 0
Ġpo d
ĠHen ry
Ġimpres iÃ³n
ĠP ra
in ados
gu Ã©
Ġpens amientos
Ġexcl us
i vi
ĠIn di
Ġprodu ce
Ġas iento
Ġar gentino
ĠV in
Ġp ris
Ġpo eta
- -
Ġocur riÃ³
Ġabsolu to
Ġescal era
Ġalcanz Ã³
Ġen tu
ver dad
Ġen co
Ġ âĢ¦
Ġun idades
ĠperiÃ³ dico
Ġgust o
ĠEdu ardo
Ġpar ecido
Ġutiliz a
Ġpin tura
Ġpr ensa
Ġg ana
Ġtrad iciÃ³n
ĠB ob
Ġco lecciÃ³n
Ġh arÃŃa
ĠS co
Ġpregun tar
ĠG ro
Ġcor onel
ĠPac ÃŃfico
Ġt orm
ĠMar k
200 6
ho w
Ġreun iÃ³n
ĠJ an
Ġ196 9
or Ã¡n
Ġesp ada
Ġexp lo
ĠÃ ĵ
Ġ197 1
Ġamb iente
Ġse cu
Ġad ver
Ġinici Ã³
der ÃŃa
s k
Ġm Ã³vil
segu ida
vi v
ĠMus ic
ĠF inal
ru p
Ġac e
ĠR adio
cu ra
Ġbel leza
9 5
8 5
i que
Ġconf ianza
p ens
ĠT orneo
Ġtradi cional
ra ciones
Ġcomand ante
Ġas al
Ġfi j
ĠH on
p ia
Ġpri sion
Ġex cel
Ġcuer pos
ĠH ern
ĠW eb
orden adas
tar ios
ĠCar rera
ida e
Ġmara vil
ĠPos teriormente
ĠÃºlti mas
ĠE v
ĠC ivil
am as
Ġmu r
gar on
Ġestre lla
an ca
tes is
Ġte cho
Ġtu viera
a k
Ġgener almente
it ales
ĠD ec
Ġol or
ĠB ru
Ġf ar
ĠT i
Ġestru ctu
Ġde vol
201 1
Ġre cl
Ġaf irma
" )
min os
Ġcrist al
a h
Ġecon omÃŃa
Ġpres iÃ³n
ĠL an
Ġjug Ã³
Ġv on
Ġprote cciÃ³n
Ġsu av
Ġco in
Ġb io
ĠJ ug
Ġins ist
Ġcor riendo
ĠEst as
ĠhistÃ³r ico
Ã©ndo le
r adas
Ġvo ces
Ġpodr ÃŃan
ĠEcu ador
Ġrespon diÃ³
200 8
C am
ĠP en
ti ve
orm es
ĠW ashington
Ġexp an
Ġprogra mas
Ġguitar ra
on ces
Ġlo g
r ich
Ġhum or
Ġmon um
ĠGe or
ĠD r
g imen
Ġespec tÃ¡
Ġdej aba
ĠTor re
Ġplan eta
ĠDe partamento
im ismo
ĠH un
Ġno ble
Ġnoti cia
Ġden om
Ġcomp ort
ĠG oles
Ġf rag
Ġacab aba
ĠPla za
ĠGu illermo
Ġna cido
Ġutiliz ar
adÃ¡ ver
f ield
ol ver
ĠSeÃ± or
Ãºs ica
as iÃ³n
ĠI l
I C
Ġcu ch
Ġtran qu
es en
ĠC ro
Ġgr aba
aliz a
Ġcon cepto
Ġfuer an
Ġinici o
ques ta
Ġno ta
ĠRam Ã³n
m u
ent ro
Ġpro pias
Ġelec ciÃ³n
Ġhum an
Ġrecur sos
Ġcab ello
k m
ĠMa x
Ġindust ria
Ġqu ÃŃm
Ġconstru ido
ĠM ol
Ġinv ierno
s er
Ġes pi
ap ones
ĠXX I
ĠMe dalla
Ġconvertir se
is co
c aban
Ġcual quiera
Ġresist encia
Ġsatis fac
ĠAr t
ĠAs ia
Ġdescub rir
A T
Ġco la
Ġv ien
ĠcompaÃ± ero
Ġcam pos
h ar
200 9
z i
ĠmÃ¡ ximo
Ġin de
9 9
ĠtÃ©r minos
Ð µ
or io
Ġan Ã¡lisis
Ġsex o
Ġc adÃ¡ver
Ġgust arÃŃa
Ġrecord ar
ci entos
ĠPer s
Ġin ver
Ġadminist raciÃ³n
Ġza pa
Ġfras e
ĠG en
j i
Ġp us
Ġlanz amiento
Ġba Ã±o
Ġestudi antes
g on
z aba
Ã³n ico
ĠMunicip al
ĠMe tro
Ġprodu cto
L O
Ġempez ar
Ġl in
m ula
Ġ4 2
ĠB us
j al
F ran
Ġen amor
Ġdetal les
ec o
200 5
gar se
igu iÃ³
Ġpant alla
Ġfun ciones
ĠG ir
Ġperiodi sta
Ġ196 7
A C
Ġer ror
vi Ã©tica
Ġapar iciÃ³n
Ġcereb ro
Ġvac ÃŃo
Ġan s
T V
ĠR ub
ĠD or
Ġfuer tes
ir ÃŃa
Ġcuar enta
Ġbes o
ĠSa int
Ġplan e
ĠEspa Ã±ola
Ġc ria
Ġunivers idad
hi bi
S er
Ġa go
ĠC reo
p Ã¡
Ġre tro
ĠQ uer
Ġpas illo
Ġesc ol
Ġreemp la
Ġqued ar
Ġmar quÃ©s
amble a
Ġob ispo
ris mo
Ġgr adu
Ġac titud
Ġllu via
pl om
Ġdespa cho
d um
Ġtom ado
Ġhab rÃ¡
ĠPar k
Ġform Ã³
Ġf utbolista
Ġsus ur
ĠAndr Ã©s
ĠV ÃŃ
Ġh uel
tor a
ĠS p
e de
Ġac ord
Ġla ter
Ġindepen diente
er al
ier tas
til las
Ġas o
Ġperfec tamente
ĠeconÃ³m ica
Ġs Ã¡b
el le
f al
Ġse cciÃ³n
Ġnumeros as
cin g
Ġoc cidental
Ġimp e
ĠC he
Ġdi eron
Ġen ca
Ġme dalla
Ġser es
i ve
Ġdes pre
x on
G u
ĠÃģngel es
Ġc at
ĠProvin cia
Ġacep tar
ĠS iempre
Ġpo ten
Ġgan as
Ġman e
ÃŃcu la
ĠLe ague
ĠR iv
ĠtÃ©cn ica
Ġraz ones
Ġprofun di
Ġhacer se
peci es
Ġab und
Ġpon e
car ril
ĠCatal uÃ±a
Ġnar iz
ĠJos ep
Ġri t
Ġextra Ã±a
ac er
Ġley es
Ġc la
Ġdeci dido
ci ar
ĠC ant
ber t
Ġapro b
Ġcre Ã³
Ġco ordenadas
Ġfor tal
Ġas i
ti tu
ch en
om bi
Ġcor to
Ġme tro
a f
Ġju icio
Ġdecir le
Ġmez cla
6 5
la g
mÃ¡ tico
Ġcer em
Ġcar b
ÃŃ g
Ãº cle
Ġres erv
Ġgrie go
ĠSo bre
Ġdis puesto
dr Ã¡
T Ãº
Ġprofun do
Ġconstru ir
s ula
Ġt antos
ga ciones
Ġ196 4
s ki
Ġl una
Ġtermin ado
s erv
gu ar
im as
A D
Ġc es
Ġv eg
Ġex am
quil ib
Ġsue le
Ġper m
Ġol ÃŃ
Ġbien es
ĠPa z
tin os
Ãº me
Ġpre cio
ues tos
ĠC ine
Ġingres os
Ġlig er
eg ro
Ġincluy en
Ġofici na
Ġdios es
Ġenem igos
Ġneg ros
Ġpla ya
Ġtraba jÃ³
Ġdes esper
il io
ĠM Ã¡
Ġor gan
ĠPor que
Ġviol encia
di era
Ġfu entes
ĠE gip
ĠT Ãº
ĠA ragÃ³n
Ġten ga
Ã¡ bita
Ġcon diciÃ³n
ĠG r
ens iones
Ġse an
Ġap un
Ġblo que
Ġpa tio
Ġgust aba
Ġ194 0
Ġcomple ta
Ġbrill ante
200 0
Ġautor es
Ġcon tÃ³
201 2
Ġne ga
c Ãº
- .
ĠR ock
e f
Ġco pa
un cia
b os
ĠMar io
Ġpens ado
Ã¡m ica
ier re
s ted
americ ana
ĠCrist o
y an
Ġten iendo
ĠC el
g adas
8 8
Ġca ÃŃda
Ġcon st
Ġart ÃŃculos
O M
Ġl Ã³g
bur g
Gra cias
m urm
Ġale manes
Ġtrans porte
Ġconqu ist
rist a
' ).
Ġ6 5
ĠS port
Ġj apones
Ġreac ciÃ³n
ĠP alacio
i ada
P e
ĠA ma
ĠsÃŃ mb
6 6
ĠD in
Ġju z
Ġpa isa
ÃŃ ti
0 9
Ã³ st
Ġale grÃŃa
Ġde tec
Ġamp li
ici os
Ġpermi tiÃ³
0 1
Ġ4 4
ĠJ avier
que te
Ġacab ar
p us
Ġhistor i
Ġmonta Ã±as
Ġdis min
ĠEst oy
ĠW est
200 4
ĠZ ara
Ġp rac
Ġbuen as
erse y
Ġhistor ias
Ġe ch
ĠDire ctor
Ġmis mas
ĠCub a
p ada
Ġcam ar
Ġopera ciones
Ġac cidente
di ta
Ġquin ce
ien da
us os
Ġguar dia
ĠMe dia
Ġfe der
Ġreconoc er
ĠIs rael
Ġrepres entaciÃ³n
Ġab ri
ĠÃ¡ reas
Ġvi ve
Ġgener ales
Ġ196 6
Ġsal ido
ĠA v
ist oria
ĠFeder al
Ġh em
Ġautor idades
Ġconsegu ido
ĠA par
M o
n ie
Ġe char
Des puÃ©s
Ġtra tando
ĠpÃ©r dida
Ġa is
Ġtra tado
di e
Ġvo tos
c ador
ar y
Ġintent ando
gan ta
Ġdi vis
is on
Ġun if
Ġlengua je
ĠD oc
Ġelec tor
ĠdÃ© bil
Ġimpres ion
cu la
ĠE le
americ ano
Ġcor ona
Ġe c
Ġplan es
Ġson re
Ġcas Ã³
Ġrefle x
Ġhabitu al
Ġp ene
Ġ" Â¡
ĠK ing
Ġllam aba
ue ga
d ul
mit es
Ġs ÃŃn
Ġt Ãºn
Ġres ca
0 8
ĠVic ente
Ġcampe onato
Ġhier ro
S on
Ġcre cimiento
or ro
Ġba jÃ³
orn ada
el es
Ġc lima
l uy
ib ilidad
ta Ã±a
ter s
Ġdi m
Ġfig uras
ĠÃºn icamente
Ġabandon ar
Ġsob res
Ġdese aba
ĠTe x
Ġacab Ã³
ier es
ĠXV II
Ġde do
ti os
Ġ196 5
Ġdes cu
Ġemp e
Ã¡st ico
Ġcons um
j Ã³n
tu re
Ã³m ez
Ġre gu
Ġsac ar
ĠH os
Ġop eraciÃ³n
0 6
Ġqu iso
ĠRic ardo
tien de
Ġperman eciÃ³
Ġcomp rar
ĠG reg
Ġp ic
t ÃŃ
Ġsenti mientos
7 6
ĠM ir
uel to
Ġl iga
w are
Ġproyec tos
Ġpres iden
Ġna cimiento
ĠEs co
Ġsue Ã±os
c ÃŃan
Ġrom p
Ġtrabaj ando
Ġpron unci
Ġdescan s
Ãºs que
en co
ko v
ĠEgip to
ĠfÃŃs ica
Ġdirig ido
Ġsub ir
201 3
9 8
Ġabo gado
b us
H ay
Ġdu ro
ac as
ĠCul tura
ci eron
Ġh Ãºme
di tos
Ġindi ca
ĠB lo
D a
200 3
i i
h ol
oz co
D on
ib e
Ġries go
Ġhub ieran
t adores
Ġcumpl ir
B ien
Ġcomenz aron
ĠB ay
ĠPar que
ros a
U S
Ġprodu cir
ĠD en
Ġases inato
Ġcambi Ã³
pol it
Ġd arse
Ġbuen os
Ġconv ierte
Ġp ec
9 7
ra y
Ã© li
Ġso ber
u a
Ġin teg
Ġa Ã©
Ġ193 0
ÃŃn ea
0 7
J u
sh ip
r ador
Ġcomien zo
Ġa bre
le ctu
Ġinca pa
gen o
Ġab uelo
Ġmo tivos
l on
Ġde man
Ġm ister
Ġescri ta
pon Ã©s
tor ias
ĠSer ie
Ġl un
c Ã©
s as
Ġveci nos
iste ma
Ġcomer cio
v Ã¡n
Ġ" Â¿
ĠP in
Ġsemej ante
ĠAn gel
qu ÃŃn
ĠTo da
Ġreconoci miento
âĢĵ .
it ando
Ġag ente
ĠR osa
Ġcor ta
te les
Ġgar ganta
Ġ5 6
Ġderro ta
ĠEdu caciÃ³n
Ġor e
Ġrealiz a
r ad
R a
Ġtra je
ĠRob erto
Ġ4 1
americ anos
Ġc ena
Ġ196 2
di je
C re
Ġtrans form
Ä ĩ
m ala
Ġle tras
Ġtempera tura
Ġm amÃ¡
Ġcons ciente
en ce
Ġcele br
Ġcuad ro
Ġesc enario
o v
Est Ã¡s
Ġv enci
ĠG as
h t
Ġban co
Ġbar ro
Ġher e
Ġtitu lar
ena je
C as
Ġlo co
Ġpi ano
Ġmus icales
Ġintent ar
ĠmÃ¡ xima
Ġfamos o
Ġpol vo
Ġexp los
Ġsal var
Ġimp uls
9 6
ĠSer vi
le do
Ġampl ia
Ġhabl Ã³
Ġref iere
ĠCh i
Ġen cer
ĠIncl uso
il os
ĠLo ve
ÃŃsi ma
Ġm el
B ar
Hab ÃŃa
Ġmu Ã±
Ġgen eraciÃ³n
Ġautor idad
f os
ĠnÃºm eros
ĠF lora
Ġt ÃŃtulos
in ando
Ġsu po
Ġreg iones
ribun al
Ġgri to
ĠTen go
Ġconflic to
Ġmater ia
ĠD ol
qu illa
Ġtar ea
id or
di ll
Ġa por
ĠG Ã³mez
Ġre loj
i ares
Ġrodi llas
Ġresul tÃ³
j an
Ġpo ca
rid ge
di z
Ġpro pon
Se Ã±
Ġindepen dencia
ĠLe e
ĠGre cia
Ġ194 5
Ġcontinu ar
Ġru ta
Ġ0 1
go za
Ġin dÃŃ
amil ia
ĠA ten
Ġre for
I D
Ġcaball ero
Ġpa tr
c ran
tu mbre
ĠI b
Ġps ic
ĠC atÃ³
Ġ196 3
ien a
Ġorden Ã³
Ġn Ãºcle
Ġjud ÃŃos
Ġdes h
ĠP el
201 5
Ġde cre
les c
to logÃŃa
Ġhaber se
der s
ĠDomin go
and ra
Ġor illa
z ando
Ġ4 3
om Ã©
Ġnego cios
i Ã¡n
Ġmaravil los
Ġv illa
Ġac adÃ©m
Ġcircunst ancias
âĢĶ :
Ġdesarro llar
Ġlu ces
Ġhabl ado
Ġjust icia
p les
ĠpÃ¡g inas
8 7
ĠS cien
Ġ" ,
u mo
icul tura
Ġcambi ado
Ã¡lo go
en zo
in ales
N a
ĠfÃ¡ br
ĠA ut
Ġcon for
Ġfr ÃŃa
ĠCh ica
Ġp risa
Ġs omos
k ing
ĠRi ver
ĠrÃ© gimen
Ġdesapar ecido
201 4
ĠPol onia
Ġh isp
graf ÃŃas
Ġal co
ĠCom isiÃ³n
p ora
Es te
Ġr eno
Ġfrances es
Ġqued aron
Ġbols illo
l ados
Ġar ena
C a
Ġclas ificaciÃ³n
tin u
Ġcos tumbre
Ġresul taba
Ð ½
Ã ¢
Ġliger amente
R es
8 6
Ġmil es
Ġprodu cido
h y
all y
h ÃŃa
ĠS ig
ent an
Ġcomun a
on ios
Ġa mo
Ãºsque da
ĠD em
Ġins pec
Ġle j
Ġas tero
Ġentren ador
ie mb
ĠS ac
ĠMon t
Ġal f
Ġsal e
ab o
ĠEs a
Ġc Ã¡r
Ġmus eo
Ġtrans mi
ĠAl l
Ġrespons able
ĠGran de
Ġcu esti
ti Ã©ndose
Ġb ro
ĠM ic
Ġinf in
Ġb ras
200 1
Ã© ano
Ġna turales
ĠDe bido
ĠD al
ĠH ora
Ġ5 7
ĠmÃ¡ quina
lan da
id ores
Ġex ci
9 2
Ġh ielo
un do
onces to
ĠE dad
ĠDis co
Ġas untos
ĠAnd re
C lar
Ġpin tor
Ġab uela
ue los
Ġch icos
Ġar co
oro este
ĠPal marÃ©s
Ġar ru
ph y
A m
Ġpob la
R E
Ġcr Ã©
c amente
Ġestable cer
Ġev ento
d s
Ġt antas
Ġan cho
Ñ Ģ
enn y
V en
Ġfen Ã³m
ĠFe deraciÃ³n
res t
ĠM Ãºsica
ĠInter na
Ġproteg er
ĠS Ã©
Ġpapel es
Ġex tin
L A
ĠA g
ig ar
vi ese
Ġrelig iÃ³n
M u
Ġpub licaciÃ³n
ul t
Ġext ensiÃ³n
ita ciones
ĠF ab
Ġalcal de
ĠF undaciÃ³n
5 5
Ġv ag
Ġre da
Ġnie ve
Ġcol aboraciÃ³n
Ġconf un
Ġmater iales
Ġfemen ino
Ġviv ÃŃa
ĠCan al
ĠGu ate
Ġhor iz
Ġte j
Ġl lan
Ġdist ribuciÃ³n
oy a
Ġm Ã¡r
pos i
murm urÃ³
Ġaut Ã©n
Ã¡bita t
ĠOb ras
Ġpon erse
ĠS un
ã ĥ
Ã¡ ce
Ġen seguida
v ada
Ġcul p
Ġpie dras
ĠDi pu
en za
enci al
ĠCor ea
200 2
ĠDere cho
Ġch ar
Ġvent anas
Ġdeb ÃŃan
ĠU N
Ġejer ci
Ã ĵ
Ġarras tr
Ġidi oma
M ientras
Ġver siones
Ġt ribu
und amente
ti dades
Ġsac ri
am arca
Ġentu sias
ĠR ica
ĠâĢ ĺ
ĠR ay
Ġd ro
Ġre tor
Ġmulti tud
Ġactu aciÃ³n
ĠCh a
men es
Ġminu to
ĠJo a
Ġadminist ra
Ġvol vÃŃa
8 9
Ġimp ul
ik a
ĠE lec
y en
il as
Ġpro gres
Ġdire cto
Ġest ados
de ll
Ġprob able
Ġin oc
To do
Ġ193 6
x i
m s
ĠAd ri
Ġpie za
Ġb i
Ġha ga
J os
Ġmen ores
mÃ¡ ticas
ĠL una
ĠSue cia
Ġt ap
Ã³ ma
Ġm Ãºlti
Est oy
de os
an ti
tro l
ĠA ra
Ġun iÃ³
ĠC ir
pos iciones
Ġe mer
Ġh Ã©ro
Ġpris iÃ³n
Ġas tron
st o
h el
Ġinte lectu
Ġofre ce
u ti
ba ciÃ³n
ĠPro fes
Ġas ent
Ġins pir
Ġado lesc
Ġest ancia
cri to
Ġco legio
ĠCo legio
Ġlleg ando
Ġhall aba
Ġsacerdo te
Ġpobla cional
Ġprac tic
Ġre pu
ĠBuen o
Ġg em
ĠDÃŃa z
ven ir
Ġpo esÃŃa
ĠCar men
ĠNic ol
ĠP S
Ġtro p
p lan
olÃ³g icos
Ġt ÃŃa
Ġneces ita
Ġcontemp orÃ¡n
ri tos
Ġesc ala
ĠQu izÃ¡
B a
Ġcer v
o ta
Ġ195 8
Ġcomer ci
ĠClub es
Ġtra tamiento
ĠP i
Ġre pi
Ġgu ion
Ġmon stru
Ġllor ar
Ġman da
Ġgri tos
Ġres pec
gu lo
Ġfu i
) <|
Ġemb ar
Ġveh ÃŃculo
ĠGuate mala
e ma
Ġnego cio
ura ciÃ³n
R O
iÃ©n do
ĠVis itante
Ġc Ã¡n
yec to
6 7
Ġl ados
Ġsex ual
Ġ196 1
Ġdeci de
Ġt im
Ġenvi ado
ĠPaÃŃs es
E sta
ib er
ĠmÃ© todo
ĠPue de
itor io
ĠSebasti Ã¡n
ĠJ on
Ġle tra
Ġb Ãºsqueda
Ġdocu mentos
m ada
ĠGran ada
Ġb y
Ġreci be
Ġreg al
Ġatra c
Ġe cu
ĠA f
Ġba jar
Ġver lo
Ġtr ono
Ġpl ano
Ġsuce dido
Ġtempor adas
ctu r
Ġ8 4
ĠFo ot
ĠL eo
Ġcam isa
ir Ã¡
ul gar
Ġac tos
as terio
Ġtecn ologÃŃa
ĠZara goza
ĠPo co
Ġcoin ci
ĠP ie
Ġ Î
Ġe quilib
r ones
Ġrit mo
ĠH oy
ĠAl fre
Ġ3 00
ĠU l
pues tas
Ġemp ren
ĠUni ted
Ã³ cra
Ġal tas
ĠS ierra
ac ÃŃa
u c
Ġde biÃ³
' ;
Ġvol umen
Ġdist ribu
Ġal iento
Ġ Â°
Ġh ambre
Ġarquitec tura
Ġrecuer dos
us s
Ġlleg aba
on ÃŃa
Ġestudi ar
Cap ÃŃtulo
D eb
T E
Ġinterna cionales
Ġdeclar Ã³
Ġcon form
Ġ19 20
Ġven ÃŃa
ÃŃn sula
V amos
te des
Ġvis itar
pe Ã³n
Ã³r mula
Ġespe jo
ĠMar ia
l oria
ĠL y
ĠJ ersey
ĠI ma
Ġmon o
Ġf iel
Ã³n oma
gun a
ĠT ec
Ġamist ad
Ġcu yos
Ġre ales
ĠAn te
Ġale mana
Ġconf es
ĠL is
ĠMos cÃº
Ġprofun da
ĠU U
ĠBol ivia
Ġpe da
Ġsal to
Ġqued arse
ĠAlgun as
pues tos
ĠS y
Ġc lave
Ġconoci dos
Ġro ja
ĠV a
Ġiden tidad
Ġus tedes
Ġten iente
ĠCas tro
ĠZ a
Ġincl inÃ³
Ġquis iera
ie go
cra cia
ĠprÃ¡c ticamente
Ġf icciÃ³n
ĠIr landa
Ġja ponÃ©s
Ġsolu ciÃ³n
Ġt Ã©
ist Ã¡n
c ÃŃ
ran d
li dos
g ano
ĠN BA
ĠA quÃŃ
f era
ĠC uer
lan dia
p g
Ġsegu ida
ĠS ing
ĠT res
Ġobserv Ã³
Ġrev oluciÃ³n
qui la
Ġcons ol
Ġcam pes
st ra
ĠF on
Ġorien tal
ĠP ues
Ġdefen der
h is
Ġad mir
Ġsuce diÃ³
ĠBa jo
ĠTra yectoria
0 3
Ġespos o
ĠLou is
b ras
ĠRos ario
ĠX III
r aron
Ġpa pa
en das
Ġdomin io
6 8
Ġnivel es
Ġhermos a
Ġparti da
Ġh in
Ġrespon der
Ġdesapar eci
C or
ĠF erro
ĠlÃŃ mite
Ġpar eci
Ġte a
ĠSu iza
ĠJun ior
Ġ ),
9 3
Ġmostr Ã³
h r
d am
ĠE E
ĠBro wn
Ġsal v
Des de
ĠS tre
Ġre don
Ġmor al
Ġfor t
Ġhici era
Ġintelig encia
ĠS cho
u z
Ġj pg
Ġinvesti g
ĠC ur
ĠCon st
ĠBa jos
ĠS ir
ĠEs cu
Ġperten ece
Ġc Ã³m
Ġvideo j
n ia
Ġrespe to
S a
7 7
bo ard
Ġvuel tas
Ġo posiciÃ³n
Ġus a
ĠE je
ĠV II
ĠI N
Ġma g
Ġsol ar
Ġs iente
Ġ0 5
Ġbr us
ci tos
Ġneg Ã³
ĠAd am
Ġoscu ra
ĠAl ianza
Ã¡ rez
uy Ã³
Ġch icas
Ġap os
it es
Ġinfor me
Ġdi eci
et s
Ġfor man
Ġdescri tas
Ġpilo to
Ġes quina
ĠSeÃ± ora
Ġbos ques
Ġ5 8
graf o
ĠDist rito
Ġemp ieza
vers iÃ³n
l aba
ch u
Ġcurios idad
Ġsigu iendo
pec tos
ĠN uestra
pon go
Ġal tos
ĠO f
Ġconse jo
ĠCas tillo
ril la
Ġ193 9
Ġlogr ar
Ġsecre tario
Ġca za
y eron
Ġmal o
olog y
Ġterri torios
Ġimag in
ĠEdi torial
0 4
ĠA eropuerto
Ġdel an
Ġcons iste
Ġapar tÃ³
Ġcin tur
ĠRev oluciÃ³n
9 4
Ġbiblio teca
R I
Ġprof undamente
Ġcorrespon den
y r
it ch
Ġprin cesa
Ġc iento
Ġdescub riÃ³
Ġencontr aban
k es
Ġ5 2
Ġval ores
Ġinter ro
Ġapar ecer
me dio
Ġan gust
ĠJo han
v ieran
udi o
ĠcÃ¡r cel
B o
ti das
ĠC ra
199 9
Ġpes e
Ġre vis
Ġvar iedad
pi dez
ĠChica go
ĠLor enzo
Ġsobres al
m ita
ri entes
Ġ195 9
Ġba ilar
ĠS he
pa ciones
ĠZ e
m is
Ġmu ral
ĠInv esti
ĠConstitu ciÃ³n
Ġe quiv
g or
Ġaus encia
ĠDes arro
ĠcatÃ³ lica
re plicÃ³
Ġlar gas
Ġ194 4
Ġcompos itor
ĠRey es
i y
ces is
am entos
Ġv aya
Ġhu mo
mp a
ur ado
ĠR on
e ar
Ġran go
Ġmode los
Ġti ro
ĠespectÃ¡ culo
u alidad
hu a
ĠPol ÃŃ
ĠAd minist
Ġen t
Ġme ter
Ġcier tas
Ġtrabaj adores
ĠV ida
ier ÃŃa
ĠS antos
Ġ195 6
Ġre ca
ĠRa cing
ĠS ala
Ġexp lor
ĠD om
Ġsol tÃ³
gen as
qu inas
Ġfil osofÃŃa
ĠP P
Ġtrans por
em or
9 1
ĠOr ganiz
Ġemb ara
i cion
Ġfel icidad
Ġcap ÃŃtulo
m Ã³
Ġmodi fic
H istoria
g Ã©n
Ġo pon
C reo
Ġp Ã¡l
Ġsur g
Ġrecor rido
Ġpu de
Ġdeb o
Ġr ÃŃos
i amente
Ġdo b
Ġg er
Ġcomple jo
ĠBan co
A P
ad ÃŃa
on atos
Ġha ci
ĠlÃŃ mites
ri oso
ÃŃ es
Ġabs or
Å ¡
ĠSo viÃ©tica
Ãº r
ter na
Ġrecon stru
a e
Ġa ves
O r
ens is
Ġsol dado
Ġfort una
Ġest Ã³ma
S us
F C
ĠNicol Ã¡s
Ġho ja
Ġsignific ado
l ina
Ġretir Ã³
Ġba ile
Ġofre cer
Ġv est
Ġe d
Ġamena za
Ġmar co
Ġportu gu
en es
Ġte mor
j ara
Ġinst ala
Ġpres entes
Ġcal iente
Ġver la
Ġrepro du
b ro
Ġcer can
Ġcer rar
Ġespeci ales
in er
Ġa den
Ġtra tÃ³
Ġpas iÃ³n
un ciÃ³n
er g
Ġabsolu ta
Ġhor ror
ĠG or
Ġpens Ã©
Ġex pon
Ġest adio
id al
ĠeconÃ³m ico
ĠCampe Ã³n
Ġc Ã©
ĠQu iero
ĠG uer
clo pe
ĠN ada
Ġal ber
ĠfÃŃs ico
Ġapar ecen
Ġcon ex
ĠCu ar
Ġfunda ciÃ³n
ĠFa cultad
Ġno tas
Ġh alla
Ġsir viÃ³
Ġh ice
T ra
Ġev entos
Ã©r ico
Ġsal ÃŃa
C ol
Ġtr on
Ġinf ancia
Ġaum ento
Ġesc lav
Ġc ita
ĠA gust
Ġw ith
ĠFran co
Ġalcan ce
Ġolvi dado
Ġmo dos
Ġcap illa
Ġamb ien
Ġinici al
Ġindividu al
Ġser ÃŃan
Ġobserv ar
ĠEurope o
ĠAl cal
ul os
Ġde le
ific ado
Ġpro v
Ġv el
Ġter ra
lar on
ÃŃ ble
ĠFor ma
Ġmedi das
Ġinstitu ciones
ĠpÃ¡ jar
Ġcl ara
ĠIn stitu
Ġ5 1
ch el
Ġas om
ab eth
T u
Ġfund ada
Ġdi cen
Ġmec an
Ġc if
h ib
Ġsir ve
ĠEst ad
Ġesc as
Ġex posiciÃ³n
Ġcari Ã±o
et te
Ġasc enso
Ġ195 7
Ġcomport amiento
t to
dir se
qu in
am ar
b lo
Ġdi ri
Ġestable ciÃ³
ĠJosep h
S S
ien tas
ĠÃ ļ
t he
ĠR ena
Ġac aba
ĠCar acter
Ġrecuper ar
Ġprovin cias
Ġ195 5
ĠT ru
Ġ194 8
ĠAy untamiento
Ġ4 00
ĠNa var
u almente
x o
Ġpien sa
ion ado
gust o
ĠestÃ³ma go
Clar o
ement erio
Ġmunicip ios
g ol
Ġoblig ado
Ġmexic ano
Ġescu do
Ġbar cos
ĠL en
Ġpues tos
201 6
Ġpreci so
ĠA ri
er tos
ant ar
Ġdra ma
ĠDes cripciÃ³n
Ġres pir
Ġcompr om
Ġs at
ĠJun ta
on i
Ġhacer le
Ġt os
Ġvi va
ĠCom itÃ©
vi amente
Ġmon e
Ġescal eras
Ġa er
i ti
t ent
6 4
Ã©l gica
Ġp ura
Ġus ado
pi ta
Ġpos teriores
Ġ risa
isto la
Ġinterpre taciÃ³n
8 4
ĠJust icia
Ġquer er
Ġbor do
Ġt aller
Ġre lev
Ġofici almente
Ġimp ro
j ando
ĠrÃ¡ pida
Ġcontro lar
0 2
ti ficaciÃ³n
Ġarqui te
Ġ194 1
ĠTo p
Ġca tedral
ob o
Ġencontr aron
Ġju ventud
Ġcu idad
vi miento
t ti
ues tas
ur g
Ġdis cul
Ġmascul ino
Ġas ign
ĠFoot ball
Ġmen ti
m ond
ĠP ap
ĠmÃŃn imo
de la
in te
er ra
ĠhistÃ³r ica
peci al
ĠMe d
Ġcomp lic
Ġbas ada
fici al
z go
Ġagr adable
m isiÃ³n
et t
r in
E C
to dos
ÃŃf ica
Ġdist ra
ÃŃst icos
le dad
Ġdel ic
Ġpro ven
ine te
tu vieron
ien se
Ġautom Ã³vil
Ġunivers o
Ġat ribu
Ġpre cios
ĠcÃŃr culo
Ġsimil ares
les ias
Ġcerc ano
ĠH all
Ġen viÃ³
Ġcam is
Ġqu izÃ¡s
ĠAn dal
Ġaver igu
v iendo
ĠtÃ©cn icas
ĠvÃŃcti mas
sus ur
Ġexp uls
Ġexpe diciÃ³n
Ġra mas
ĠB ien
Ġrecord aba
R o
Ġnu cle
uy e
Ġin ci
Ġa eropuerto
Ġcons igo
ĠCam po
Ġinstitu ciÃ³n
Ġp ez
w an
il d
Ġempez aron
ĠGra cias
Ġinv olu
Ġcre es
ant ino
Ġex cepto
ĠU p
P S
ques a
A b
Ġelem ento
Ġel ig
Ġsu ici
Ġca z
Ġvol vieron
Ġabandon Ã³
Ġc lan
ĠTele visiÃ³n
ĠTo ledo
Ġlen guas
ĠK im
Ġconsi de
ĠcÃ³ digo
Ġel abor
po le
ĠN adie
Ġcintur Ã³n
Ġal zÃ³
ant Ã³
Ġpo deres
hi te
Ġsu ma
Ġdi plom
ĠM ike
Ġlu char
Ġ Å
Ġas pectos
Ġc iertos
Ġbas ado
Ġdig ital
Ġretro ce
e la
Ġjue z
Ġcu en
ĠAs amblea
Ġre por
ri k
Ġg estiÃ³n
Ġdire cta
Ġjue ga
ĠCar l
âĢĵ Â¿
Ġ8 5
T O
ĠAn na
Ġrom ano
Ġpri mo
Ġsol ÃŃa
Ġsenti miento
Cu Ã¡n
quier e
Ġfo tos
Ġr on
Ġh ol
ke y
Ġfun dado
ens or
Ġpon ÃŃa
Ġqu ie
Ġclar amente
Ġdis curso
ĠE S
Ġco ger
ĠN ik
ĠR io
M on
Ġa man
ta in
Ġlar gos
z u
Ġata ques
Ġpre mios
Ġban dera
Ġesfuer zos
Ġimp on
Ġcompos iciÃ³n
ĠRo ger
Ġl anza
ĠTemp orada
Ġde p
ĠH ill
Ġ ).
Ġest Ãº
Ġfoto grafÃŃa
ist en
ĠPara guay
V er
Ġ ul
Ġciudad anos
ĠC Ã¡mara
Ġprima vera
ĠNa ciones
ĠL le
Ġentre vista
a Ã±ad
ĠIg na
Ġap licaciÃ³n
Ġrom per
Ġca ÃŃdo
Ġdesarroll ado
7 2
ĠJa ime
Ġv ieron
Ġdescub iertos
uri as
Ġtele vis
Ġvie jos
Ġp eces
ĠCom paÃ±
i dez
ĠS tan
iu da
Ġno ctur
ÃŃ na
Ġcon testÃ³
C an
ed s
ĠV ill
Ġorigin almente
Ġdis cre
ĠMar gar
N i
tar lo
ĠEs per
Ġo dio
Ġun d
Ġalma cen
Ã©c ord
ĠFeder ico
Ġcar reras
ĠInter net
T U
Ġpro ve
Ġna ves
7 4
Ġrela to
Ġdeten er
ĠX II
Ġpo la
Ġreco ger
ar ÃŃan
Ġno t
ĠW ol
ĠLu cas
ĠFuer za
Ġindividu o
ing Ã¼
ĠAmeric an
Ġpien so
ch t
Ġincapa z
Ġv id
tu ario
ĠCent er
Ġespal das
tar le
Ġun iÃ³n
ĠBiblio teca
Ġper segu
Ġsent ada
Ġimag inar
Ã³m icos
Ġdedi cado
ti era
Ġi d
ĠCom unidad
ch an
Ġprop uesta
Ġ5 4
199 8
Ġsomb ras
1 00
D o
ĠMar ina
Ġhe cha
6 2
ic ana
8 3
Ġcuar ta
Ġher manas
Ġconven cer
Ġdedi cÃ³
Ġf ren
ĠD ay
Ġconci erto
ĠDepor tes
N os
p ados
ĠPro du
Ġfund Ã³
Ġfundad or
Ġcom pu
r ue
Ġmoder na
Ġllev aron
ĠVÃŃ ctor
Ġs h
Ġinfan til
la ce
Ġcas tell
A ll
Ġpa pÃ¡
ĠN ar
Ġro ca
ĠCaracter ÃŃsticas
Ġf er
Ġdes pi
Ġextran jero
Ġvi das
t ta
te mp
ĠNa tional
ier nes
Ġ5 3
Ġcre ada
Ġt ensiÃ³n
Ġmus ul
ĠÃ¡r abe
ĠCam b
Ġa ga
Ġv osotros
ĠEs p
ĠF rente
ĠPhil ip
ri dos
Ġdesconoci do
Ġ195 4
Ã© ticos
ĠM iss
ĠdÃ©c adas
ĠO h
M ad
Ġcu Ã¡l
ĠbritÃ¡n ica
ĠO tras
ĠIn gen
m bito
S h
8 2
Ġpe dido
ĠZ o
ĠB Ã©lgica
Ġdes ierto
ĠT ol
ĠPrim er
Ġcu entas
Ġvas o
Ġinteres es
ĠPar tidos
Ġpublic ada
Ġenfer m
Ġher ram
Ġentre ga
uer ta
Ġpriv ada
Ġpers pec
ĠN ico
Ġactu ar
Ġpro to
Ġte xt
ĠS k
ĠG lo
Ġin ex
Ġbol sa
tu m
Ġnov elas
Ġv iendo
ru pciÃ³n
Ġposib les
ĠClas ificaciÃ³n
Ġex cepciÃ³n
Ġcic l
ĠfÃ¡cil mente
Ġtu ve
Ġperfec to
Ġp istola
Ġpre cip
Ġal titud
eg as
ĠTe am
Ġinclu ido
Por que
Ġdorm itorio
ĠPers ona
Ġ194 3
ti ble
Est aba
Ġfir ma
Ġreconoci do
Ġad or
Ã©l ulas
Ġ194 2
Ġcandida to
Ġal as
Ã© ramos
Ġanterior mente
ĠA D
Å «
Ġpos iciones
it antes
dol fo
Ġprome dio
ĠmÃºlti ples
Ġal o
Ġcomp uesta
Ġcolum na
Ġri que
ĠM ill
ina ciones
6 3
Ġcol ombi
im nas
Ġbo da
Ġtitu lado
Ġcompe tencia
Ġba terÃŃa
Ġdesapar eciÃ³
Ġper u
Ġar ch
Ġla tÃŃn
Ñ ģ
Ġsuel en
ĠN orth
Ġpasa jeros
ad illa
Ġhum il
Ġ195 2
ĠC in
ĠIs las
Ġper ros
ur s
Ġexplic ar
Ġ9 5
ĠMar cos
ã ģ
den cias
ĠEd ward
Ġofre ciÃ³
ĠTer esa
Ġcomp i
Ten go
8 1
ist iÃ³
s ch
Ġen torno
Ġcor tes
Ġcompr ome
za je
on ado
Ġantigu as
C al
ĠMar co
Ġtom ando
Ġcorrespon de
Ġapren der
el ia
ĠV io
ĠT y
Ġform ando
Ġprotagon ista
Ġ %
Ġprepar ado
vi mos
z ob
Ġcin tura
ĠCab all
Ã©s pe
Ð¾ Ð
Ġse llo
s an
ĠJo e
Ġcamp amento
ĠTom Ã¡s
Ġtendr Ã¡
t ones
f ia
Ġale gre
ĠTo das
M uy
Ġneces it
Ġl lave
ĠGre en
Ġco g
Ġaf il
terrÃ¡n eo
Ã³r ico
ĠSte ph
ĠTo k
pu laciÃ³n
Ġampl io
or i
Ġcu antos
Ġm ent
Ġbar ra
mp ico
clope dia
ĠPrin cip
ĠN ick
Ġavi ones
Ġso vi
Ġcap tu
s ol
Ġon ce
Ġba jas
Ġf ing
Ġ6 4
me lo
ĠEstudi os
Ġclub es
Ġau x
ĠK ir
ĠtÃ©cn ico
Ġpre ce
M al
ĠR ad
pol is
ĠM ira
ga z
ĠDef ensa
Ġdis cip
ĠCatÃ³ lica
Ġdetal le
Ġac on
ĠA Ã©
i ri
Ġextra ordin
Ġl istas
Ġg irÃ³
Ġarquite cto
ĠS oy
ĠAl to
U N
7 1
ĠLeg isla
Ġcub ierto
Ġin vi
Ġfies tas
Ġlogr ado
Ġam ante
Ġforma to
un e
Ġen tero
Ġinteres ante
ĠaÃ±ad iÃ³
cia ciones
ĠF ord
Ġindust rial
te la
ĠZ el
Ġtraslad Ã³
mb o
ĠseÃ±al Ã³
Ġllev aban
Ġobs erva
ĠHar ry
Ġfamil iares
ĠPla y
Ġsab emos
Ġestructu ras
Ġases ino
iemp o
Ġllev an
Ġem is
ÃŃs o
Ġrep ent
ĠIn dust
ĠLib er
Ġinstala ciones
ĠT w
ĠM r
Ġi ra
Ġres idencia
Ġob ede
7 9
Ġf la
Ġtex tos
ven il
T h
ĠCham pi
Ġpas aron
u k
Ġir ri
ĠTex as
Ġllam as
al ÃŃ
th er
ĠReg iÃ³n
Ġtorm enta
Ġgeo grÃ¡fica
ĠÃ¡ mbito
ci les
ur ar
Ġneces ito
ĠPat ri
201 7
Ġrom Ã¡n
ÃŃcu las
Est o
Ġcent ros
Ġlib res
Ġata car
Ġman tiene
ĠvÃŃcti ma
Ġesc uelas
m el
ĠDesarro llo
Ġcas ado
Ġcomer ciales
ĠO tro
p p
P rim
ten ta
Ġsu biÃ³
Ġf le
Ġcolo cÃ³
Ġanci ano
Ġcompe ticiÃ³n
Ġblan cas
Ġdeb u
Ġcap aces
Ġrealiz ada
7 3
Ġ195 3
Ġ194 9
5 3
Ġperman ecer
Ã³ p
Ġreco g
Ġf ama
Ġelec trÃ³n
Ġcu ento
ang el
Ġpopular es
Ġn oroeste
ĠD er
Ġcu yas
ĠLa ura
Ġo fer
Ġedu ca
Ġveg e
lan des
Ġjug ando
aÃ±ad iÃ³
tur almente
ĠFlor ida
ĠnÃºcle o
d ones
Ġmu ro
cien da
Ġencar gado
Ġazul es
Ġac tiv
c ro
ĠprÃ³ ximo
ĠTor res
b ara
Ġ194 7
Ġ193 8
Ġm am
Ġres iden
Ġ umb
A quel
Ġpre di
ier da
Ġvein ti
Ġveh ÃŃculos
199 7
ĠV iv
Ġdo l
ĠDoc tor
ĠM es
Ġcab ec
om ba
ĠMin istro
Ġt ru
la ga
Ġpub l
F ue
ĠAndal u
V ol
Ġgig antes
ĠS tor
Ġev oluciÃ³n
Ġven der
ĠResul tados
p io
Ġher ida
ĠV iena
Ġinv ad
Ġtemp rano
if f
Ġfa chada
Ġban das
Ġce Ã±o
endo za
ĠHu go
v ÃŃ
Ġsomb rero
ĠvÃŃ deo
qu eros
ĠcrÃŃ ticas
Ġd ama
u co
Ġimp acto
ĠE ug
Ġbeb Ã©
l le
Ġcomun es
k et
Ġre ferencias
Ġse co
Ġser ies
Ġtum ba
te za
ien das
ĠF ac
ĠMil itar
den as
Ġf an
Ġaf ro
Ġla tinos
Ġag entes
Ġ194 6
Ġflo ta
res te
v y
ĠEs paÃ±ol
Ġplata forma
Ġparticip antes
Ġpriv ado
Ġo x
Ġc igar
ĠÃ¡n gel
Ġpo tencia
Ġhab rÃŃan
6 9
Ġestudi Ã³
h um
Ġpropie dades
c tion
om en
ĠRoy al
ome tra
un n
Ġizquier do
Ġparec en
Ġapo yÃ³
Ġsu g
ĠK en
Ġindividu os
el li
Ġre t
Ġmon tÃ³n
ĠDemo crÃ¡
as on
Ġinm Ã³vil
Ġcon curso
Ġhac es
Ġrep ublic
ch us
Ġraz on
ĠpÃºb licos
Ġnub es
ier nos
ã Ĥ
ĠS por
Ġnov ia
Ġempez aba
Ġdi ces
ĠAgust ÃŃn
m us
ĠO este
Ġi b
Ġingen iero
Ġcient ÃŃfico
Ġdistin to
Ġac re
Ġab ur
Ġcal ma
Ġle che
Ġre clam
Ġhom enaje
ĠP ort
Ġ âĢķ
Ġequiv al
Ã «
Ġrecuer da
at han
Ġor questa
Ġinstru mentos
ru m
Ġimp lic
ĠPa tr
ot s
Ġingles a
Ġsub s
ier as
or as
ti g
199 5
ĠNavar ra
Ġaj ust
ĠF un
6 1
Ġenf ad
V D
Ġus ando
m entaciÃ³n
Ġgen era
Ġser p
ĠE ran
ar los
Ġva por
Ġc Ã©lulas
Ġpen ÃŃnsula
vi deo
Ġcar ro
Ġacer carse
Ġapar t
Ġcon cur
Ġdue Ã±o
ĠC orte
Ġgraba ciÃ³n
ĠU E
Ġpre f
Ġhues os
Ġtr Ã¡fico
Ġconoci Ã³
he im
ĠW ay
Ġman d
f ar
ĠPar t
ĠraÃŃ z
Ġsu minist
ĠO tra
Ġver se
ĠJ ones
Ġaconte cimientos
Ġsupon e
ĠIs la
Ġbar b
cri p
ĠCar olina
ĠRe ina
Ġn aciÃ³n
Ġres piraciÃ³n
Ġexp licaciÃ³n
Ġter mina
ĠprÃ³ xima
ĠCam p
Ġfemen ina
Ġgu a
g ara
Ġamar illo
h ab
Ġespi ritu
k ins
Ġcuer da
Ġdis posi
Ġperm iso
Ġt ill
ĠIgna cio
Ġo di
ĠR um
Ġes que
Ġac ero
ĠD ig
Ġlec tura
Ġ193 7
ĠS el
ĠJ ar
Ġr ÃŃ
Ġcompe ti
Ġdis posiciÃ³n
Ġutiliz ando
Ġcrist ianos
on so
D ios
pi ra
Ġen tiendo
ĠPan amÃ¡
Ġbras ile
bu lo
ar Ã¡n
Ġv uestra
Ġesc enas
ĠH Ã©
Ġdomin go
Ġpodr Ã¡
de st
Ġrecord Ã³
Ġh orm
Ġab or
20 18
Ġtriun fo
Ġsus pen
Ġcent ÃŃ
Ġest ad
g amos
ier en
199 6
Ġob st
Ġestra teg
Ġcivil es
ĠVir gin
Ġla ment
l s
ĠSim on
H as
ĠO riente
Ġcor riÃ³
olÃ³g icas
ĠS or
an na
Ġpa ciente
Ġbomb ar
ĠfÃ¡br ica
Ġoc Ã©ano
ĠHos pital
Ġpa usa
ĠK al
Ġin com
Ġemb aj
ĠCompaÃ± ÃŃa
ik o
Ġcas co
Ġcar ca
Ġpues ta
Ġtrans cur
ĠF is
ĠB ell
ĠN eces
ĠS istema
ÃŃ genes
Ġre inado
Ġbo tella
Ġmo viÃ³
all Ã³
Ġma pa
Ġel e
Ġha go
ĠP ic
Ġpas eo
el son
Ġgu i
Ġconsecu encias
Ġreligios a
Ġmej illas
Ġmar gen
ĠR ico
p Ã©
Ã± e
Ġapar te
s mo
Ġl um
ĠC ic
ĠN egro
Ġher ido
em in
F u
ĠmÃ© dicos
Ġcon tado
Ġasegu rar
ĠBre taÃ±a
Ġpob res
Ġco le
Ġsatis fe
Ġimp a
st os
Ġaum ent
Ġdesgra cia
Ġsuf riÃ³
p ista
Ġcerem onia
Ġdest ro
Ġbeb er
ĠRos e
ĠP ob
ĠInterna tional
Ġproces os
ar quÃŃa
ti di
Ġsi mb
ĠA venida
til idad
am ora
Ġsof Ã¡
ĠH y
Ġtranqu ilo
Ġincre ÃŃble
cu er
Ã¡ metro
ber to
tien en
Ġres olver
er es
Ġren unci
Ġcom pa
Ã©m ica
Ġmer can
Ġen vol
Ġpelig ros
Ġte l
* *
Ġabandon ado
Ġpantal ones
Ġar b
ĠJoa quÃŃn
Ġp Ã¡r
Ġgra cia
ĠsÃŃmb olo
ci ado
Ġocu pado
ĠacompaÃ± ado
Ġsegura mente
ĠMer ce
er ta
tad ura
ĠReg ional
Ġinv itados
susur rÃ³
Ġide al
Ġag ru
Ġrev olucion
gÃ¼ enza
Ġsu ger
Ġcon tras
ĠÃ¡n imo
a der
ĠCol le
Ġper don
ĠH as
Ġver te
ĠCom er
ĠB il
Ġdesp laz
m ica
ĠB ir
Ġhier ba
tra mos
Ġre ti
tr ÃŃa
z ados
ig an
k en
ile y
ĠPar lamento
Ġses enta
Ġpresent ado
Ã¡r selo
ĠM endoza
Ġsuper iores
Ġcul turales
Ġver des
B S
ĠCul tural
g y
ti po
Ġconci ertos
le to
Ġexist ÃŃa
Ġ195 1
pres iÃ³n
Ġdu das
ĠL im
ĠMu chos
Ġley enda
Ġdi v
Ġcar gos
Ġapar iencia
Ġparro quia
itar ios
lo w
ĠT ig
Ġconstru yÃ³
te in
Ġdes ay
ĠS pi
Ġpreocu paciÃ³n
5 2
ĠR an
ĠB ran
Ġenc ab
Ġtradu cciÃ³n
ter ÃŃas
ĠQu in
Ġcul tiv
Ġcomb ust
Ġt rib
Ġv ocal
Ġ15 0
Ġapo der
P A
Ġpres a
ĠSer gio
ĠcuÃ¡n to
Ġhor rible
Ġtab la
Ġcab ezas
Ġencontr arse
Ġprofundi dad
Ġre ver
ĠIndepen diente
Ġconstru ida
l id
Ġpaisa je
Ġferro carril
J a
ag er
ĠV el
ton e
ĠBlan ca
Ġtar je
fica ciones
t ano
u das
Ġcrim en
ĠStre et
qu ido
Ġm Ã¡g
ĠPar ecÃŃa
Ġmez cl
lo v
uer te
mo grafÃŃa
H ola
ĠN ie
Ġd aban
Ġen ormes
Ġop ciÃ³n
Ġinv itado
ft ware
Ġcr uel
g ie
Ġconsider aba
der son
land Ã©s
ĠP C
Ġme ta
en io
N ada
b ir
Ġescu ch
Ġesta ciones
A y
Ġdificul tad
Ġprofes ionales
ĠEp iso
Ġcon cep
ĠTo wn
Ġmover se
ĠEurope a
se cu
Ġdese os
Ġhab itaciones
iz abeth
Ġdesl iz
Ãº car
ĠI ll
Ġs ill
Ġsig uen
Ġextre m
te a
Ġdes as
ar nos
Ġor g
ĠSab ÃŃa
ĠDist ribuciÃ³n
T al
x a
Ġdi ferencias
Ġper f
s el
Ġdesarroll Ã³
Ġcont ribuy
Ġinten ta
Ã± ada
Ġsi tios
Ġam able
Ġrey es
ĠAt lÃ¡n
ĠAn n
per s
ĠSco tt
Ã¡st ica
Ġpi ra
Ġpla to
Es paÃ±a
Ġvi viÃ³
Ġgrab ado
5 8
Ġdieci s
ĠP ierre
den al
ĠperiÃ³ dicos
Ġhuman idad
Ġcl ientes
ci ta
P as
Ġlo cura
ĠAl b
ep res
ĠL ife
qu ista
Ġca teg
Ġpri vi
Ġag res
Ġpo p
Ġnorm almente
it ro
Ġdocu mento
Ġman ga
ĠFil ip
ĠÃģlvar ez
ĠB et
Ġconf irm
Ã¼ r
Ġrespons abilidad
Ġ0 4
Ġru mbo
Ġac lar
Ġsegu ÃŃan
ĠK at
Ġzapa tos
Ñ Ĥ
gan za
ĠOb serv
Ġeleg ir
ĠO x
Ġvia jes
Ġabs ur
Ġe fica
ĠW h
Ġh arÃ¡
fec to
ĠAndalu cÃŃa
Ġcerv eza
Ġco b
Ġlo gra
ti stas
C O
Ġtra er
ce lo
I M
l im
Ġ193 1
tro p
Ġre des
Ġconsider ada
ĠHa w
ĠB rig
T er
Ġand ar
Ġam bi
ica ciones
Ġr aro
ro p
Ġimp erio
re puso
ut amente
ĠHern Ã¡ndez
Ġinici almente
Ġgri tÃ³
Ġro cas
Ġdispu tÃ³
ez Ã³
mor e
Ġal dea
Ġre tras
ores te
inas tÃŃa
Ġt umb
L es
Ġestu vieron
ĠindÃŃ genas
Ġesc la
Ġ5 9
Ġorgu llos
Ġital iana
Ġde v
ic ano
Ġcomien zos
Ġigu almente
ĠSal am
Ġdespa cio
ne os
ag n
Ġpre v
Ġhu ir
Ġdestac a
ĠBe at
Ġ0 2
Ġdispon ible
Ġqued an
ĠOfici al
Ġs Ã³
Ġf ich
Ġte la
Ġson riendo
ĠcientÃŃf icos
Ġedi tor
ĠL ic
Ġmej illa
u ch
Ġcic lo
ĠA k
Ġsi mul
ĠT el
Ġposib ilidades
Ġequilib rio
Ġr osa
Ġc ens
Ġ193 3
u to
omin ado
ĠXI V
Ġm ac
Ġdes pren
ĠSu pre
ĠâĢĶ Â¿
Ġdes f
ches ter
Ġconqu ista
er in
um as
Ġan ual
Ġases inado
ĠSim Ã³n
Ġfalle ciÃ³
gu era
ĠhabÃŃa mos
go tÃ¡
Ġpl ena
t ente
Ġrom ana
ĠSo uth
Ġar gentina
Ġcos tado
ĠT ay
Ġac eler
ĠV uelta
Ġsuce de
Ġintelig ente
ĠA C
ĠH it
grÃ¡f icos
f in
ĠSuper ior
Ġdificul tades
Ġsuje to
Ġpier na
Q uer
Qu ieres
Ġto cÃ³
Ġcerc ana
Ġedi torial
Ġfundam ental
j adas
Ġcompro b
Ġocu pa
Ġa pertura
Ġorganiz aciones
Ġhi jas
Ġin forma
ĠV III
u dos
Ġdis cos
Ġsorpren dido
Ġperson alidad
ĠRu iz
Ġcons a
h or
Ġcompro bar
Ġpres entaciÃ³n
ar as
Ġpudi eron
Ġmoder no
To dos
e e
Ġmon asterio
Ġastero ides
Ġah or
Ġmic ro
ĠS w
Ġlu ch
Ġdepor tiva
Ġser Ã¡n
Ġp ico
ran da
ĠS um
ĠCh ris
ĠV ene
Ġse l
Ġma es
Ġpudi eran
ĠF ri
dum bre
Ġinvolu c
Ġsent ÃŃ
Ġcria tura
Ġelec tr
ex o
iv io
ĠP J
Ġrom anos
Ġefec tu
Ġs it
Ġcome dia
Ġ0 3
st on
us h
ĠIn formaciÃ³n
Ġmostr ar
Ġex ces
iz ados
Ġg oz
E res
Ġfon dos
ĠAm er
Ä į
Ġperman ente
ing er
Ġde cor
ĠE va
allado lid
ĠAn t
pi Ã©
T ienes
Ġinv asiÃ³n
gr ada
I L
m ad
Ġmar char
Ġn atal
Ġobje tivos
g l
Ġcer rado
Ġsuf rir
or ado
5 6
Ġest an
Ġv ÃŃas
Ġt ol
Ġform ada
th ur
ĠHon or
Ġag re
Ġgol pes
Ġdenomin ado
ri ll
Ġaso ciaciÃ³n
Ã©n ez
in idad
udi cial
Ġt ub
ĠCon cepciÃ³n
ĠL A
ĠEst re
ies ta
ĠHo use
Ġl an
ĠCh o
h em
Ġen d
Ġsentir se
Ġne u
ĠR em
Ġhisp anos
Ġde pos
Ġestar Ã¡
ĠNor uega
ĠBan dera
Ġin esper
ĠAl onso
ĠC ort
ĠMu jer
Ġreg istro
ĠA R
ĠelÃ©ctr ica
Ġa la
Ġquier en
5 4
ĠPr ÃŃncipe
Ġcu ra
Ġcon ozco
Ġun e
ici as
Ġcam inar
Ã©n dez
Ġinterpre tÃ³
ĠN ombre
Ġagr ÃŃ
Ġv os
O E
Ġelector al
Ġavent ura
ĠAten as
r ores
Ġr Ã©cord
ĠGal erÃŃa
M Ã¡s
y es
Ġunif orme
iz as
Ġtraba ja
ris as
Ġemo ciÃ³n
ĠL lev
Ġcu Ã¡ndo
Ġqu itar
Ġz ar
ĠC y
Ġco ches
Ġcer rada
ĠAlex ander
Ġdesign ado
Ġdesper tar
V al
ig naciÃ³n
C D
Ġintens idad
Ġno table
ĠScho ol
ĠMe dio
er ÃŃas
Ġest ima
ĠD entro
I s
g s
, '
ĠA udi
ĠK enn
Ġclar idad
Ã± aba
Ġentre gÃ³
Ġqu it
ific ar
Ġhi pÃ³
ĠmÃºs ico
an til
Ġb ille
Ġumb ral
Ġch ino
ĠcrÃŃ tico
il an
Ġqu iera
Ġocu pÃ³
ti za
ĠL am
ĠA re
Ġcam inos
qu ero
Ġalum nos
Ġmostr aba
Ġfirm Ã³
Ġemple o
ĠLe v
ĠJ unto
ip s
ci encia
Ġsu dor
T S
Ġinter ac
Ġimpul so
Ġexplic Ã³
ĠcaÃ± Ã³n
Ġneg ras
to Ã±o
Ġdorm ido
Ġprision eros
if a
ĠLib ert
Ġga to
ĠRu ta
Ġenco giÃ³
Ġextran jeros
Ġescri tos
Ġaf irm
so cia
t Ã¡ndose
et y
ian as
Ġens ay
Ġcabec era
ĠS tad
Ġdej aron
cion Ã³
ĠL ord
Ġ1 20
Ġresta urante
H o
Ġ25 0
âĢ¦ ?
V e
Ġmar chÃ³
ĠAmb os
Ġt in
ĠAs imismo
ĠT am
ĠpÃºb licas
Ġesclav os
Ġcul to
ci dades
ĠD re
ĠA la
ĠTer cera
Ġsab ido
Ġexp lica
Ġinter venciÃ³n
e amente
al ia
Ġnervi os
ĠPa ulo
Ġexcel ente
Ġra pidez
199 4
Ġpar t
Ġgan ador
Ġre h
Ã³ f
Ġdirig ir
Ġ193 4
ĠclÃ¡s ico
Ġcuch illo
Ġcompren diÃ³
ĠN elson
ĠÃģ r
Ġvues tro
ĠA gr
Ġfortal eza
ĠL ong
Ġac aso
Ġtriste za
Ġpla zo
Ġn eo
Ġestren Ã³
es as
Ġ om
Ġescu ad
Ġalim entos
ĠT ony
Ġrelacion ados
Ġeurope os
Ġameric ano
Ġcaball eros
ell y
ed y
ĠWilliam s
Ġdestac an
ri les
N unca
Ġpa go
Ġcolum nas
cis mo
Ġmedi cina
ĠC le
Ġcin ta
ĠB ig
Ġtra ÃŃdo
ĠW hite
a jada
Ġac omo
ĠEsco cia
Ġp le
enci ado
Ġval e
ĠF lores
Ġperson ales
ĠCh art
g ento
Ġdis im
Ġab iertos
Ġlic encia
Ġincorpor Ã³
B ill
Ġorgu llo
Ġrela tivamente
Ã¡ ticas
Ġgen eros
pu la
Ġpat as
Ġac tores
g aban
Ġder rib
Ġap las
esti a
Ġrin cÃ³n
Ġcu ero
Ä ģ
ar s
ĠL il
ĠEl ena
Ġresi diendo
ĠT ab
ĠK ra
ar ch
Ġpro pa
Ġsopor tar
Ġras gos
e val
om er
Ġreci ente
ĠColle ge
com entÃ³
ĠV amos
Ġres erva
ol os
Ġrev istas
ĠAdminist raciÃ³n
Ġhab ilidad
Ġdestru cciÃ³n
Ġentre gar
Ġcos tumb
ctor a
ĠSe de
Ġesp ero
ĠseÃ± ales
Ġbor ra
Ġingles es
Ġescri torio
ĠT es
Ġactu ales
Ġquin to
Ġg aran
ĠC F
Ġdipu tado
Ġdestru ir
vir tiÃ³
ĠF ort
Ġastron Ã³micos
Ġres tr
Ġayud Ã³
Ġdismin u
Ġres plan
Ġsal ieron
Ġdeclara ciÃ³n
enz Ã³
est ad
Ġcons erva
ĠmÃ© todos
est ran
ĠLi bre
ĠWal ter
" ;
Ġf ic
Ġmu ros
Ġmo tores
ĠH ans
Ġneces idades
c rib
fici entes
ĠclÃ¡s ica
Ġap la
ĠF ra
Ġmuer ta
ĠfenÃ³m eno
Ġme mor
ich o
5 7
Ġen tera
ĠOc cidental
u ca
ĠP am
Ġabs ol
pan y
diÃ³ s
E M
Ã³n icas
Ġsuav emente
20 19
ĠJack son
mi rante
Ġdescrib e
Ġconvenci do
Ġemple ados
Ġdi rÃŃa
ĠC orn
Ġi leg
Ġco pias
m enta
Ġleg al
gra ciÃ³n
Ġre cep
s car
Ġ19 10
ĠJac ques
Ġ x
Ã³ so
Ġquer ida
ala jara
eb ra
Ġmanten ÃŃa
ĠD un
ĠAlber t
Ġar a
ay as
ĠH i
Ġferro vi
Ġli der
Ġre forma
Ġex cep
f u
Ġdi gn
Ġpue dan
Ġvis ible
5 1
ĠI t
Ġma gia
ab los
ĠN Ã¡
Ġ193 5
Ġqu itÃ³
Ġman us
Ġh Ã¡bitat
Ġvi vido
ĠMo vimiento
Ġmon eda
Ġlevant ar
Ġar res
D i
Ġcons umo
Ġincon s
Ġrue das
Ġpobre za
A c
Ã ¸
Ġpar ar
Ġa fer
ĠEcon omÃŃa
ĠCal le
Ġv oc
leg Ã³
Ġmon te
ĠGran d
ĠCar acas
Ġ <|
ab ell
ma to
ĠOrganiz aciÃ³n
S oy
Ġ193 2
Ġaust ral
Ġbes Ã³
bo a
ĠT iempo
Ġra ma
ora ciones
Ġllam adas
Ġir se
ĠS ong
xon omÃŃa
ig na
Ġimport aba
Ġespa cios
ĠCar ol
Ġapar ato
O L
Ġespec tadores
ros s
Ġ0 7
Ġme tiÃ³
ĠP adre
Ġinst antes
Ġrab ia
b amos
Ġpele a
Ġtradi cionales
Ġpermit ÃŃa
Ġ' -
ĠAst urias
Ġpro cur
Ġhistori ador
ĠCuer po
Ġventa ja
ĠFran ces
Ã¨ re
Ġ Ãºtil
Ġcomun idades
for tun
Î ±
T C
P P
Ju an
Ġconf i
Ġpoder oso
Ġpresent an
ĠJul ia
ĠHun grÃŃa
Ġfij amente
Ġagu ard
Ġse mb
ĠHum an
ĠRo dri
tr y
ĠUni das
Ġlig ero
Ġentre v
Ġb oc
Ġprim i
it t
Ġfoto grafÃŃas
h l
Ġempez ado
Ġdu raciÃ³n
p oraciÃ³n
Ġcomp ra
Ġmejor ar
ĠBo gotÃ¡
Ġconsider ar
Ġac tivo
Ġsorpren diÃ³
Ġvien tre
Ġcu mple
tinu Ã³
Ġpres i
f un
Ġdescub rimiento
Ġprovo cÃ³
Ġviv en
Ġcompar tir
in da
Ġin Ãºtil
Ġleg isla
Ġdeten ido
Ġen can
Ġpos esiÃ³n
Ġenfer mo
ĠV alladolid
Ġna v
ĠArm ada
c Ã©n
ĠMe xic
Ġreg las
Ġagar rÃ³
Ġimpe dir
ĠP ala
ĠOri ental
tr ina
s burgo
v ÃŃan
d le
T a
ĠGu ti
Ġ192 9
Ġc ementerio
Ã¡ i
Ġcont ribu
m inaciÃ³n
di lla
Ġc ientos
Ġpl eno
Ġter ren
Ġestudi ante
Ġperspec tiva
ĠlÃ¡ mp
Ġdedi cada
Ġsuf rido
ĠVo tos
us al
ĠseÃ± ores
Ġpar lam
vi as
Ġpelig roso
ari amente
ĠR oc
Ġsigu ieron
Ġconstitu ye
at ar
r ica
ot h
Ġindust ri
ĠLat ino
ĠS to
le tas
Ġgr ados
Ġsol itario
th y
ĠP es
l is
Ġr ico
Ġe gip
Ġra yos
Ġco cin
Ġre pos
enci o
Ġman z
Ġar till
Ġ19 14
Ġperfec ta
Ġmu es
Ġse pul
Ġmo da
ĠMas sa
Ġf ishes
at oria
Ġdi e
Ġter cero
dal las
Ġreci n
Ġpob laciones
E T
mi d
Ġbal oncesto
im ia
Ġpro hi
Ġex ca
cu erdo
D urante
G ran
Ġescri tura
Ġm ental
cion ada
Ġfamos a
Ġh arÃ©
Ġcomprom iso
Ġconte xto
Ġsuper viv
ĠCon dado
Ġre ga
ĠCon de
Ġrefer irse
Ġcha queta
Ġcri tic
Ġo ÃŃdos
Ġ192 8
Ġacab ado
Ġin n
Ġfil as
Ġcon mo
all en
Ġintent aba
Ġconcent raciÃ³n
Ġmunicip ales
Ġqued aban
Ġmor tal
dad as
Ð º
Ġtran quila
us iones
Ġutiliz an
Ġtra mo
Ġpresent ar
ĠParti cip
Ġguar dias
Ġreligios o
re za
Ġint enso
Ġcen ar
A quÃŃ
ĠDire cciÃ³n
uel ve
Ġtra to
ĠA th
Ġ0 9
Ġac ces
Ġ0 6
Ġinf luy
Ġhi dro
tr ar
Ġinstru mento
Ġay er
Ġdesa f
v ados
Ġindi s
Ġin du
cion ario
Ġqued ando
Ġin j
Ġsu yos
Ġaf ric
Ġabsol utamente
p ic
Ġparticular mente
ĠAr turo
Ġcuad ros
S Ã³lo
Ġah o
tu des
Ġvia jar
ĠAr qui
ĠAward s
ĠJ ord
Ġsab en
ĠA S
Ġcan to
Ġher idas
I V
' t
ien en
ĠI X
Ġdeb emos
ĠI sa
199 2
us te
Ġrepresent ante
el los
Ġejerci cio
Ġin cÃ³mo
Ġsignific aba
Ġde pÃ³
Ġestable cido
Ġfra cas
Ãº an
Ġs anto
SeÃ± or
et ts
A le
ĠVe ga
ĠMor eno
Ġcuen ca
Ġdescri pciÃ³n
Ã¡n dal
S abes
Ġc il
Ġlo ca
Ġconv ento
ĠPar is
Ġcol onia
A F
Ġpo ema
Ġmexic ana
Ġejecu ciÃ³n
Ġtrabaj aba
Ġapart amento
Ġreg ional
Ġo cta
ĠW ood
Ġni Ã±as
Ġmedi as
Ġllev ando
Ġcas arse
te lo
Ġfuncion amiento
Ġcre ciente
199 3
Ġinfer iores
ĠG i
m Ã³s
ĠbritÃ¡n icos
ĠDin amarca
Ġcons igue
Ġ0 8
Ġquer ÃŃan
Ġcor o
ĠBel las
Ġllam ados
Ġtar eas
5 9
ĠM all
la je
Ġre medio
Ġ= <|
Ġurb ano
ĠHol ly
ĠMunicip io
k ar
Ġapre tÃ³
ri era
Ġpub licaciones
Ġestre cho
dor o
Ġacu er
ĠBlan co
Ġmar in
co pa
Ġins ul
Ġde ca
Ġem ig
Ġingres o
199 1
Ġle ÃŃdo
ala x
ĠMÃ¡ laga
Ġpres idencia
M S
v emente
Ġfus il
Ġimper ial
ces iÃ³n
ub e
Ġexpan siÃ³n
c ambi
ĠSegu ridad
ĠCas i
ĠGuad alajara
Ġindividu ales
ĠR ÃŃos
ci entes
ĠestÃ¡n dar
ĠF l
Ġcaracter ÃŃstica
ĠN ight
Ġle ve
ĠhistÃ³r icos
ier ro
Ġme lo
ie dades
ĠChrist ian
Ġculp able
Ġdeman da
Ġportugu Ã©s
Ġnar ra
Ġlle gan
Ġfil Ã³so
Ġarri es
Ġas tu
ĠNa tural
Ġsuficiente mente
Ġan un
ĠÃŃn ti
am ba
ĠI z
p aba
rist as
z y
ĠD ob
ant ado
Ġvin cul
uy endo
Ġh Ã¡b
Ġcu entos
Ġemple ado
ĠChampi on
s ie
Ġesc ar
Ġen fo
Ġmo d
Ġpa trÃ³n
Ġsecre tos
Ġ19 00
Ġpo emas
Jos Ã©
ĠK u
Ġdesa gr
Ġconcl u
l ante
all Ã³n
Ġinv ent
Ġescri tores
Ġpin turas
Ġretir ada
ĠG io
S ab
a ta
Ġdenom inaciÃ³n
" ),
Ġan illo
ĠRa Ãºl
al iciÃ³n
ĠE mb
ĠCrist ina
Ġf um
Ġpres u
ĠSalam anca
ĠN et
ĠPol icÃŃa
Ġestadouniden ses
Ġolvid ar
ĠhÃ©ro e
Ġbas es
Ġin fec
Ġhi po
Ġrepar to
Ġpus ieron
tar Ã¡
Ġp uro
tir se
Ġdemostr ar
Ġev alu
Ġpla tos
Ġfi ja
Ġfeder al
T om
Ġacep tÃ³
ĠEs cri
it ri
ĠO ne
ĠIn s
Ġsupon go
Ġbrill antes
Ġal quil
Ġre quer
ĠEn ter
Ġal tar
Ġasi Ã¡ticos
ĠSal ud
ĠSocial ista
lo y
Ġinvesti gaciones
Ġest atal
j unto
ĠCl ara
Ġfru st
Ġdirig ÃŃa
ĠM ora
ĠAu to
T ambiÃ©n
lar se
Ġ QuÃ©
Ġalim ent
Ġadi vin
Ġch i
ĠMonte video
re mo
Ġan f
ĠMich el
ril los
Ġnervi oso
g h
ĠTec n
Ġperten ecÃŃan
Ġguer ras
ĠGuar dia
ĠolÃŃ mpicos
199 0
s che
Ġorigin ales
re cciÃ³n
Ã ª
og le
Ġconex iÃ³n
z co
ĠmÃºs icos
Ġentusias mo
Ġart ÃŃstica
w en
Ġac tiva
S ta
Ã¡ z
Ġenferme dades
Ġat mÃ³s
ĠS tra
Ġindi os
Ġdesapar ecer
R ob
rig ht
Ġcastell ano
Ġpro clam
ĠF ron
Ġre mon
th a
Ġau ton
do min
Ãĵ N
Ġac or
Ġap ell
ir mar
ĠScien ce
ond uras
ĠAs socia
ĠCap itÃ¡n
ÃŃ var
si de
Ġlater al
ĠF emen
Ġo ch
Ġdescan so
Ġofer ta
hibi ciÃ³n
ĠBur gos
Ġno ve
Ġver gÃ¼enza
Ġimag inaciÃ³n
ĠÃ³ pera
Ġ19 18
ĠEl izabeth
" ).
Ġagr icultura
Ġi m
Ġtri pulaciÃ³n
Ġsecund aria
ez ca
Ġalco hol
Ġdis cur
Ġtemb lor
Ġvent an
Ġaudi encia
ĠCor tes
cen as
Ġdes po
ĠL ÃŃnea
ĠH ot
Ġdi ga
ĠMur cia
Ġdefini tiva
M A
tas e
ĠLa w
ea e
Ġs Ãº
Ġconcl usiÃ³n
Ġdem onios
Ġse da
Ġtien das
gu i
ĠK on
Ġentr ado
pen as
vi la
Ġal ivio
ĠAr ena
) ',
k h
res tre
Ġcompar aciÃ³n
Ġve ÃŃan
Ġcontin Ãºa
Ġmir adas
Ġpa Ã±
ĠenseÃ± anza
P la
Ġp ac
Ġca e
Ġdeci siones
ĠMar ie
i adas
ĠWil son
ad i
Ġpregun tÃ©
ĠW at
ĠS Ã£o
Ġsol as
Ġdebu tÃ³
lan os
Ġpa ta
Ġme dallas
Ġrefug io
ans as
H ar
tad ora
ĠM ul
ĠVas co
ĠAl go
ĠSer ies
Ġoblig Ã³
Ġneces aria
ĠJane iro
Ġconten er
Ġbel la
Ġtal ento
ist ros
ci ano
Ġocu paciÃ³n
ĠQuer ÃŃa
Ġest ando
Ġestre me
Ġsol os
ĠGal icia
ĠG usta
Ġglo bal
Ġsaber lo
Ġguar da
Ġn om
ĠIn te
Ġdescri to
Ġapro pi
ĠestÃ¡ bamos
Ġpor ta
Ġcostumb res
en g
Ġhab Ã©is
ĠEn tr
t ing
ĠYo ung
d re
Ġv ib
Ġinterrump iÃ³
Ġb ala
ĠH ace
Ġacer c
Ġpreocu par
Ġ6 2
Ġpol ic
ĠG ri
ĠEste ban
Ġ6 6
Ġvent as
ĠBos ton
le tismo
ĠTur quÃŃa
ĠJo an
Ġinm ig
Ġviv os
e h
ÃŃ rez
Ġba hÃŃa
Ġmu estran
Ġreconoci Ã³
Ġpromo ciÃ³n
ĠEst aciÃ³n
vis ible
Ã ´
Ġv am
chus etts
Ġposible mente
ĠJ r
Ġm s
ĠG ib
ĠraÃŃ ces
Ġredu cir
g le
Ġevi dencia
Ġdenomin ada
Ġj ornada
Ġreg alo
Ġdi vor
Ġav ance
ĠF I
ĠVic tor
Ã© e
Ġviv iendo
Ġcoment arios
us ia
Ġdisfru tar
ĠPos iciÃ³n
ĠcÃ¡n cer
ab al
ĠÃ³r gano
cam peÃ³n
Ġhermos o
ĠG old
Ġen cu
ĠA Ãºn
ĠAs h
ĠHÃ© ctor
Ġa ve
Ġconvir tiÃ©ndose
D A
it tle
Ġres on
Î ¿
ĠCom pe
ĠlÃ³g ica
Ġl ist
ly n
Ġcl iente
Ã¡ndo los
Ġest ric
ĠJohn son
ie v
c adores
ĠRob in
Ġres oluciÃ³n
Ġpaci entes
Ġver tic
if inales
Ġins ec
ĠG Ã©n
ĠM uy
Ġhay an
Ġsent arse
ĠmÃ¡ quinas
Ġrique za
Ġpon iendo
Ġchil eno
Ġvolver ÃŃa
Ġsatisfac ciÃ³n
n m
Ġcom arca
ist encia
ĠFu ente
Ġesta tua
lan ta
Ġmonum ento
Ġreci entemente
D an
Ġeurope o
Se gu
ĠI ra
ĠE ric
Ġdiri ge
ÃŃ bulo
con es
ĠDo ug
du ra
Ġoscu ras
ĠD ic
Ġcruz Ã³
Ġdistin ta
f el
ĠE ar
Ġencon tramos
Ġacu mul
Ã©ndo lo
Ġace ite
Ã¡ zar
Ġsab or
ys te
ĠAn to
ĠH igh
Ġen tidad
ĠcientÃŃf ica
Ġb at
Ġcon sta
ĠE P
e dades
Ġd urÃ³
Ġac t
ĠAlfre do
ĠMon um
ĠVirgin ia
Ġle al
Ġo toÃ±o
ĠAz ul
cin co
gan os
Ġcomenz ar
Ġinstru cciones
Ġdefini tivamente
s y
om pe
der se
Ġderi va
Ġesta tu
tn am
Ġb iz
Ġocur rir
Ġaum entar
ĠAtlÃ¡n tico
Ġsab ÃŃan
Ġ192 4
in adas
Ġcab e
ĠMil Ã¡n
Ġtotal idad
ĠÃ© stos
ĠMerce des
Ġn ad
li ar
Ġbus caba
ĠL ady
ll er
ce dentes
Ġsus piro
ĠParti ci
ĠA qu
Ġs Ã³l
Ġdi Ã¡metro
ĠlÃŃ deres
polit ana
ĠSil va
Ġtra yectoria
ĠcentÃŃ metros
Ġllam an
ĠprÃ³ xim
Ġeta pas
Ġcateg orÃŃas
Ġeleg ante
ÃŃ fer
Ġexten diÃ³
ĠServi cio
Ġdes es
Ã©r rez
ĠCampe ones
Ġrespir ar
ing ham
Ġusu arios
Ġco di
ĠCor ona
ci oso
Ġdepor te
ĠN an
Ġm isterio
Ġ6 3
j udi
Ġcl ÃŃn
Ġes for
Ġ6 8
Ġgig ante
Ã³m ica
Ġedi ciones
ĠHit ler
h ard
Ã¡ frica
Ġart ÃŃstico
Ġri d
Ġdistingu ir
Ã¡n eo
ĠZel anda
Ġ7 6
Ġven ganza
Ġdiscu siÃ³n
Ġvista zo
Ġpi de
Ġso ledad
zob ispo
ce ae
b oc
Ġutiliz ada
A d
I O
ĠK y
Ã³lo gos
Ġescu chÃ³
Ġin tu
Ġinicia tiva
Ġn oreste
Ġcol ina
tin as
Ġpro bar
ik i
Ġal iados
Ã³cra ta
Ġfic ti
ĠatmÃ³s fera
Ġ19 17
Ġestre cha
ul ado
Ġcruz ar
Ġru ral
Me jor
Ġadul tos
Ġexclus ivamente
D os
ĠH onduras
ĠTraba jo
Ġin tr
ol i
ĠBo ok
ĠD ub
Ġcoment ario
Ġfacil idad
F ishes
ĠJer usal
ĠÃ į
ĠMassa chusetts
ĠPub lica
Ġmone das
ĠD VD
P al
Ġoport un
u le
Ġm ig
cil la
ur y
f eo
ĠM id
ĠEx isten
Ġgrie ga
ti f
Ġincre ment
Ġcant ar
I T
g ente
ĠGo ogle
ue ve
Ġb omba
Ġcondu cta
bi das
Ġch is
ĠcompaÃ± ÃŃas
Ġcons ervaciÃ³n
Ġobserv aba
Ġcomp la
ps is
ĠR ick
ĠS tr
Ġv iuda
Ġintent ado
Ġpro vis
Ġ9 8
si ciÃ³n
Ġin cur
Ġson idos
ĠRec on
ĠNa vidad
ĠT ribunal
Ġentren amiento
ĠAl ta
gar o
ĠRam ÃŃrez
Ġre ma
Ġdocu mental
Ġ â
Ġre ba
Ġca ÃŃa
ĠL ang
E P
Ġafro americanos
Ġdim ensiones
ĠFre d
ĠG C
Ġinform Ã³
ĠcaÃ± ones
ĠGuti Ã©rrez
v ez
Ġof ens
Ġp ru
Ġtele f
t ambiÃ©n
Ġsalva je
Ġ100 0
ĠT Ã©cn
u tas
Ġc ueva
enti miento
Ġjug ue
Ġcorrespon diente
ĠU cran
Ġsonre ÃŃr
di ales
e gr
in ea
qui to
la go
b las
ĠcrÃŃ ticos
Ġale gr
Ã¶ r
van ia
ĠJac ob
ĠEst u
Ġ7 2
mÃ¡ ticos
Ġinf ierno
Ã¡n icos
Ġdecre to
Ġdestac ar
Ġconoci mientos
Ġtor pe
Ġmoder n
Ġf ro
Ġse g
Ġutiliz Ã³
Ġri val
ometra je
Ġacon se
ĠOx ford
Ġcor rÃŃa
Ġ192 5
Ġam erin
ĠSoci ety
Ġc ron
Ġapell ido
de Ã³
Ġmu ch
Ġcontin ente
Ġten dencia
ĠAn exo
Ġ19 19
CA P
ĠCÃ¡ diz
Ġhue vos
w is
Ġ19 12
ĠKar l
Ġceleb ra
ĠÃŃn dice
A caso
ĠSte ve
Ġsus pirÃ³
Ġrecin to
ĠS r
ĠÃ¡lbum es
Ġen ro
Ġ192 7
ĠÃģlvar o
Ġmill Ã³n
Ġescrib e
ĠW es
ust os
Ġ6 00
Ġvac aciones
U C
Ġcomb inaciÃ³n
b at
ĠPar ece
Ġv s
Ġson ora
ti to
Ġabri go
Ġd urm
Ġhaber lo
ĠRodri go
ĠCar ibe
Ġorganiz ado
ĠgÃ©n eros
Ġdo Ã±a
Ġejemp los
Ġdic tadura
Ġretra to
Ġal ianza
Ġper dida
ĠPer son
d ney
Ġno bles
ĠJe fe
ĠA un
ĠGan Ã³
ion Ã³
ĠMo der
ĠCo un
Ġagu jero
ĠC O
ga ta
Ġse ctores
ci almente
ur al
Ġgri tar
ĠO rig
Ġintelectu al
Ġsir v
j aban
Ġd inastÃŃa
ĠV era
Ġm ierda
Ġdiver tido
Ġunivers al
Ġreligios as
Ġparro qui
u ck
s ec
Ġrepresent antes
Ġcan ales
ĠToda vÃŃa
Ġcant Ã³n
Ġcor on
ĠUE FA
En tre
ĠMar ta
mar as
Ġmedi eval
198 9
F e
ar ra
ĠN ep
Ġlocal idades
Ġda Ã±os
Ġsu mer
Ġms nm
ĠPe Ã±a
Ġad vers
Ġla v
Ġcar as
l ine
ĠMa uri
b ablemente
Ġmo vÃŃa
um er
Ġentre ten
ĠMa h
Ġvir tud
ĠMus e
Ġorden ador
Ġ8 00
on do
fic amente
ed ores
me di
Ġme te
Ġdocu ment
Ġmanda to
Ġfru to
Ġpun tu
ĠTer min
ĠEmil io
Ġr usa
ie ta
Ġdo y
ĠCu enta
ba o
ĠBa u
if t
g ante
te z
ĠNa ciÃ³
ĠVene cia
Ġespa cial
Ġfac tor
l adas
ĠM iemb
Ġri v
ÃŃ v
Ġtur b
ie bre
ĠPue bla
Ġru inas
Ġo ÃŃa
qui ta
Ġimp re
Ġdi Ã³
Ġdefin iciÃ³n
ĠR ese
Ġpose ÃŃa
Ġcondu ctor
Ġre bo
ud al
eb o
ĠAl len
Ġbu que
ĠAÃ© rea
Ġpe ticiÃ³n
ĠI vÃ¡n
Ġform al
Ġtrop ical
E G
Ġtrans misiÃ³n
Ġj er
ĠCas tell
Ġ192 2
Ġven cer
Ġmad ru
Ġt ib
ĠS how
or s
Ġsacu diÃ³
Ġf ur
Ġse tenta
udi a
ĠE ver
ĠB atalla
Ġcolo car
Ġdi era
Ġdepen de
Ġbor der
Ġ6 9
Ġg re
Ġviv iendas
Ġgra ves
Ġcam bia
ues tro
Ġhoriz onte
s ul
des te
Ġven ez
Ġub icaciÃ³n
Ġgu ÃŃa
Ġexplos iÃ³n
ĠR in
Ġ6 1
ĠAut Ã³noma
Ġf estival
Ġfra caso
ĠVi deo
Ġcamis eta
ĠI gu
Jo hn
Ġcu antas
da je
Ġb rillo
Ġconf usiÃ³n
grÃ¡f icas
ĠAn th
ciden tes
Ġdeci dir
ÃŃs mo
ĠCom pany
Ġalrede dores
Ġan ima
ĠB ab
Ġal ivi
ĠRe ci
Ġcuesti ones
ĠR ug
Ġmar cÃ³
Ġta za
Ġsitu aciones
n am
ĠUnivers itario
Ġacer caba
Ġpen diente
omb res
dad or
Ġcaus as
ĠZ ona
A unque
Ġprepar ar
V aya
tar me
ĠM irÃ³
r aban
ĠCol umb
Ġceleb rar
con oci
Ġsa que
Ġsupon ÃŃa
ĠCatal ina
ios os
ĠFo x
Ġro to
jer as
Ġa venida
ĠIndepen dencia
ĠR y
Ġr enta
Ġfe chas
ĠRom ero
Ġjur ÃŃ
Ġ192 6
Ġadap taciÃ³n
Ġfis cal
ĠVer de
ĠSud Ã¡frica
ĠD C
ro este
Ġjard ines
id ar
Ġcas ta
R eg
Ġaf lu
Ġhab ilidades
la ves
ron to
Ġje fes
Ġder ru
Ġceleb rÃ³
Ġpreocu pado
ĠC r
Ġpas tor
Ġras tro
ĠLat ina
Ġreligios os
ĠlÃŃ quido
Ġemo ciones
ĠN u
ĠK n
Ġcondu jo
jÃ©r citos
v ich
ev it
Ġofici nas
Ġcur va
Ġcompren de
Ġgal erÃŃa
te to
Ġcos e
ĠBol ÃŃvar
Ġlec tor
Ġvic torias
ĠÃ©x itos
Ġju ris
Ġco ber
vi da
Ġd ada
Ġvenez ol
Ġv iernes
Ġf ant
don os
Ġrode ado
Ġavent uras
Ġcar denal
ĠA T
Ġdibu jo
Ġfac tores
secu ciÃ³n
Ġb Ã³
Ġdesapar iciÃ³n
ĠNo v
ĠCu atro
Ġinici os
ĠC ru
it ores
nes to
Ġman io
Ġh ero
ĠAl an
To tal
Ġ6 7
Ġperten ecÃŃa
Ġdibu jos
r Ã¡s
Ġt irÃ³
Ġpob lado
Ġins ign
gra ph
Ġar chi
ĠsÃ© pti
Ġcub rir
Ġbr oma
Ġpu Ã±
ĠSara h
Ġve la
ĠTu vo
ĠprÃ¡c ticas
Ġamerin dios
ĠJul iÃ¡n
Ġnor mas
Ġtes is
ura cÃ¡n
Ġgr Ã¡f
ĠS ent
Ġsu l
ĠV ista
Ġvesti dos
or ca
Ġencab ez
ĠChampion ship
Ġnov io
tra ciÃ³n
Ġincen dio
Ġ192 3
Ġso lem
Ġconoci das
Ġdar me
aliz ados
ĠRo jo
Ġma chos
ĠFu entes
Ġdesem bar
Ġ9 7
Ġinclu ÃŃa
Ġe uros
ĠGu z
ĠH il
ĠAl ma
Ġre vela
Ġ7 4
Ġs ensa
Ġinclu ida
Ġenvi ar
D is
ĠGusta vo
Ã¼ n
Ġar ist
Ġmat ado
ĠEqui pos
Ġdescu bre
Ġoscu ros
Ġres pal
Ġexp ec
b ano
ivers ario
Ġsu reste
Ġfu ria
O s
a par
ĠBri tÃ¡n
Ã§ o
ĠR al
Ã± Ã³n
gu o
Ġterren os
ĠF ile
Ġarch ivos
o per
Ġore ja
Ġde vo
ĠPro grama
Ġliter aria
ĠÃĵ scar
Ġre in
o f
ĠN atal
Ġin stituto
Ġinter cambi
Ġvac ÃŃa
ĠTay lor
re d
Ġimpro vis
ĠD N
Ġher idos
ĠT ime
ĠP ho
Ġgrave dad
ĠAndre w
ĠCu p
se y
ĠBri an
ĠV oy
Ã³ bal
Ġban cos
Ġsepar aciÃ³n
Ġt orn
ĠdiseÃ± ado
les i
n ar
Ġprodu cida
pi tiÃ³
Ġ192 1
Ġdisf ra
Ġn Ã¡
Ġdetermin ado
Ġejemp lares
Ġeurope a
Ġoch enta
Ġcontr ad
Ġn aran
ĠUcran ia
Ġpa de
Ġal mo
ĠGeor gia
ĠM adre
ĠEdi ciones
ĠG F
ĠI si
as en
Ġcontemp lar
Ġamena z
ĠB i
Ġt amb
Ãºm enes
Ġvig or
m ier
tr ica
Ġdeses peraciÃ³n
p ica
Ã©li x
Ġtrabaj ado
Ġnervi osa
Ġno tÃ³
Ġapro baciÃ³n
Ġtempor al
Ġinform es
p ur
Ġper pe
Ġbo tas
Ġin evit
di cas
Ġdecir lo
ĠBr us
Ġcompon entes
Ġestrateg ia
ĠL and
Ġcrist iana
r ÃŃo
Ġid Ã©n
m m
j ados
ĠN as
Ġentr aron
ÃŃ z
Ġasal to
J e
Ġt onel
Ġsur giÃ³
Ġme tido
bur y
a je
Ġper diendo
tr ico
ĠLond on
do m
Ġdest inado
ĠA Ã±os
ĠcÃ© le
Ġru idos
An tes
ĠPa pa
Ġan al
ur nal
d remos
Ġa quÃ©
Ġdescri ta
Ġd ur
Ġceleb raciÃ³n
Ġembaj ador
Ġconcre to
Ġrela cionado
ĠJim Ã©nez
Ġ7 7
Ã© j
M us
at s
Ġre ten
Ġdetermin ar
ici al
ĠSe an
do ws
198 7
ĠP untos
E sa
Ġmar cas
ĠSu Ã¡rez
h ara
ĠÃ³r bita
Ġin no
Ãº st
Ġaman ecer
Ġhab ido
Ġven de
D ie
R ec
Ġt est
Ġdis puesta
Ġpor tada
ĠD ur
Ġbus cÃ³
Ġdestac ado
Ġ8 8
Ġmu l
l Ã³n
Ġ zo
er ie
Ġlabor atorio
ĠO k
ĠB ene
ĠProvin cial
Ġcul tivo
Ġso ftware
Ġmet Ã¡l
Ġenamor ado
Ġdesc enso
H er
Ġcien cias
Ġviv ÃŃan
n s
Ġpermi tido
Q U
Ġvest ÃŃbulo
ĠS S
Qu iero
Ġ9 6
Ġcuer das
ĠmÃºs culos
Ġneces itar
gu er
Ġgan ando
ĠSen ado
Ġapar ecÃŃa
Ġdispu ta
ĠCa tedral
S olo
Ġre quiere
Ġapren di
Ġdom Ã©st
ĠhipÃ³ tesis
Ġlig era
Ġcasti go
Ġer rores
Ġprov iene
Ġdeb es
ĠG od
Ġex tiende
Ġpropie tario
ĠS oc
Ġjur ado
Ġpopular idad
par to
ĠIn trodu
ĠS ad
Ġaz Ãºcar
Å Ĥ
le Ã±os
Ġestable cimiento
Ã¡z quez
L uego
Ġbene ficios
epres idente
Ġdi min
de as
ib a
ĠU sted
R C
Ġjapones a
Ġprop uso
ator ce
ĠG in
Ġl isto
Ġbar ba
ĠAr thur
Ġ ic
ĠJerusal Ã©n
ĠAl bum
il i
Ã©ndo me
Ã³r ica
ĠTim es
Ġcon ferencia
Ġacce der
Ġhe ch
Ġherram ientas
ĠTa xonomÃŃa
Ġ19 13
Ġpos t
Ġlib ras
Ã©spe d
Ġsar gento
Ġdes ea
Ġalterna tiva
Ġun irse
ĠsÃ¡b ado
z on
Ġpreten dÃŃa
Ġmon arca
Ġenfrent arse
ĠN aciÃ³n
ies e
ti e
ant s
Ġmuer e
Ġman eras
guar dia
Ġlleg ue
Ġle cho
Ġcomple tar
Ġter n
Ġc Ã³n
Ġcan ta
c t
ĠNa v
ba jo
ĠC erro
Ġcom edor
Ġsin gular
Ġes pon
Ġf ero
Ġcondu cir
ĠAnti gua
cam bio
sh ire
Ġp Ã¡nico
Ð »
Ġi dio
ĠMar iano
ur ÃŃa
pi to
ĠDe ci
Ġpermit en
Ġcuar tos
Ġ9 9
Ġju venil
ĠJunior s
ĠMat t
Ġconstante mente
Ġdesper tÃ³
Ġparti d
Ġto p
a z
Ġaf irmÃ³
no w
Ġgrie gos
arlo tte
Ġdes van
TU LO
ĠJu ana
z ones
dal ena
Ġconden ado
ĠD am
ens os
Ġor b
Ġencontr Ã©
Ġig lesias
ĠC Ã³
Ġt h
Ġr ara
ĠOs car
ĠAr gentino
Ġprovin cial
tern idad
ĠAmer ica
Ġmi x
Ã¡ Ã±ez
ĠB ut
Ġestable ce
Ġex it
Ġdeclar ado
Ġg Ã³
ab ria
Ġv ul
Ġromp iÃ³
Ġf lan
Ġmen cionado
Ġre per
Ġalcan za
Ġquier as
ern ador
Ġapre ci
c eros
Ġcor t
ĠIs land
Ġper fil
Ġdepor tista
ĠPat rimonio
ĠD ick
ĠRiv era
ti zar
Ġmo to
ĠmuÃ± eca
ĠP Ãºb
gÃ¼ edad
atro cin
Ġest reno
Ġadecu ado
Ġdifer enci
Ġapren dido
Ġencuent ros
M ira
re to
rede dor
Ġtro zo
Ġ it
ĠWol f
o o
ĠCal i
ĠJohn ny
Ġga fas
at re
i mp
dÃŃ b
Pue de
an Ã¡
ĠH onda
ĠRep res
d Ã©
Ġ' ,
Ġ Â
Ġa zo
Ġse ca
Ġb is
Ġc ima
Ġentr aba
ĠSam uel
ĠT anto
Ġba il
Ġab rÃŃa
ĠQu ito
Ġs esiÃ³n
Ġprotagon izada
" :
ri osa
ĠJ ard
Ġf usiÃ³n
Ġliber al
Ġsub mar
Ġdestac ados
im al
Ġte cl
ĠT ampoco
Ġqu inta
Ġcre yÃ³
j aron
ĠPue blo
us ura
ĠPu ente
Ġen de
Ġre ll
Ġhab iendo
Ġmagn itud
Ġcir cular
ĠCrist Ã³bal
s or
ĠmÃ¡r mol
ĠFilip inas
Ġmarch arse
Ġag reg
Ġto ca
Ġat ribuy
ur go
Ġpos tura
ĠcrÃ© dito
198 8
P ens
Ġdesarro lla
Ġocul tar
lo t
Ġ9 2
Ġtor tu
Ġangust ia
Ġ7 8
Ġcontes tar
ĠOb ra
ĠL anz
Ġ7 1
ter no
cor e
Ġman dÃŃb
To da
gen d
H asta
cu siÃ³n
V Ã©ase
Ġcomis ario
Ġ8 2
Ã¡s ico
ug e
M or
Ġbar rios
r icaciÃ³n
Ġpar ale
Ġter cio
Ġdemo cracia
ĠVil lar
Ġla tino
Ġen g
in di
ĠPer io
ĠTok io
ĠPrim ero
rib les
ĠNa pole
and y
Ġ9 3
ĠMi ami
ĠA po
Ġar tic
ĠY ama
Ġne gar
ĠCol Ã³n
Ġinspec tor
ĠT eo
Ġpes ado
ĠFil mografÃŃa
ĠE van
ĠS ho
Ġm uel
ĠGuz mÃ¡n
Ġderro tÃ³
Ġcombust ible
Ġintrodu jo
Ġdif un
Ġmues tras
] ,
ĠpÃ¡l ido
ĠC eci
quis iciÃ³n
Ġapar ecido
Ġprograma ciÃ³n
Ġnomb rÃ³
Mad rid
D O
Ġpier de
ĠDisco grafÃŃa
ĠF ishes
ĠS C
ĠaÃ±ad ir
ve da
U R
Ġpl uma
Ġconsider able
ĠSh er
Ġrepresent an
P G
198 6
Ġsu roeste
bil i
ĠA pertura
Ġfres co
Ġcu sto
ĠLiber tad
Ġalf omb
Ġsobrevi vir
Ġdescon cer
Ġbas a
Ġperman ecÃŃa
ĠtÃºn el
Ġsill Ã³n
Ġcatal Ã¡n
Ne w
Ġ- -
Ġfras es
ĠMo tor
n ing
p lica
Ġconten ÃŃa
Ġ7 3
Ġrepe tir
S tar
ĠL oc
Ġdeci dieron
Ġtras era
Ġigu ales
Ġlanz ar
Ġcer ro
Ġcom isiÃ³n
ĠC ON
ti er
Ġe va
Ġque m
b en
ĠW he
Ġvolv ÃŃ
ĠUn idad
Ġvo to
Ġcans ado
omos ex
ĠN ich
Ġalcanz ado
Ġaverigu ar
Ġsuce der
uer as
ĠR yan
ĠJe ff
Ġru g
ĠMa gn
Ġl ento
Ã±o z
ĠquÃŃm ica
Ġveci no
Ġdesn udo
Ġsobr ino
Ġd arÃŃa
Ġc ero
Ġin c
Ġse mi
Ġlib eraciÃ³n
tific ado
ĠCampe onatos
Ġcan ad
Ġpat rimonio
leg ios
Ãº o
se a
iz e
ac eae
ĠPob laciÃ³n
Ġacep tado
j arse
Ġfi la
Ġdevol ver
ĠBern ardo
ac ruz
w ork
Î ½
Ġp il
id amente
Ã³m ico
Ġc aba
Ġvis itas
Ġfuncion arios
Ã© ticas
198 5
Ġconside ran
Ġcorre dor
ĠBil bao
ĠP Ãºblica
Ġr usos
Ġve ter
Ġpaci encia
Ġfuerte mente
o ph
Ġlu jo
ĠRos s
ĠC erv
Ġmil las
c lar
Ġlun es
ĠAn derson
t ran
iz os
Ġf Ã³s
Ġactu aciones
ĠLib ro
Ġc ie
Ġmedio dÃŃa
Ġ# "
Ġdepor tivo
un as
Ġs how
ĠSteph en
ĠeconÃ³m icas
Ġobserv ando
Ġderro tado
ĠEl los
Ġh ilo
c ano
Ġprovo car
di Ã©ndose
Ġdesempe Ã±Ã³
Ġher ed
Ġescul tura
w orth
Ġobs ervaciÃ³n
tr ices
Ġ19 16
Ġor illas
Ġpa quete
Ġapar entemente
p oles
it amente
ĠF amilia
ĠFal le
ĠComun ista
Ġpoten cial
Ġinterpre tar
ĠBa ja
ĠPolÃŃ tica
ĠAnd rea
Ġof en
Ġd Ã¡ndole
Ġan g
ĠEstad ÃŃsticas
Ġreun iones
Ġnor ma
ĠSta te
Ġterri torial
Ġc Ãº
ĠsÃŃn t
Ġnub e
Ġorgan ismo
ĠLu cÃŃa
ĠEm ma
Ġdeba te
Ġe go
Ten ÃŃa
re al
Ġjun tas
Ġater ri
ĠSegun do
ĠAu gusto
E mp
T ras
Ġpartici pa
Ġtra jo
ĠL yn
bor o
Ġf ib
Ġampli amente
ĠL abor
Ġape te
imnas ia
Ġartill erÃŃa
Ġser ia
Ġde uda
Ġdescans ar
Ġmir aron
Ġpreocu pes
Ġsu pre
Ġespiritu al
ĠeconÃ³m icos
ĠR as
E E
ĠHer rera
Ġprom esa
Buen os
ĠMay o
Ġemi tiÃ³
Ġf ul
Ġprodu cen
b Ãºs
Ġap as
P h
P ol
Ġelev ado
ĠBern ard
ĠGar den
Ġasomb ro
Ġcome tido
Ġllen os
gan da
ĠImp er
ĠB un
Ġsal tar
Ġol as
Ġargu mento
Ġg ab
ĠF orm
eci endo
Ġfin alizar
ĠLu isa
Ġint ensa
dill era
Ġpas an
Ġcom entÃ³
ĠGonz alo
Ġesc Ã¡ndal
ĠA M
os h
Ġestim ada
ĠBl ue
Ġpro lon
Ġpre de
Ġg loria
it ter
par te
tim ologÃŃa
ĠG uy
Ġcu esta
Ġte mo
ĠAndr Ã©
Ġg esti
ĠHist ory
Ġrealiz aciÃ³n
Ġam aba
Ġvolv iendo
ĠAnd y
ĠCon fe
ĠCar re
Ġc he
gu ila
Ġdescri p
n Ã³
Ġna ciones
D el
Ġrepresent ar
ĠCol onia
ones a
Ġad virtiÃ³
Ġtor res
B e
ĠEr nesto
ĠH om
Ġ8 1
G B
S ol
ular es
ĠA ur
Ġsal iendo
Ġnomb ra
ĠN Âº
D E
im ientos
ĠHolly wood
Ġatrac tivo
Ġce jas
Ġlevant arse
Ġelim inar
Ġincluy Ã³
Ġreun ir
Ġsen tidos
ĠBoy s
ĠCon stru
' ".
Ġba Ã±
Ġreg la
ĠO pera
ĠDis ney
el and
Ġfuncion a
Ġsuces iÃ³n
b ec
t amos
ch Ã³n
Ã©r pre
ĠVal enci
ĠH ong
Ġmadru gada
Ġpro l
c enta
ĠLegisla tura
an cio
ĠIn terior
us k
Ġtras pas
ĠCamb ridge
ĠS om
ĠOli mp
Ġdemo crÃ¡
ĠSant ander
Ġde du
es is
ĠRo jas
ĠInvesti gaciÃ³n
Ġdi jeron
Ġp istas
ĠWin dows
Ġasist ir
Ġaux il
Ġpat ria
Ġva cil
Ġsuper ar
a ch
S A
on to
Ġd as
iz ca
ĠChar lie
Ġc atorce
lin es
ĠE L
ĠU b
va ciones
ĠGio van
ĠCar tag
ul ia
T iene
con tinuÃ³
Ġsal tÃ³
Ġob reros
Ġo ÃŃ
ĠV ia
her ine
Ġapres ur
ĠMu Ã±oz
Ġrep rim
ĠMor ales
ĠEpiso dio
ĠL l
ta te
ec as
ĠF la
Ġexper iencias
Ġretir arse
olog ÃŃas
ĠpÃ¡jar os
Ġpregun taba
Ġsorpren dente
Ġrela tos
Ġsenci lla
Ġsepar ado
ĠcÃ¡ maras
Ġmencion a
Ġvege taciÃ³n
ĠLi ve
Ġescu chaba
Ġr icos
Ġocup aba
Ġven ce
198 3
l ara
Ġcolon ial
Ġconsider Ã³
Ġincons ciente
Ġcam in
Ġcrist ian
Ġpare jas
S iempre
Ġimp uestos
ĠAn g
Ġfantas ma
Ġest al
ch ill
Ġcier re
ier s
Ġtras ero
Ġpe chos
ens es
let te
ĠA mar
omin ada
a unque
Ġmensa jes
ĠDepor tiva
Ġam igas
Ġse as
cu sa
Ġtesti go
Ġus an
ĠCon n
tain ment
Ġmar rÃ³n
re ll
oso tras
Ġca jas
Ġver me
ĠDa vis
ĠA ctor
a Ã±os
ĠL ara
Ġsup uso
Ġa me
Ġap licaciones
es ter
ĠJ am
ĠF Ã©lix
dis mo
ino is
ĠZ amora
Ġcas ada
Ġsacerdo tes
Ġcu entan
ll Ã³
Ã§ a
Ġderru mb
M arÃŃa
Ġfemen inas
Ġtea tral
ĠCar lo
or g
ĠJ al
Ġcab ellos
ĠH ard
Ġvol Ãºmenes
ĠLe wis
Ġpar pa
Ġdi al
Ġb l
U sted
Ġgob iernos
ciden tales
et ti
Ġinoc ente
Ġgolpe Ã³
ter ios
Ġt Ã¡c
ĠBar b
Ġ19 11
E se
op eraciÃ³n
ĠPo drÃŃa
Ġreci entes
Ø §
ĠDE L
Ġcompi tiÃ³
Ġdi osa
ĠS pr
Ġd anza
Ġob tiene
Ġdes gar
Ġl laves
om an
ĠseÃ±al ando
Ġdi rÃ©
ĠParticip Ã³
ĠL ie
Ġcampes inos
Ġconoc en
ĠR onda
ĠPas cu
f ol
Ġintrodu cciÃ³n
Ġb ici
Ã¡ culo
ĠNor man
ĠBr uno
Ġ19 15
vo z
Ġcontinu aba
Ġcor reo
Ġdemostr ado
M is
b ell
ĠSport ing
Ġjud ÃŃo
Ġguer reros
ĠCom enzÃ³
Ġant ic
Ġcam inando
ÃŃs ica
Ġem isiÃ³n
ĠMi randa
ÃŃti mo
Ġtom aron
Ġpre viamente
ĠB ib
ea u
ĠÃģ lbum
ĠE res
m Ã³n
R os
Ġen o
Ġbal ance
Ġgal ard
vi Äĩ
Ġconvers aciones
Ġdi gas
Ãºm ero
et ta
dr Ã©
ĠÃ¡ cido
ĠEst atal
Ġprofes iÃ³n
es tre
ÃŃfer os
ĠBrus elas
Ġqued Ã©
ĠF ase
qu en
Ġesp ant
Ġf lam
Ġres puestas
ĠAr ro
Ġse du
de lo
Ġter remo
Ġesper ado
ĠFlor encia
ĠSing les
Ġform aba
Ġp ra
Ġcal ific
Ġec lesi
Ġcent en
ĠFuer zas
du la
Ãºn ich
Ġdi ablo
ĠEn cy
f an
un es
ĠMedi cina
icip io
Ġco tidi
Ġcos tas
Ġbur gu
ac en
ĠVal ent
ĠK ong
Ġf Ã³rmula
Ġmur m
Ġimp ar
Ġno tar
ve y
Ġex por
Ġl ingÃ¼
Ġrelacion adas
Ī Ĵ
tu oso
ĠEx tre
Ġsen o
ĠLlev aba
Ġren dimiento
Ġmo vil
Ġcor rientes
Ġmanten imiento
Ġavanz ar
h on
Ġlater ales
ĠMar cel
Ġter restre
Ġexist ir
Ġfas cin
Ġalej arse
Ġrealiz aron
bo ur
ci mo
Ġco ord
Ġcomp ens
Ġpl en
Ġsecu estr
Ġmonstru o
Ġrebel des
Ġt era
Ġhuel las
Ġla b
Pue do
Ġtre ce
Ġredu cido
Ġtren es
ĠM Ã¡r
Ġlleg aban
Ġg ras
Ġcal cul
Ġtrans par
Ġprev isto
p y
Ġes encial
re pitiÃ³
Ġde part
lo va
ĠFin landia
Ġac ento
ÃŃa mos
Ġint entos
ĠMuse um
Ġis rael
Ġtrans formaciÃ³n
Ġdispar o
Ġhere dero
Ġdipu tados
Ġmue ca
bi dos
Ġtol er
Ġvol ar
ĠC lo
Ġdi chos
Ãº tiles
ĠSecre tario
Ġinten ciones
Ġson Ã³
Ġobten ido
ĠK ate
Ġur ban
Ġo le
Ġpreci osa
on os
ĠHer man
Ġor ÃŃgenes
A t
ĠAr n
Ġe jÃ©rcitos
lig a
in u
Ġc all
Ġmoder nos
ĠNÃ¡ poles
ec os
j ano
ĠH ijo
Ġin cidente
Ġab ar
ws ki
M y
ĠC ri
Ġmecan ismo
ĠP G
j ones
ĠV oz
ĠespaÃ±ol as
Ġnucle ar
ĠL Ã©
Ġvideoj uego
c ab
s ky
ĠBr ad
Ġ7 9
Ġviv ienda
ĠM ik
ĠFil m
Ġener g
las h
ĠR el
ĠT em
Ġven ga
es os
Ġpl Ã¡stico
Ġe f
trÃ³ leo
ĠSo fÃŃa
n ado
ĠHab ana
Ġcigar rillo
Ġpe cu
Ġt asa
Ġro l
Ġenten dÃŃa
Ã± ando
Ġmaes tros
ĠA L
Ġbene ficio
ĠSu pongo
Ġvis itantes
ĠArqui tec
ul siÃ³n
Ġgo le
ta h
ĠGuer rero
Ġinter cambio
Ġadi cional
end ario
ĠG ot
ĠMag dalena
Ġabra zÃ³
Ġpis os
Ġen com
in ario
Ġlogr aron
Ġser vÃŃa
Î ¹
Ġp si
Ġconf irmÃ³
Ġjuris di
ĠP ts
Ġh omosex
Ġf lex
Ġdiscip lina
Ġejecu tivo
ĠMc C
Ġbrus camente
ifica ciones
Ġdescrib ir
oy le
Ġale jÃ³
Ã¡ce as
ĠKenn edy
Ġcer teza
Ġusu ario
Ġmaravillos o
w ar
is sa
S te
Ġbene fici
Ġal z
ĠSal Ã³n
Ġsuces or
Ġindepen dientes
Ġal m
f ri
di mientos
ci erto
Ġconflic tos
Ġdec ÃŃan
ĠO ut
g ru
ĠB ad
j estad
Ġdispon ibles
Ġmedi ano
am ental
Ġa ca
la ck
Ġbarb illa
Ġdecir me
ina je
Ġenten dido
Ġesper Ã³
ĠObserv atorio
s ell
Ġrebel iÃ³n
Ġe ti
Ġingres Ã³
Ġban de
i fer
fici encia
Ġm ort
ĠHo tel
Ġregres a
Ġtarje ta
Ġp ala
ĠO N
Ġgust ado
ÃŃ ficamente
Ġper egr
Ġmal os
Ã³n ima
tar o
Ġprofes ores
ĠÃ¡n gulo
Ġmucha chos
Ġcaball erÃŃa
Ġal turas
ĠK ent
i del
E d
Ġdes com
ĠL ab
ĠKe vin
Ġestra tÃ©
in almente
Ġb asta
ph ie
Ġbu ques
on t
Ġre an
198 4
ĠRev ista
Ġmue bles
Ġva ci
Ġma ta
ĠK am
ĠNapole Ã³n
Ġen lace
Ġdoc ena
Ġil usiÃ³n
Ġtard Ã³
ri son
ĠMu chas
ĠS pe
ĠHa cia
Ġv ano
Ġfab ricaciÃ³n
ĠMargar ita
ĠCh il
for me
el s
ĠJim my
ĠMed ina
Ġpr Ã©st
ĠGreg orio
ĠConst antino
Ġretir ado
ier os
C H
ten se
Ġh il
Ã©ndo la
ĠE ast
Ġmenti ra
on na
Ġpor tal
Ġpose en
Ġital ianos
ĠT ener
ul la
M as
ĠTra tado
Ġunivers idades
Ġpreci siÃ³n
Ġest ro
Ġinter no
Co pa
Ġrealiz an
uen ca
ĠLis boa
ĠComer cio
gu lares
Ġde vor
Ġgru eso
Par tido
qu era
Ġjuz gar
Ġprofes ora
Ġv emos
Ġalmo h
Ġore jas
ĠÃºn icos
Ġfal taba
ĠM Ãºnich
ĠpodrÃŃa mos
Ġsu ficientes
Ġcor reg
ĠVie tnam
ar emos
g am
Ġlev anta
Ġmal as
Ġtab l
Ġconstitu ciÃ³n
Ġasist encia
paÃ± as
Ġcomp or
ĠP ilar
ex plicÃ³
Ġsit Ãºa
P res
Ġflu jo
Ġconf iar
li to
Ġempres ario
d ona
Ġsal as
ud Ã³
ti gio
ĠEje cu
Ã©is bol
198 2
Ġadqui riÃ³
Ġcru j
Ġdro gas
Ġcomenz ado
ĠN ingun
Ġparticip ado
Ġar cos
Ġpen al
ĠCaball ero
lic e
ĠEstudi Ã³
d aba
Ġsent ados
Ġnoble za
ĠJu ventud
Ġj udicial
Ġdej Ã©
Ġr ica
Ġro j
ĠcatÃ³ licos
Ġper dÃ³n
ĠClar o
Ġub ica
Ġex ilio
Ġv ÃŃn
Ġofici o
Ġo tom
G e
ĠAl ice
Ġmar i
al i
Ġidi omas
Ġadi cionales
u era
n is
ĠG ame
Ġnie bla
Ġco pas
ic Ã³p
abell Ã³n
Ġabra zo
Ġh ec
Ġ8 6
ion e
Ġesper aban
Ġequival ente
al Ã³
Ġperson almente
Ġpudi ese
ĠAssocia tion
ĠS ky
Ġpolic ÃŃas
ĠJ ason
ĠAl i
ĠCon ce
Ġestu viese
Ġn ace
Ġsol lo
Ġocur rÃŃa
ens ible
ug i
Ġin ac
ĠCab o
Ġha gas
Ġinclu ir
Ġas imismo
t ÃŃan
for t
g ico
Ġdesn uda
rue cos
Ġcar n
ĠUn os
Ġmos trando
Ġ8 7
Ġro jas
Ġarreg lar
ĠMar celo
om p
Ġab iertas
se la
f amilia
ĠMar s
a cia
Ġ190 8
ĠCh an
Ġrecor rer
ĠRo ad
Ġg entes
Ġmas as
Ġfil os
Ġprodu c
ara gua
Ġin versiÃ³n
por tivo
e jo
Ġvideoj uegos
Ġtitu lada
Ġ ?
ĠB ase
ĠF lo
ĠCh eca
Ġvien en
ue ta
Ġexperim ent
Ġapar ecieron
Ġba jos
Ġsel va
Ġar chivo
Ġro pas
Ġv ital
po ol
Ġdescri tos
uer zo
Ġar mon
tol Ã³g
ĠE diciÃ³n
ce d
ĠCon tin
Ġco pia
Ġin mo
O n
Ġhon do
Ġcine mato
Ġhue co
ĠIn ici
Ġh Ãºn
Ġro jos
ĠMedi terrÃ¡neo
M I
Ġcre cer
ĠO pen
vie do
San ta
Ġtranqu ilidad
Ġdenom ina
Ġf Ã©r
l ista
Ġb ara
Ġhues o
Ġp ist
Ġver sos
y ac
Ġher encia
ĠP un
ĠDemocrÃ¡ tica
u laciÃ³n
ĠHan na
Ġorganiz ar
Ġprepar a
ĠG h
Ġda ta
Ġdispon ÃŃa
Ġsimp les
ĠCh ap
ĠU s
Ġcuar tel
ĠIndi vidu
Ġis leÃ±os
Ġcaracter iza
Ġpas aban
ĠAr ch
Ġso cio
qu erÃŃa
ĠMon ter
ub er
Ġbr in
ĠUnivers al
and al
Ġayud ante
Ġsex uales
Ġdis puestos
Ġpregun to
Ġpar o
Ġfrag mentos
Ġp atrocin
Ġt ribunal
m erÃŃa
Ġab stra
Ġtemp rana
Ġan iversario
ĠD y
Bill board
ig er
Ġproce dente
Ġdes vi
Ġre lie
b es
Ġra yo
Ġens ayo
ĠColumb ia
Ġacarici Ã³
Ġmanten ido
Ġpr en
Ġmat Ã³
ĠVar gas
il vania
Ġarm ario
Ġtel eno
ĠD io
ĠPatr ick
Ġform aban
Ġe co
Ġhi p
l ab
Ġest ir
us as
ĠÃī ste
Ġsin cer
Ġ9 1
V I
- ,
M at
ÃŃf icos
Ġvigil ancia
Ġ rib
Ġasist ente
rist o
Ġinici ar
Ġdist ritos
dell ÃŃn
Ġcab ina
ĠBen j
Ġbru tal
ri ta
Ġsup iera
Ġre Ãºn
ĠAr gu
Ġdif usiÃ³n
Ġden unci
Ġpas ada
Ġsenci llos
Ġcre en
Ġse cuencia
estr u
Ġv ientos
Ġgir ar
ĠP E
ba ch
Ġper ca
Ġg la
ĠB las
Ġrecu peraciÃ³n
Ġpal ma
a ga
Ġlo bo
idal go
Ġ190 5
T an
Su per
Ġdiscu tir
ĠE N
Ġapoy ado
Ġleg is
Ġp las
tra to
Ġadmi tir
ĠEx teriores
s ic
ĠTen emos
D ist
ĠRug by
ir re
Ġdist ribuy
Ġactu Ã³
CuÃ¡n to
Ġindi cÃ³
ĠDoug las
ĠcompaÃ± era
Ġn Âº
Ġgas tos
ĠEnter tainment
al do
Ġi mb
Ġconsigu iente
ĠB y
198 0
Ġper secuciÃ³n
Ġutiliz ados
Ġcircu ito
ier tamente
Ġmis iones
Ġprepar aciÃ³n
ĠC ien
Ġte orÃŃas
Ġinvestig adores
Ġ8 3
Ġsegu ros
te cas
ĠVer acruz
Ġl ine
Ġexplo taciÃ³n
ĠdifÃŃ ciles
tis h
Ġnot ables
c ales
tar la
F or
Ġfrecu entemente
Ġsegu idores
Ġv Ã©r
Ġ' .
Ġpla ca
Ġmes as
Ġcontinu a
Ġadolesc ente
Ġcolombi ano
Ġb ando
Ġsac ado
Ġfin alizÃ³
b on
Ġcer rados
Ġre m
Ġdesas tre
e Ã±o
ĠF Ã³rmula
Ġases in
Ġman dÃ³
ĠR ib
Ġbon ita
X X
g onz
Ġsen dero
aliz adas
ĠEstudi antes
ti go
ĠS as
Ġcria turas
Ġimp i
Ġcorre cto
Ġdis cÃŃ
at ÃŃa
Ġasum iÃ³
Ġper tur
r ico
dal e
Ġobten iendo
Ġresta uraciÃ³n
P N
ĠAn ne
Ġe rig
b ot
Ġre e
Ġpes ada
W E
ĠPal ma
imen ea
Ġs ierra
ci osa
ri t
ĠcÃ¡ pita
Ġgra tu
Ġtran siciÃ³n
mon t
Ġch as
Ġpu ta
Ġproce dentes
Ġha z
ĠAD N
Ġdeb il
ĠRe f
Ġsu a
ĠRo ja
ill y
Ġhacer me
Ġps ico
e te
ĠCartag ena
Ġ9 4
Ġcu rioso
re c
ĠH izo
Ġdispar os
Ġrad ical
Ġsig no
Ġmel an
ĠStad ium
b Ã³n
Ġinclu idos
B I
Ġtom aba
en en
ĠC ora
cri tos
a x
p it
ĠAl ba
ul tado
ĠAs unciÃ³n
c encia
Ġtur no
Ġextre mos
Ġrepu taciÃ³n
Ġhoriz on
qui Ã©n
qui riÃ³
Ġven dido
Ġservi do
Ġguitar rista
Ġcircu laciÃ³n
c olo
Ġdis per
Ġvid rio
Ġab ord
Ġjapones es
ĠPre mier
f ologÃŃa
ger s
Ġel enco
ĠC rim
ĠCh arlotte
Ġmer idi
Ġp use
Ġcub rÃŃa
ĠP ese
Ä ±
Ġcan tidades
Ġasegu rÃ³
Ã ²
ĠAn des
Ġconsist ÃŃa
âĢ¦ !
R et
se t
m Ã¡s
M en
atal las
ĠBill y
Ġprome tido
Ġdign idad
ĠB ang
ĠclÃ¡s icos
ĠDomin icana
Ġman siÃ³n
ĠGo od
Ġpes ca
Ġcompr ensiÃ³n
ĠPo p
Ġparticipar on
Ġcrist iano
Ġreg ionales
Ġhal lar
Ġaco g
Ġmu rieron
Ġel og
ĠM olina
ic ciones
rest ling
Ġsex to
Ġcarca jada
ĠD if
Ġasc ensor
Ã¡ ter
Ã¡ culos
ĠCom ple
Ġorgan ismos
Ġr ar
Ġtes oro
m ones
Ġsent encia
ĠCla udio
ĠO cta
) "
ĠI rÃ¡n
Ġcuad rados
la gro
ĠAquel la
Ġhum anas
Ġarm ados
ĠAir lines
ĠIngen ierÃŃa
Ġa zar
Ġtron co
ĠpaÃ± uelo
Ġca denas
ar les
cion a
ĠAcadem y
Ġcor tos
Ġinteg rantes
ÃŃ geno
Ġfrecu ente
Ġ190 9
Ġsecre ta
Ġlog rando
ĠDu que
Ġbe bida
ĠS tone
ĠHel ena
ĠCom p
ĠOlÃŃ mpico
Ġcon desa
ĠGu inea
ĠB omb
Ġar oma
Ġadecu ada
ĠO ld
Ġcri ado
Ġaudi o
l aban
Ġver le
Ġ12 5
ĠS hi
Ġmis er
Ġrep Ãºblica
Ġcon o
Ġres bal
ator ios
ĠÃ¡r abes
ch Ã©
Ġar zobispo
r erÃŃa
ue ba
ĠVie jo
p ÃŃa
Ġperiodi stas
dr ich
Ġdivi de
te ga
Ġpantal Ã³n
mil las
Ġe pi
Ġcan cel
Ġch imenea
ĠBro ok
Ġa tar
itar ias
Ġ8 9
e ira
ĠG ales
ĠRe laciones
Ġtra ma
Ġavanz Ã³
ĠSegu ra
Ġ190 6
m ico
Ġpoder osa
ĠBo ca
ĠAt lanta
Ġvie jas
Ġas im
Ġafec to
ĠPer man
ens as
Ã©li te
Ġestu vieran
Ġv elas
Ġpens a
Ġinstal aciÃ³n
ĠB ul
Ġfantas ÃŃa
Ġnega tiva
ĠLu z
ĠmÃŃn ima
Ġv Ã¡l
Ġneces arios
Ġcap ÃŃtulos
Ã³r icos
Ġexist entes
Ġse man
ion ar
ĠK er
S T
ĠB all
Ġregist ros
vi os
Ġsuf rimiento
Ġconcep tos
me d
ĠI ch
Ġofre cÃŃa
ĠT ran
Ġja zz
Ġvuel va
ĠAnth ony
cos a
Ġna turalmente
ĠAl rededor
Ġoportun idades
ĠV lad
ĠGran des
ren e
Ġenfr entÃ³
til los
Ġs ien
Ġcivil izaciÃ³n
Ãį TULO
M Ã©
ĠN ad
Ġresist ir
Ġes encia
je d
i ja
Ġsu pl
Ġal u
ĠM it
Ġre cepciÃ³n
it adas
Ġelec tri
Ġe chado
Ġse pa
ĠtÃŃp ico
Ar chivo
Ġcomp rado
ĠP rado
vers o
Ġinterpre tado
ĠW ell
Ġfr unciÃ³
ĠT on
Ġdesagr adable
Ġinter esa
tr ado
198 1
P C
Ġimp lica
Ġacus ado
Ġprision ero
" Â¿
ic he
Ġn ut
Ġenter rado
Ġmon tar
or ganiz
an ces
E h
ĠC olo
Ġguer rero
ĠMar ruecos
Ġverdadera mente
Ġvis ual
ĠN Ãº
on ial
Ġmin as
ĠMa teo
Ġdepor tes
Ġay untamiento
Ġelectr Ã³nica
V oy
Ġcomenz aba
Ġans iedad
ĠAl ic
s ur
Ġterra za
' (
Ġcas ualidad
Ġcur sos
Ġrecor riÃ³
' ",
Ġes par
Ġapoy ar
Ġse p
Ġcr Ã¡neo
ĠImper ial
Ġentre gado
re e
Ġcul min
Ġf emin
dos o
Ġreco pi
ĠEncy clopedia
T or
d ada
ĠSus an
ĠA si
Ġgran ja
Ġcor tar
Ġreun iÃ³
Ġrealiz adas
ĠM em
Ġru m
ĠautÃ©n tico
ĠLi teratura
ĠM ara
Ï Ħ
ti t
ĠCons erv
Ġd uer
ĠEmp res
ĠSig lo
Ġcomba tir
ĠRese arch
um i
Ġcel da
Ġros tros
Ġdispon e
cu las
v ard
ĠH is
Ġso porte
Ġun ido
Ġprovo ca
Ġencar gÃ³
ĠW ik
Ġfal da
Ġpu Ã±o
ec tor
ĠJust o
ri das
in cl
Ġrue da
Ġcab le
Ġdej an
Ġb er
Ġdivis iones
Ġto que
Ġin tim
Ġbes os
Ġpe trÃ³leo
Ġsimul tÃ¡n
Ġmar cado
Ġdem onio
ĠLa ur
cil lo
Ġdelan tero
ĠM Ã©ndez
Ġcol inas
Ġconfor me
Ġv istas
Ġcam pan
Ġale gro
am an
Ġdefin ir
Ġurb ana
S Ã©
ĠG ru
Ġfa ti
ĠM et
ĠTu rismo
ĠH idalgo
Ġinfan terÃŃa
la h
Ã³n imos
ue vas
c ente
ord on
Ġsatisfe cho
Ġlleg ara
Ġconten to
ĠBau tista
ĠCan ciÃ³n
ĠCap ital
Ġ !
Ï Ĥ
Ġ'- '
Ġmen cionar
" '.
ĠO viedo
Ġs Ãºb
ĠSud amÃ©rica
es u
ĠA man
Ġocup ada
ĠA penas
ÃŃf icas
ĠRal ph
Ġvis itante
ĠBel la
Ġdirector a
ĠDere chos
ĠD iana
ri ba
Ġprim aria
Ġdesay uno
Ġinm ensa
ĠN orm
ĠSem ana
Ġtonel adas
Ġadqui rir
Ġingen ierÃŃa
Ġvia jÃ³
Ġdesem boc
Ġtrans fer
na cido
pe ta
Ġincl inaciÃ³n
ch or
Ġ190 7
cien de
ĠB est
ĠNic aragua
Ġch ill
ĠC uenca
Ġlanz ada
Ġ riÃ³
Ġadmi raciÃ³n
Ġen tien
ĠlÃ¡mp ara
Ġfal so
CAP ÃįTULO
ĠH ur
Ġhel icÃ³p
ge la
Ġpar ado
at ales
ĠS itu
Ġdec oraciÃ³n
ĠseÃ± ala
col as
Ġest ilos
ci ble
Ġrespon de
vi ta
b oz
Ġenfr ente
Ġguard ar
ĠIn Ã©s
Ġdiecis Ã©is
ul d
Ġemp ie
Ġesc asa
Ġch al
Cre es
c amiento
Ġes enci
Ã¡m ico
k ÃŃn
Te mp
ĠC ob
Ġin mor
Ġhum edad
ĠÃļ lti
Ġliter ario
Ġcaus Ã³
Ġinvi taciÃ³n
Ġfron teras
Ġdescri biÃ³
Ã¡ndo les
Ġher man
Ġceleb rado
Ġsu pe
Ġfel ices
A p
ĠA cciÃ³n
Ġllam aban
Ã³n icos
ĠRep ublic
re os
ĠescÃ¡ndal o
Ġsup rim
Ġb ul
w ich
Ġproce dimiento
ĠS yste
Ġcontempl Ã³
ĠServi cios
ant h
Ġcolo cado
Ġ- --
ck s
Ġpar ada
Ġna z
Ġperteneci entes
Cu Ã¡ndo
Ġres tantes
Ġfu rioso
Ġest abas
Ġarm ado
ĠM oz
Ġv ulgar
Ġemp ap
ten cias
ĠelectrÃ³n ico
Ġp ÃŃ
Ġlevant ado
Ġal ine
uel tas
Ġv ist
Ġtra ge
Ġadministra tiva
c las
ich i
ĠBel g
ĠRol and
la va
c ante
Ġcub iertas
ĠPro ducciÃ³n
197 9
Ġgen io
Ġbol so
Ġval iente
ĠGer mÃ¡n
itar ra
Ġhec tÃ¡
Ġl ien
Ġcomp rÃ³
ra te
ge lo
ster dam
ĠS ici
Ġpri or
Ġa tro
ĠIsa ac
ĠC Ã¡r
Ġpro xim
ĠMor gan
ĠAr gel
ĠelÃ©ctr ico
Ġul tra
as ia
ĠB ry
Ġarro dill
j ec
Ġsua vidad
ĠB uda
ĠR amos
Ġocul ta
ĠL iv
ĠPar ro
Ġfamos os
ĠAngel es
Ġpes os
Ġincl in
Ġan ot
Ġdire cciones
Ġta pa
av al
centa je
Ġgru Ã±
Ġtrib us
Ġescritor a
Ġley endo
Ġse d
Ġdi j
Ġ190 4
ĠGiovan ni
Ġgrab Ã³
ĠA fr
ĠF ol
ĠA N
Ġex ager
Ġta xi
Ġsig nos
ĠMa estro
gent inos
Ġejer cer
tr ales
is cal
Ġparticular es
vers a
Ġorden ado
Ġestre ch
Ġaten der
v ens
Ġreda c
Ġins piraciÃ³n
Ġco aliciÃ³n
Qu izÃ¡
ĠUS A
oy o
ab Ã³
p ros
ĠB is
Ġinv as
Ġdispar ar
Ġma estra
ĠLibert adores
ĠdiÃ³ cesis
Ã¡st ima
Ġso p
ĠDig ital
Ġmusul manes
Ġest all
Ġcor e
ĠO p
L le
ĠMe dellÃŃn
Ġarti ficial
Ġpilo tos
Ġderro tar
cu lares
olu tion
Ġarquitec tÃ³n
Ġse millas
cio cho
Ġag encia
ver y
ste in
ĠMa te
Ġdel ito
Ġba uti
it aron
Ġmostr ado
Ġp ion
" ',
ec Ã©
Ġhaber le
ol viÃ³
ĠF ir
ĠM iller
des de
ĠH ip
ĠHe in
ĠB ull
Ġcor os
ĠAr men
i ona
tu res
Ġsab iendo
Ġdedi ca
ĠAlic ante
Ġf iebre
ĠCon f
ĠA dolfo
le tic
ĠM am
ck er
qu illo
Ġad orn
Ġpre domin
ĠFuer on
Ġmate mÃ¡ticas
Ġhab lan
Ġgenera ciones
ma y
ĠCro acia
Ġco he
ĠE c
ĠCla udia
x e
Ġla bio
Ġmal dito
is os
Ġdescen dientes
Ġto caba
ab ia
Ġrecon oce
r ick
ĠAl icia
es es
ĠAb ra
Ġanci ana
loy d
ta je
Ġf om
ĠL ittle
vi al
ici smo
Ġ rig
ĠBo w
Ġrepresent ado
y ente
ĠV ig
ÃŃ das
ĠB M
Ġembara zada
Å Ł
Ġindi car
Ġre tom
Ġrodi lla
ĠV arios
Ġcon tando
z adas
fer ente
Ġtor neos
ĠCar ta
la o
ĠAu tor
ĠTer ri
al ar
Ġra cional
Ġd amas
Ġtra mpa
Ġdel ici
Ġfalle cido
ĠcadÃ¡ver es
Ġecon om
á ĥ
Ġasegu ro
Ġpresiden cial
Ġelim in
Ġasoci ado
ĠElec ciones
ĠAt letismo
ĠC rÃŃ
Ã³st ico
ĠBru ce
Ġch oc
Ġapar tar
ĠtenÃŃa mos
cola te
ĠmÃ¡s cara
ĠPra ga
Ġrum ores
me dia
b ie
ĠLa guna
j Ã©
d ora
Ġaprendi zaje
ĠWay ne
g ena
t ona
ĠJos e
Ġcub riÃ³
os t
Es per
Ġinsec tos
ĠIl ust
ĠK as
Ġfirm ado
Ġtra go
Ġver as
ĠSon s
ĠV it
ies to
cer es
Ġaer ona
Ġanima ciÃ³n
ĠF landes
Ġmi to
Ġsuces os
ĠW y
Ã ¥
Ġd ona
Ġdef ine
Ġca ver
Ġl enta
Ġmir aban
Un ivers
v ina
Ġv iera
ĠÃ³r ganos
Ġb atallas
Ġcr Ã¡ter
ĠC ay
Ġvesti da
pos a
ĠfilÃ³so fo
Ġconvir tieron
Ġinf ra
Ġbot Ã¡nico
Ġdor ado
Ġextrem adamente
Ġopin iones
ĠOr tiz
Ġfil m
in amente
Ġcumpl ido
ĠF antas
de cÃŃa
Ġen tor
da y
Ġabund ante
en ia
Ġus Ã³
Ġg iro
Ġsal iva
Ġaf uera
Ġb rig
ĠMi x
ĠPersona je
ĠMa xim
ĠMon tes
t ame
Ġameric ana
Ġintegr ado
ĠYu ca
Ġextra Ã±os
Ġest Ã©n
ĠRe parto
ĠEr n
Ġdos cientos
Ġtra iciÃ³n
jal Ã¡
Ġrevel Ã³
Ġcre ando
ĠCan arias
ĠOl iv
Cu Ã¡l
Ġbon ito
B R
Ġauto bÃºs
ĠfÃŃs icas
Ġequivo cado
Ġnie to
Ġsu ble
Ġen tiende
Ġcumple aÃ±os
j ug
Ġhabl aban
Ġal mas
Ġtu rismo
Ġpre ca
m onio
Ġcanad iense
Ġcam paÃ±as
ÃŃs imos
Ġmu tu
Ġtempera turas
de re
ust on
Ã¶ n
Ġcandida tos
Ġte mer
Ġescu chado
Ġagr ad
P I
Ġfru tos
Ġpo zo
Ð ²
ĠW restling
ia t
ĠcÃŃr culos
Ġperman ece
Ġarro yo
Ġc ica
i po
ĠPo dÃŃa
ĠBen ito
Ġcarb Ã³n
lova quia
Ġint Ã©rpre
Ġcondu ce
k an
Ġre lu
ĠMar te
Ġpub lica
Ġparlam ent
ÃŃ lica
Ġfo tÃ³
ĠEmil y
ĠsÃŃnt omas
Ġirre gular
Ġcuidad osamente
s son
Ġvul ner
ac re
Ġensay os
G o
ĠLa ke
Ġf ina
Ġpar al
ĠCon tra
Ġrode aba
Ġpar cial
pi ter
Ġcomun icaciones
m Ã©
Ġdespre cio
ÃŃn as
Ġtra yecto
cl ip
g Ã³n
Ã¨ s
ĠMar sh
f le
Ġch ina
lin s
ĠF rie
si va
Ġelev ada
u i
Ġca fe
ĠCam pos
Ġru mor
Ġdesp la
Ġcondu cÃŃa
Ġinflu encias
ac os
Ġquer emos
Ġsupon er
Ġto cado
ĠProfes ional
Ġpin tores
ace y
Ġcarre teras
Ġc eb
Ġexp licaciones
Ġescu chando
jed rez
Ġh im
ut s
ĠWh it
Ġbici cle
Ġmad ri
Ġtesti gos
ci ma
gre gaciÃ³n
Ġexam en
ĠV all
on ada
or os
fic ado
Ġsu gi
Ġindi o
ĠJon athan
ĠE th
ub le
Ġanun cio
H z
Ġvar iedades
ĠPel ÃŃcula
ĠH ombre
Ġguar di
Ġdorm ÃŃa
Ã§o is
Ġconm em
Ġin visible
Ġbrasile Ã±o
Ġbo te
x is
ĠhÃºme do
Ġesper anzas
ĠPar e
Ġfr un
Ġpresent aba
Ġsen ador
ĠCu al
Ġfal sa
L ib
k as
Ġnu ca
ĠYo ur
lig encia
ĠMar c
Ġren uncia
ĠcrÃŃ menes
Ġconstitu cional
ĠPa ula
Ġt aba
Ġgradu Ã³
Ġcolon ias
Ġru p
ĠSh in
Ġro bar
C la
ĠIn t
M er
ĠCor uÃ±a
Ġsin tiendo
Ġinvesti gar
to grafÃŃa
Ġmar ina
ĠIll inois
Ġal ba
ios as
Ġindi g
Ġj ura
Ġsac o
Ġfar ma
ĠâĢĶ Â¡
Ġmol Ã©
c ÃŃas
Ġrefor mas
Ġ7 00
de za
l adores
ĠP ales
Ġredu cciÃ³n
am ante
ĠCon ferencia
ĠHar t
Ġg ros
ac ar
Ã© ri
iz adas
ta ca
Ġd uras
Ġsil las
par ta
les s
Ġbon dad
di mos
ĠS at
Ġse ver
Ġor todo
S il
Ġdisposi tivo
Ġru tas
Ġrad ic
er ba
im on
Ġprol ong
Ġten diÃ³
ĠFil osofÃŃa
ut ch
Ġcre ciÃ³
Ġmantener se
So bre
Ġco bre
Ġ189 0
O b
Ã¡st icos
s ay
ĠEs pecies
Ġsal ÃŃan
Ã ¯
ĠMall orca
Ġtem ÃŃa
f fer
ĠT ienes
Ġfuncion ar
Ġcre ÃŃdo
ĠC es
ĠI ba
Ã©r icas
Ġcaba Ã±a
Ġemer gencia
que tes
Ġvir us
Ġend Ã©mica
w ick
Ġg all
ace te
Ġmural la
j ante
âĢ ¢
Ġdeb ilidad
Ġab ol
r ÃŃas
Ġarm ada
ĠTr inidad
ilo to
ĠCor onel
Ġjug aba
fec tura
Ġllor ando
Ġejemp lar
Ġsepar ados
te ado
Ġhac emos
Ġmis a
Ġacostumb rado
Â ´
ly mp
Ġotor gado
ĠEl im
ĠGob ernador
ĠDec reto
er ales
ĠSecre tarÃŃa
Ġtrad iciones
f ra
ĠOli ver
Ï ģ
Ġencar cel
or ra
Ġchil ena
Ġpre via
Ġs ienta
dr Ã³
ig i
Ġtom o
Ġextra Ã±
ĠAl c
ĠPo der
pol i
Ġcarb ono
Ġlle vo
Ġconserv ar
Ġneces itan
g eo
Ġpudi endo
du lo
ĠC ara
ĠY an
Ġresca te
ĠBa hÃŃa
ĠautomÃ³vil es
ĠSe a
ĠJul ie
Es cu
_ _
ve laciÃ³n
qu im
tu ales
Ġex amin
Ġna tivos
Ġdispu tar
ĠR Ã©
si vo
ĠMo to
Ġre form
Ġb lin
Ġsoci edades
ĠJug ador
le ma
Ġinteres ado
i w
Ġsosten ÃŃa
Ġpan or
Ġescul tor
ent re
ĠTh or
ĠBo u
v ill
Ġsepar a
ĠaÃ© rea
Ġtranquil iz
ĠPro yecto
Ġsan ta
ĠAlbum s
ĠD rag
ĠPro bablemente
Ġcompren dÃŃa
Ġguar n
Ġlim itado
Ġle Ã³n
ĠFran ce
ĠcatÃ³ lico
ĠH ir
Ġsuper vis
ch ados
Ġa tor
Ġcon di
Ġna val
ĠpÃ¡jar o
ĠF ul
L E
Ġvol viera
Ġrecib ieron
Ġven ÃŃan
ĠJo urnal
ĠHab ÃŃan
Ġcrist ales
Ġcontr ar
Ġcon ferencias
Ġaband ono
Ġz an
Ġoblig aciÃ³n
ĠhectÃ¡ reas
Ġcel os
Ġpart ÃŃculas
Ġa tur
ol la
Ġmascul inos
ĠDre am
Ġg lor
A B
ĠP ronto
Ġre quis
cion ados
ĠW el
pe onato
Ġl ord
Ġesc alo
Ġdi arios
Ġdes cal
âĢ¦ ".
Ġer mita
Ġnov enta
ie w
Ġadqui rido
Ġ190 3
Ġdesp ierta
por tes
Ġesta tura
gra mas
Ġempez ando
Ġesc en
Ġanf itri
Ġexpres ar
d d
ĠF an
Ġprotes ta
ĠB BC
ĠYuca tÃ¡n
f ano
Ġest er
g ran
Ġse cciones
pregun tÃ©
at her
m und
ĠChrist oph
bo x
Ġarro z
di g
Ġproporcion a
ĠJ or
ĠBelg rano
Ġl inter
Ã¡n sito
Ġres e
Ġhistori adores
Ġtern ura
ĠN er
ĠAm or
ĠcÃ©le bre
Ġcontin ental
im ar
ĠBar rio
Ġpat ri
ĠOr questa
ins istiÃ³
Ġlec tores
Ġmar ino
Ġresul tar
Ġlej ano
Ġjurisdi cciÃ³n
l amiento
Ġpublic ados
T I
Ġcerc anos
Ġcos te
nes s
Ġab arca
ĠDipu tados
ĠPa k
Ġacu dir
Ġorganiz Ã³
Ġfrecu entes
Ġpo etas
Ġc ro
Ġpos es
fic e
Ġencen diÃ³
Ġencar go
Ġa ur
Ġenfr entar
Ġpecu liar
f ul
Ġp uls
ĠEs pecial
Ġtr in
Ġch inos
Ġcal ent
Ġpola co
ĠTele vis
ĠÃ© stas
Ġlim itÃ³
Ġhe chas
Ġpres tigio
Ġpl umas
ĠHo ward
titu des
Ġac tivos
ĠAth letic
Ġsu ena
ĠK an
mos a
Ġj ar
br ada
Ġtermin al
ic us
Ġt ubo
Ġestren ada
Ġcar ru
197 8
Ġescri tas
Ġrebo tes
Ġprop uesto
ida ciÃ³n
Ġman chas
Ġcif ra
N adie
Ġen tidades
Ġan to
Su pongo
Ġimp ac
ĠHen ri
Ġidio ta
Ġu a
Ġnaran ja
k ers
Ġlim itada
is pos
ĠSe x
ĠT in
Ġde jo
ĠSi ria
Ġexist ente
Ġdeber ÃŃan
Ġcrim inal
Ġcontinu o
Ġrec ta
Sta tion
ĠVol viÃ³
Ġbille tes
ĠRo ca
Ġidentific ar
Ġpublic ar
Ġex posiciones
Ġhi per
ĠJa ke
ĠH ero
Ġprepar ada
ĠP Ã¡
Ġguard Ã³
Ġdes orden
Ġsalva jes
ĠArquitec tura
Ġpes cado
ten a
Ġmue ve
Ġir ÃŃa
ĠS erv
ĠV at
ĠEn g
Ġri o
B ri
Ġsus p
Ġexten dÃŃa
Ġdie ciocho
ĠTener ife
ĠagrÃŃ cola
te cciÃ³n
ist ente
ĠtÃ©cn icos
Ġenfo que
Ġi da
alu pe
ĠS E
Ġperten ecen
Ġperu ano
ĠCom ics
Ġlu chando
Ġvuel ven
du re
à ¤
Ġcap rich
ĠM emor
Ġanti gÃ¼edad
Ġrefle jo
g ador
Ġasum ir
ĠSo to
D I
Ġtej ido
Ġmuch ÃŃsimo
Ġocas ion
197 6
ĠcomÃºn mente
fec tos
Ġeleg ida
ĠS pecial
Ġbar Ã³n
ĠS erÃŃa
Ġcent rales
Ġameric anos
ĠcÃº pula
af irmÃ³
Ġintrodu cir
ig g
Ġaprove char
ine tes
A lex
G er
tr u
Ġcam iÃ³n
go via
ĠPla te
ĠBro ad
ĠIn forma
id ado
Ġsat Ã©lite
g g
ĠMauri cio
Ġson ar
Ġin yec
ĠenseÃ± Ã³
ĠCol orado
Ġserp iente
Ġpro greso
197 7
Ġargu ment
Ġform aron
Ġrenunci ar
Ġli dera
ĠArgu mento
ĠM uerte
I l
fon ÃŃa
Ġcap tur
Ġinterpre ta
b ack
ĠT os
s is
int endo
n ik
Ġox ÃŃgeno
Ġpre fi
Ġpubl icidad
ĠsÃŃmb olos
ub ern
Ġdecir te
la c
ĠDol ores
ĠS qu
Ġop tim
it aban
r enta
Ġnov el
Ġinm enso
Ġdoc trina
Ġdon cel
Ġra p
Ġj esu
Ġtu ya
dor f
umb ra
Ġme d
v adas
ĠHist or
Ġemp ate
Ġsorpren dida
ĠP ir
Ġllegar ÃŃa
Ġma ÃŃz
Ġcu ader
Ġe vo
Ġlle guÃ©
Ġca deras
id urÃŃa
Ġpropor cionar
ĠC N
ĠHa cienda
Ġacu sa
Ġjug ado
ĠBan da
st en
ĠLe tras
ĠI an
Ġe ru
ĠH ubo
Ġcontras te
ĠmandÃŃb ula
Ġconse jos
Ġre torno
vi esa
Ġens an
Ġm ante
ilan dia
Ġcompe tir
u te
ĠacompaÃ± Ã³
Ġrealiz ando
Ġdesconoci da
ĠAnti guo
Ġses iones
Ġdi Ã¡logo
Ġcomun ista
Ġcos tos
Ġcon gel
mi tiÃ³
Ġconf igu
Ġton to
Ġpresu puesto
Ġmu d
ĠWhe eler
Ġri endo
te xto
ĠMu riÃ³
Ġesf era
dr omo
Ġtriun f
l Ã©n
Ġdis puso
ĠacadÃ©m ico
o pera
c oles
Ġoc cidentales
Ġperfec ciÃ³n
ĠMonter rey
la via
Ġano tÃ³
Ġs om
vi Ã©ndose
Ġpar cialmente
Ġrepresent aba
Ġsa ga
Ġsal en
Ġinstal Ã³
iz an
Ġbas ura
Ġpla zas
Ġsovi Ã©tico
Ġdeter minaciÃ³n
Ġb il
gu ra
ur ada
Ġinst in
Ġpal o
ĠLeo pol
ulgar ia
ĠEstre lla
ĠH ugh
Ġrefer ÃŃa
e le
Ġtu yo
w o
Ġfu ga
ÃŃn eas
Ġpros titu
Ġcristian ismo
ĠOh io
Ġplan os
col n
ĠÃ©po cas
V ale
Ġman ip
Ġus os
Ġconsi deraciÃ³n
M in
Ġinfor mar
Ġan ex
ĠPor to
ĠLeon or
Ġsug iere
Ġabsur do
ĠMar i
Ġme mb
pir os
Ġmer cados
tiza ciÃ³n
ĠA riz
Ġpos tu
Ġsin ies
igu al
Ġsem ifinales
te ur
Ġaf icion
dones ia
N ueva
Ġdestru ido
Ġfir mar
Ġc itado
M ir
ĠestÃº pido
ĠBar tol
om i
ĠB Ã¡r
Ġases or
ĠRec o
ĠFerro carril
ĠRub Ã©n
c enso
Ġex ceso
Ġarro jÃ³
Ġdesapareci dos
ri ga
Ġmec Ã¡nica
Ġmej ora
rÃŃ e
20 20
ĠA ran
Ġus ada
ĠCh ur
Ġescrib iendo
ĠG un
ĠK elly
Ġt am
ier na
Ġi mit
Ġcomun istas
k el
Ġclasific Ã³
Ġ11 0
Ġpregun tado
c rim
ĠJ ud
cip es
Ġins cripciÃ³n
on Ã©s
ĠN eg
n g
ph ia
Ġar en
Ġrecom end
Ġpar tiÃ³
ĠNa val
197 5
bus es
Ġrode ada
Ġper dieron
Ġacre di
ĠTor onto
ĠDo wn
ab ar
uer tos
ing en
Ġma quin
N eces
Ġo puesto
Ġnego ciaciones
ĠAma z
Ġto cando
I mp
ĠCla usura
Ġsimb ol
ĠSegu ro
Ġbomb as
Ġreconoci da
ĠP it
gra m
w art
tu osa
lec ciones
ĠBr un
Ġab rieron
di ble
v Ã³
Ġev ent
Ġenfer ma
gu los
Ġlimp i
ĠPar te
ĠIndi ana
Ġ Ã¡s
B u
ĠpÃ¡l ida
ĠLu ci
ĠK it
Ġpedir le
Ġprotes tas
ĠLu cy
D C
ĠMo ore
cion almente
Ġenferm era
ĠMar ine
Ġhogar es
Ġlimp io
and ante
Ġju dÃŃa
cion ista
Ġprotagon istas
Ġre mol
ĠG ordon
Ġas ientos
Ġm ales
ĠS Ã¡
ĠCo p
ĠSer bia
lo p
Ġdec ÃŃr
Ġcap as
can es
Ġman dar
l oraciÃ³n
Ġalim ento
Ġ190 2
ĠFI FA
Ġdivi dido
Ġver ti
M P
ll amente
ĠC iencia
Ġcer Ã¡mica
Ġpas arÃŃa
Ġmanten iendo
ĠEs pero
ĠAs untos
Ġcub iertos
v ana
Ġmi el
ad uras
Ġel ef
ĠEd die
Ġ risas
Ġven diÃ³
ĠMujer es
Ġdescar ga
Ġde cep
Ġentr adas
Ġigual dad
Ġf all
t ables
pon e
Car los
ĠmÃ© dica
Ġex cusa
Ġmi lagro
Ġconven iente
ub a
Ġconstitu yen
on de
Ġson aba
ĠBu ena
Ġbo de
Ġaut Ã³noma
ible mente
ĠMa pa
Ġmag ist
Ġcal endario
ĠR ally
Ġmercan cÃŃas
Ġdoctor a
Ġel aboraciÃ³n
Ġcre ador
ĠDist in
Ġllan ura
Ġpor te
ĠPe kÃŃn
ĠS tal
Ġbot Ã³n
ĠA di
di vers
ĠPub lic
Ġempu jÃ³
ĠmÃŃ os
Ġrespal do
Ġpose er
Ġrecha zÃ³
Ġdej aban
AS A
ĠPub l
al ta
ĠCam ino
197 3
Ġop ciones
pl ona
ific ada
ĠGran t
Ġconti enen
Ġa Ã±a
Ġvertic al
Ġus aba
Ġfin ca
estru ctura
ch adas
Ġdesen ca
Ġpromo ver
ĠMar vel
ĠV Ã©
ĠYama ha
ĠP R
ĠOc cidente
ĠConfe deraciÃ³n
a de
Ġbal as
Ġe u
Ġavis o
Ġpeda zos
Ġreserv as
Ġten gan
ch ero
Ġcans ada
Ġab og
ĠRom ano
ĠBob by
ĠPer ten
Ġmin istros
ĠD atos
t ana
te llo
gri ma
Ġcomp uestos
ren da
Ġco gido
Po drÃŃa
ig ma
ĠG T
Ġan cha
ĠBib lia
Ġdesl izÃ³
Ġpec ado
Ġestu ve
i ter
v re
ĠEs peci
si ta
Ġtesti monio
Ġde presiÃ³n
Ġvol ante
Ġgal le
cer ÃŃa
Ġsol ista
E r
Al go
ra to
Ġab er
Ġcompren dido
Ġexper tos
ĠCÃ³ digo
Ġf icha
Ġobs es
ci Ã©ndose
Ġgrab ar
ĠN am
Ġru bio
ĠLa go
tan to
ĠAr ti
Ã¡ les
Ġges tos
lo ck
il do
Ġcar tu
Ġextraordin ario
Ġinevit able
Ġep ÃŃ
Ġintelectu ales
for mas
Ġir me
Ġapar ente
Ġpelo ta
Ġdem uestra
quier da
B en
le ment
ĠO la
gu en
Ġinter min
ĠThe atre
Ġin und
ĠAnt Ã¡r
ia ciones
igh ts
ĠDar k
ĠF M
Ġrealiz ados
ĠLeon ardo
Toda vÃŃa
Ġvic epresidente
ĠNew s
Ġenfrent amiento
Ġrepro ducciÃ³n
ĠÃ¡ t
Ġmal dita
ĠRe ich
Ġles iÃ³n
G rupo
ci nas
ur n
Ġan ar
Ġfac ciones
ĠG os
Ġreemp laz
Ġsemej antes
Ġterremo to
Ġcomp one
Ġdemos trÃ³
ap ro
Ġarre pen
Ġch arla
ĠMexic ana
Ġdetermin ada
ĠMe tal
ĠJ oy
Ġcor rupciÃ³n
Ġgust an
Ġocul to
Ġprote ctor
Ġcaus ado
Ġn udo
Ġdestac Ã³
Ġhe bre
Ġcru ce
Ġin us
Ġdespe dida
H ace
Ġdes v
Ġdep risa
ĠH isp
Da vid
Ġdevol viÃ³
Ġin ta
ĠG am
Ġcay eron
ĠK la
ĠTer ry
ho use
Ġrecha zo
Ġlar g
ĠOr le
ĠC S
Ġdepor tivos
b res
ĠG loria
Ã©r coles
Ñ ĥ
ĠEst aban
ci sta
ab ro
Ġmir Ã©
Ġmanus crito
ĠÃ³ p
ul es
Ġoscu re
a ter
Ãº d
Ġcari Ã±os
le d
b oy
Ġsu yas
inar ias
ĠN ig
Ġbre vemente
ĠM ÃŃ
Ġtr Ã¡g
Ġper didos
Ġotor gÃ³
ĠGro up
Ġinst into
Ġper ple
ĠSupre mo
p il
ur us
Ġgris es
V ic
tr all
ĠMan cha
pen cer
Ġp enas
Ġb acter
Ã³l ver
ĠJ enn
Ġd Ãºo
ĠIsi dro
Ġf ilo
ĠJord an
Ġinmedia ta
Ġlabor al
ĠL ist
Ġale jado
Ġin to
197 0
Ġpreten de
Ġsuav es
Ġ188 0
ĠTu cu
ĠCal der
ĠhÃ©ro es
fic ar
Ġcontinu amente
C er
ch oso
Ġsacri ficio
O l
ĠP uerta
Ġen trando
U E
Ġofens iva
Î µ
Ġ189 8
Ġtra e
Ġescu cha
ĠpÃ¡g s
rest res
pa cidad
Ġpi diendo
Ġex tras
or r
Ġru rales
ĠP ino
amil ton
Ġinquie tud
es to
Ġleal tad
Ġaf ron
Ġfiel es
ĠG ian
ĠGir l
av iera
ĠB ulgaria
Ġauton omÃŃa
Ġdej ara
ue z
D ic
ĠlÃ³g ico
Ġmer ece
Ġv ea
Ġpriv adas
ĠD ir
ell er
Ġb estia
pul os
D er
Ġcu bre
Ġ190 1
ol ÃŃ
ĠB and
Ġllam o
anz Ã³
ĠLatino amÃ©rica
ĠM anz
Ġefica z
ĠAu gust
Ġsur ge
Ġc Ã³l
Ġlevant aba
p so
lan desa
ĠNich olas
Ġt ÃŃ
dr ÃŃan
Ġprodu cÃŃa
ĠdepÃ³ sito
Ġvol cÃ¡n
ĠCar ter
mun icipio
Ġelim inado
te ar
ĠMÃ© rida
gu ÃŃn
Ġdel gado
s ar
Ġtrage dia
Ġb udi
Ġmi tologÃŃa
Ġextre ma
ĠS ob
ĠClar k
ĠÃ© tn
Ġcon cer
Ġley Ã³
Ġgri tando
di dad
Ġinaugu rado
ĠA ta
l ist
W ill
is m
ci no
Ġarran car
Ġor din
Ġdi jera
Ġcho colate
Ġreti ro
ĠBal oncesto
Ġmo tiv
Ġmun diales
ĠF amil
âĢĶ ;
ĠW o
Ġpar es
Ġqu eso
Ġen re
e dia
ĠAl guien
Ġlimp ia
u ad
ĠA mp
Ġinstal ado
ĠPersona jes
Ġas pi
ĠA ce
Ġf ri
ĠG all
Ġfacil itar
Ġv ay
ĠS ul
Ġdetec tive
M irÃ³
ĠCan dida
Ġdirig irse
Ġc iego
Ġescas os
Ġpre vio
ig e
n io
ro w
Ġhab ÃŃas
polit ano
Ġu Ã±as
ĠSpi der
er na
di st
ĠGuad alupe
ĠAn tio
Ġloc alizado
ĠEv angel
ĠcÃ¡l ido
Ġhay as
ĠK re
Ġtras cen
ĠU R
Ġllev arÃŃa
ĠautÃ©n tica
Ġg alo
Ġvari able
Ġma cho
S am
Ġprodu ctores
ĠPo wer
Ġca os
Ġaf ueras
Ġde terior
io grafÃŃa
ĠAlcal Ã¡
ĠPlay Station
ĠBea ch
Ġreun irse
Ġcar tel
ĠAlfre d
Ġconf irma
Ġanim e
ff s
Ġjun ta
lo que
ĠF le
ĠEst Ã¡n
ĠSpor ts
piÃ© lago
ĠW u
Ġfirm eza
Ġa tes
gr Ã³
w w
Ġg ubern
ĠF igu
Ġalar ma
Ġsocial ista
Ġresiden tes
ĠR uth
Ġser en
Ġtir os
ĠEd gar
ĠK ansas
ĠTe ch
ĠPeter sburgo
ĠS id
Ġorien taciÃ³n
Ġam ado
Ġhel ado
Ġcre encia
Ġapoy ada
gues es
Ġsospe cha
Ġer gu
ĠP et
Ġespec ta
if inal
ĠAur ora
Ġtendr ÃŃan
ĠEmp erador
ĠP eso
ĠN intendo
An ton
Ġsusur rÃ³
Ġgraba ciones
b ÃŃ
Ġdisposi tivos
Ġatraves ar
Ġcorre c
ĠIn dias
Ġru bia
ĠÃģ vila
Ġmen ciÃ³n
Ġser lo
Ġdi vin
Ġapar tado
Ġesp lÃ©n
Ġro ta
Ġaprove ch
Ġp ad
Ġcomb ates
Ġfel ici
ĠsÃ³ tano
tr ic
m amente
ĠJust in
Ġextraordin aria
ga te
Ġha cienda
Ġbot Ã¡nica
Ġconcl uyÃ³
ĠV egas
ĠH acÃŃa
Ġon da
" Â¡
ĠReg imiento
i cionado
Ġatra cciÃ³n
Ġneces arias
Ġlim ita
Se gun
Ġal mirante
Ġelig iÃ³
Ġrespons ables
Ä ĥ
Ġn acer
ĠGra m
Ġpe dÃŃa
ĠNav arro
f ran
Ġs antos
an ista
Ġmural las
V A
Ġcom itÃ©
r ab
Ġsin di
Ġrev Ã³lver
Ġa fortun
ĠÃ© se
Ġam antes
Ġcomplic ado
Ġmir arla
Ġv uelos
Ġmer ca
pu ra
Ġpo tente
Ġmo le
Ġes boz
ĠUnivers o
Ġinterpre tada
ĠTer cer
ĠTrans porte
Ġver emos
j illo
co pio
c ant
T res
Ġguion ista
Ġten gas
ĠOr tega
Ġ187 0
ĠIn c
ĠRio ja
tin es
G an
Ġcap tura
Ġprofun das
Ġconce diÃ³
ĠRa chel
U no
Ġescol ar
ĠGan ador
Ġco p
ol l
Ġcandida tura
ĠK id
ti mos
Ġdeten erse
Ã Ł
Ġfr Ã¡g
Ġpreguntar le
ĠEar th
Ġreempla zado
if orme
Ġliber ales
ĠV ent
ĠCom pos
ĠNorte amÃ©rica
Ġfran co
Ġre inos
Ġcay endo
Ġaum enta
% .
ĠAr chi
ĠM ack
ĠC rÃ©
Ġmanifes taciones
Ġ Ä
Ġante pas
Ġdo bles
Ġpros per
ĠD ocu
Ġin so
tr aba
Ġexist ÃŃan
v Ã¡
Ġpasa je
Ġde je
Ġcru cero
ĠA rist
Ġespecial ista
Ġdul ces
ator ias
st ad
Ġre to
ĠCo le
Ġadop tÃ³
us se
Ġdel iber
Ġviol ÃŃn
Ġa tÃ³
ĠBot an
Ġtamb ale
id an
Ġexper to
ĠTemp lo
Ġconstru cciones
Ġindustri ales
Ġpl ant
Ġaprob Ã³
Ġ186 0
Ġten is
Ġsub ÃŃa
pa ta
Ġro bo
Ġllu vias
Ġf atal
ĠaÃ© reo
pues tamente
I g
ĠP ier
ĠS yl
Ġproces iÃ³n
ĠLin coln
amb ul
Ġcuid ar
ĠBill board
val o
ĠN at
ĠNo va
W e
Ġtaba co
uel tos
ÃŃs imas
Ġsir ven
ĠO lymp
c ena
ha us
Ġexpres a
Ġamar illa
5 00
Ġmarin eros
for o
Ġcomun as
ĠPo demos
197 4
ĠSil ver
Ġproce de
ĠY ear
ĠBas ket
Ġcomien zan
Ġm ina
Ġasent amiento
Ġeurope as
orden Ã³
I B
ĠNo bel
Ġcor por
ÃŃr culo
Ġpresent arse
Ġfues en
Ġconserv an
Ġinici ales
ĠI o
ren ce
Ġiden tificaciÃ³n
ĠK or
Ġemb ri
que t
Ġtri pul
lag ros
Ġtim bre
bi as
Ġcos to
Ġmascul ina
Ġacer car
Ġsi mpl
ĠcÃ³l era
n eg
ĠR ap
ĠNi Ã±o
Ġlanz aron
Ġveinti cinco
Ġint rig
ĠEle ctor
ĠprÃ³xim os
ĠL isa
ĠT C
Ġacep ta
ĠL iz
Ġbel lo
iz aba
ĠfenÃ³m enos
Ġen ven
Ġso is
Ġban car
Ġcambi ando
ĠO ce
ĠA bo
ĠC amil
Ġsue co
Ġapres urÃ³
Ġaum entÃ³
ĠK in
Ġmedi r
Prim era
Ġev olu
Ser Ã¡
j ales
ara Ã³n
Ġdej arlo
ĠA cu
Ġpre t
Ġder ram
ĠHa z
Ġ189 5
ĠHar ris
Ġmun dos
Ġrad i
Ġmoles ta
gun as
ci f
Pa ul
Ġd uelo
ur recciÃ³n
Ġfa cultad
ĠGre at
Ġmuel le
ĠW all
Ġfu tura
Ġrid ÃŃculo
Ġorgullos o
ĠEx p
Ġmuer tes
ĠDe be
ed onia
her e
Ġm ero
at Ã³n
Ġo la
Ġgab inete
ĠLu x
ĠS ino
r ina
ĠCab rera
ĠL ec
Ġteleno vela
Ġresi du
Ġimp uesto
oc os
ĠAl ban
Ġinter ven
Ġexp lÃŃ
Ġsust ancia
Ġdepart amentos
F a
ĠAy la
ĠBa ch
ar cas
f ÃŃn
Ġpu Ã±os
Ġtendr Ã©
g il
G re
I G
Ġin segu
ĠEstu vo
Ġhubi esen
Ġsub es
Ġlin k
Ġpon en
Ġdirig entes
Ġrela tiva
ÃŃti ma
ĠV ik
H all
Ġasist iÃ³
Ġasust ado
Ġpres tar
A li
d uras
Ġcu mbre
j idad
Ġdemas iada
Ġtab las
Ã¡n icas
Ġca tedr
hi la
Ġsalud Ã³
E di
ĠE rik
C lub
ĠLib eral
y entes
is ion
ĠPe te
ĠRen Ã©
Ġtra icion
Ġne er
Ġl ana
Ġrug by
Ġalgo dÃ³n
ĠRec ep
Ġdi chas
Ġreco giÃ³
Ġayud ado
Ġnave gaciÃ³n
uel va
ĠCon temp
Ġp Ã©
z aron
Ġsab idurÃŃa
Ġpar ientes
Ġna zi
Ġsal udo
ĠAlcal de
Ġjo yas
Ġfran cos
ĠPublica tions
st one
ĠL legÃ³
Ġcil ind
Ġpien sas
ĠUp per
Ġca pi
Ġfalle cimiento
ĠRec or
ĠPatri cia
à ¸
ĠRo d
ĠEx posiciÃ³n
Ġcaracter es
Ġpreca u
ĠMar x
A A
Ġadver tir
Ġdes di
ĠDe bu
M il
197 2
Ġprohi bido
ĠIntrodu ction
an dr
Ġenv uelto
Ġqued arme
ij Ã³n
J ack
ĠFalle ciÃ³
Ġcontinu aron
Ġpriv ados
Ġhumil de
Ġcontra tado
li das
Ġreco b
Ġapre ciar
ĠInf an
l ant
m sterdam
Ġparale lo
ĠDa ve
ĠtÃŃp ica
Ġsonre ÃŃa
ĠDi ario
Ġcu lo
ĠG ard
ĠD ura
Ġar diente
Ġros as
nes ota
P E
Ġhem bra
Ġmur mul
ĠPol it
b Ã³
ier ten
Ġcomple ment
do mo
en di
T ube
Ġun ir
Ġbande ja
Ġ189 6
Ġmister ioso
ĠC V
Ġre le
Ġcul turas
ĠhistÃ³r icas
bour ne
ĠAl var
Ġpronunci ar
Ġarre bat
z ca
ko ta
ĠValenci ana
Ġch or
Ġexter iores
Ġasegu rarse
Ġcif ras
c tiva
ĠJ ornada
Ġimag inado
so la
Ġtendr Ã¡s
is es
irÃ¡ mi
Ġ oraciÃ³n
Ġo ve
da te
ĠMa ch
ÃŃn cipes
h ue
Ġaden tro
Ġ189 9
Ġinaugu rÃ³
Ġcam inaba
Ġd orada
Ġinj ust
Ġca jÃ³n
P os
fel d
ebo ok
) '.
oc key
Ġque b
K a
i tiva
y era
Ġguard aba
Ġqued arÃŃa
Ã³m icas
ĠF ire
C iudad
ĠB ec
Ġen am
Ġescon dido
ĠSan cho
ĠThe o
Ġvolver se
Ġsa grado
V a
qu ist
ĠU CI
p ie
ĠsÃ©pti mo
ĠEx iste
Ġrob ot
y u
ĠTucu mÃ¡n
Ġamena zas
Ġinmig rantes
qu ismo
Ġcorre cta
Ġun idos
Ġtemp los
Ġhaber me
ec erÃŃa
ĠCompe ticiÃ³n
ĠSh ar
si mo
Ġdepen diendo
ĠHo uston
leg ados
L iga
Ġact Ãºa
Ġmu dÃ³
Ġarm adura
- Â¿
H an
Ġoblig ados
ce la
Ġsos tiene
fon os
ĠL ÃŃ
ĠAT P
Ġdese ado
Ġadel ant
Ġpropor ciÃ³n
ib o
Ġven as
ĠT ed
Ġbo la
ut ica
Ġimpresion ante
ĠPens ilvania
Ġpro pi
Ġj uro
at tle
Ġargu mentos
ĠSi mp
Ġpun tas
Ġenfer mos
Ġfavor ito
Ġdu cha
Ġdistin ciÃ³n
Ġsal pic
Ġreac ciones
Ġpul gar
Ġelim inaciÃ³n
Ġtr Ã¡nsito
Ġt ig
Ġcon dena
mi ra
Ġtre men
Ġvar ones
ĠJ i
U L
Ġnie ga
Ġex il
! !
r ara
Ġtra ves
Ġdeclara ciones
er naciÃ³n
ba ta
Ġescal ones
f Ã³nica
Ġmane jar
O C
Ġex hib
Ġsosten er
f man
ĠK le
ĠL ac
ro co
and Ã©s
Ġmir arlo
Ġcons uelo
ies tas
per as
V ir
Ġm adres
x ido
se e
Ġpubl ici
ĠMar ch
Ġtri go
Ġir Ã©
Ġsuf re
in k
Ġpartid arios
vi ado
Ġl Ã¡stima
Ġreda cciÃ³n
ĠR h
Ġsin dica
Ġpis cina
form es
Ġro d
ĠMon tre
Ġcomp asiÃ³n
Ġemb arca
Ġsome ter
ĠcontemporÃ¡n ea
Ġmon tes
Ġhall aban
Ġapro xima
ĠG ue
Ġexam inar
Ġejer ciÃ³
ill ado
p ensa
Ġavanz aba
ĠJu Ã¡rez
to wn
ĠF ru
esti as
lo go
ĠIra k
r Ã¡ndose
ĠGeor g
Ã ĳ
Ġbienes tar
p rim
Ar gentina
Ġconse jero
g us
ti miento
ĠSer Ã¡
Ġdig no
Ġtransmi tir
t res
Ġresplan dor
Ġpreocu pada
Ġfundad ores
Ġalim entaciÃ³n
ap ia
ĠW iley
ĠT ib
Ġame trall
ĠRus sell
Ġque de
ĠL ud
Ġpuer tos
Ġpropon e
ick s
ĠCeci lia
ĠSici lia
m ia
Ġnacional idad
dem ia
ĠMiemb ro
ĠindÃŃ gena
Ġexci taciÃ³n
Ġpor tero
Ġclan dest
Ġcolec ciones
ha w
Ġfi jÃ³
ĠPrin ce
Ġau tÃ³
Ġdirig iÃ©ndose
Ġlo cu
Ġre curso
Ġb risa
Ġcual idades
Ġcu mp
lic amente
de le
Ġafirma ciÃ³n
Ġarb ustos
ĠNe gra
Ġu ruguay
seÃ± or
Ã °
Ġconsider ados
Ġcre encias
Ġmat rim
ĠacompaÃ± ada
Ġpe ores
c ad
Ġ189 7
ĠG av
Ġ10 1
di sta
ĠQu izÃ¡s
ĠV elas
Ġencar gar
Ġrecib iendo
Ġeva cu
ĠT ÃŃtulos
Ġorganiz ada
Ġsuici dio
Ġmon arquÃŃa
ĠAu re
Ġcon cepciÃ³n
cadem ia
Ġdiplom Ã¡tico
Ġcuesti on
Ġcre ÃŃ
Ġpin tado
ĠIn donesia
Ġatra er
ĠN ominado
Ġll enas
ĠÃ©s a
de cer
ĠH ub
Ġn osotras
ĠEx per
ĠHol anda
Ġre ce
Ġle gado
Ġconsegu ÃŃa
Ġesta tus
Ġdos is
ĠS aba
Ġmar chado
in oso
Ġestre m
Ġdese ando
Ġinmor tal
ĠP ÃŃo
pe lo
ĠtÃºn ica
Ġpropie tarios
ent ada
ĠT ara
ĠAle ks
Ġpr omin
re t
Ġsu d
B as
Ġespec ÃŃfico
Ġv ÃŃs
ĠPam plona
ti ma
ĠP unta
ent ados
Ð ´
ĠEx pres
ĠAgu ilar
E B
Ġex al
ĠO tto
Ġpres tig
Ġri tual
Ġpor centaje
Ġtal la
Ġsan tuario
graf os
Ġdorm ida
Ġal erta
Ġcar gado
Ġproteg ido
ent ice
roso ft
N A
c c
Ã© lica
ril las
ĠA ves
ĠJ amÃ¡s
ĠBer g
ĠGra y
pens Ã³
ĠGol den
ĠRev olucion
Ġfundam entales
ĠZ Ãº
Ġprob abilidad
Ġad v
Ġpresent aron
Ġfundad as
ĠclÃŃn ica
ĠpÃ©r didas
al s
ĠA frica
Ġsens ible
Ġves tir
ĠRo dolfo
h as
ĠFemen ino
Ġinfan tiles
Ġd ragÃ³n
Ġdivers idad
Ġalfomb ra
ĠH emos
Ġemb ajada
un ar
ĠM ana
Ġdij iste
l um
Ġcans ancio
Ġt Ã³
Ã ¦
Ġtra jes
Ġgua pa
Ġja de
Ġfa una
Ġa du
Ġman ta
Ġefec tivo
ĠClas e
ĠL ind
Ġtaller es
Ġfa cul
Ġd uros
Ġtu ristas
Ġinst ancia
Ġcomerci antes
Ġposi tivo
ĠBan k
ĠHist Ã³rico
Ġen mar
Ġdepor tivas
Ġvues tros
Ġenven en
Ġinso port
ver de
Ġelectri cidad
ĠAl ess
Ġrelie ve
ĠCon trol
t ter
Ġcer do
Ġru bor
Ġveci na
Ġmanz ana
Lu is
lan es
it ana
Ġab riendo
ho u
Ġmod alidad
D ire
ĠP ur
Ġplan etas
Ġresta u
ĠEn d
Ġas pir
Ġpul mones
ĠAriz ona
Ġgar ant
Ġprote ÃŃnas
ĠF Ã¡
Ġllev ada
Ġbaj ando
ĠS ando
ĠF all
U T
Ġcercan as
G al
ĠForma ciÃ³n
Ġdescon f
Ġincon ven
Ġdial ec
ing os
ĠYu gos
Ġtranquil amente
Ġapas ion
Ġprodu cciones
Ġdivi dida
Ġconoc ÃŃan
ĠI rene
ĠJard ÃŃn
Ġc res
Ġac antil
Ġh Ã¡
ĠAl f
in n
Ġllen Ã³
Ġman i
ĠSo und
Ġpes adilla
dr ome
Ġ15 00
te ando
Ġconsul ta
ĠT ob
Ġex quis
Ġme tÃ¡
est res
Ġintegr ada
Ġreconstru cciÃ³n
Ġaf e
Ġinte graciÃ³n
ĠF uego
Ġcol ab
Ġrepres iÃ³n
Ġneu tr
Ġres table
sen al
Ġrecuper Ã³
fici ales
Ġen Ã©r
min ente
Ġvam piro
Ġtraslad ado
Ġco operaciÃ³n
pa je
Ġpres erv
Ġdel la
Ġexpres iones
Ġe cos
ĠTa ilandia
Ġpreocu pa
Ġfres ca
196 9
Ġllev arse
Ġinfin ito
iste mas
Ġ13 0
dos a
w ig
Ġefec tivamente
Ġprovo cado
Ġvas os
H el
Ġtan ques
ĠPS OE
ĠBri tish
ĠP ira
ist ÃŃa
at t
ĠU K
Ġol vido
Ġfuncion ario
v ero
Ġjue ces
ĠK ara
Ġsepar Ã³
Ġries gos
ver se
ĠÃ¡ngel es
Ġmonta Ã±os
ĠB ale
ĠAh ÃŃ
S ub
Pue des
Ġvia jeros
Ġentrev ist
Ġtra zado
Ġlinter na
Ġb in
am pa
P r
ĠMo on
ĠTom my
Ġdesesper ado
it arse
Ġmar car
Ġtar des
Ġmal eta
Ġexperim entado
enci Ã³
his ky
Ġedi tado
Ġest allÃ³
Ġescalo fr
ĠMon ta
ĠN uestro
ub io
Ġcercan ÃŃas
C E
ĠL lam
s itos
m adura
ĠÃģ msterdam
Ġlevant ando
196 8
Ġestreme ciÃ³
ĠBra vo
mit ÃŃa
Ġin vo
ĠSa tur
Ġcober tura
ĠP uesto
Ġtr Ã¡
ĠPar ker
ĠLib ros
Ġu tilidad
ĠFran Ã§ois
Ġalber ga
Ġter ribles
Ġcor tas
Ġdelan tera
di ces
ol ia
Ġper cepciÃ³n
ĠPa ch
Ġp ur
ĠJ Ãº
le a
Ġobserv ado
Ġdom ici
para ÃŃso
kes pe
Ġtras tor
Ġcompr endo
Ġu cran
P D
ĠP ot
Ġfi jo
Ġescul turas
Ġle ÃŃa
Ġins inu
ĠSo phie
Ġeleg idos
ĠdÃ© b
Ġtras lado
Ġsecund arios
rim ientos
ted ra
ĠVin cent
ĠNet work
Ġespec ÃŃficamente
ĠIma ge
ter min
Ġciudad ano
ĠÃģ rea
197 1
Ġfero z
cu mb
in us
ĠbÃ³ veda
n d
Ġdi ablos
ĠC IA
Ġma tr
Ġe ras
ĠB ag
Ġdi ag
ĠEje mp
Ġse di
ĠB ronce
ĠW is
la ta
pu lo
Ġpi la
Ġaconte cimiento
ĠYou Tube
Ġrob ado
Ġindi can
Ġj orn
ĠTi po
tic u
Ġcel ular
tic s
Ġpoder osos
pros iguiÃ³
te Ã³
Ġborra cho
Re al
Ġten dido
ĠCu ad
Ġpro a
ĠJ ay
ĠA ga
Ġdar Ã¡
ang er
Ġleg ales
Ġcaus ar
ĠCant abria
ĠPer fil
Ġtro zos
Ġindi gn
Ġac el
Ġ10 5
Ġrecl u
Ġman cha
ĠOrle ans
Ġest atales
tam en
Ġab e
Ġpodr Ã©
Ġla guna
Ġextin ciÃ³n
jer ÃŃa
Ġsol tar
Ġemple a
Ġle gend
ĠFran z
ĠAl merÃŃa
ĠFrie drich
cen o
Ġpas tel
Ġcontinu idad
Ġapar iciones
l ador
ĠB aviera
Ġcor tÃ³
ĠIndividu al
L i
v ic
Ġclar os
ĠOl ga
don ald
F el
an ie
Ġg im
ĠT as
Ġins u
Ġcole gas
Ġ189 1
ĠA las
Ġneces ariamente
Ġh ones
Ġdes pl
Ġhabitu ales
Ġaus ente
Ġdise Ã±os
Ġsol ÃŃan
Ġagru paciÃ³n
Ġ ÃŃ
Ġlleg amos
en de
ten to
A G
par on
Ġant rop
ĠEntr en
Ġcamar ero
Ġhab le
Ġdim ensiÃ³n
Ġrepu gn
Ġano che
way s
Ġhabitu almente
Pre mio
Ġgr Ã¡fico
ĠPas o
ĠPr entice
ĠM ala
Ġinv itÃ³
ĠG imnasia
ves tre
res iÃ³n
ĠVen us
Ġpor no
ur en
Ġreco gido
Ġo ye
in quiriÃ³
Ġcontempl ando
ĠChristoph er
ĠBartol omÃ©
Ġinter iores
Ġvis itÃ³
ant Ã¡n
ĠDan ny
in ero
ĠU C
le tos
ĠV Ã¡zquez
ĠEjecu tivo
Ġa jedrez
ĠBor bÃ³n
mer al
ĠWal ker
ĠS av
Ġton ta
Ġcont am
Ġg alax
Ġre en
ĠCo pas
Ġrep lic
Ġpreci oso
ter ia
Ġext ensa
Ġobserva ciones
ur aba
Ġtor os
Ġhem bras
ĠJap an
Ġv il
Ġpre h
ĠP ed
Ġcor tinas
ob os
ĠAr que
ĠSon y
Ġlad rillo
Ġecu ator
ti gu
ma te
ĠZ ar
Ġpelig rosa
Ġtir ar
Ġl Ãº
Ġso Ã±
ĠPr ueba
Ġdu quesa
Ġesca pÃ³
Ġdedi car
Ġmaravillos a
Ġdefini tivo
Ġnoctur no
ĠMac donald
Ġagu do
Ġta x
Ġbols illos
Ġis l
ĠcÃ³mo da
ĠPres iden
ta tiva
Ġlimp ieza
Ġinvestig ador
Ġbar ca
Ġhier bas
Ġpal p
Ġavanz ando
Ġmediano che
em an
Ġsu plic
Ġre visiÃ³n
Ġti ra
on ales
Ġtor o
ĠD im
ĠT est
H oy
Ġutiliz aciÃ³n
us ieron
Ġdisco grÃ¡fica
Ġblo ques
w i
Ġdes at
Ġmete or
ac on
ĠMe j
Ġofre cen
Aquel la
ĠCom pren
ĠHar vard
s ig
Ġrelacion ada
ri ma
Ġprop uestas
Ġtra mp
Ġmanifes taciÃ³n
mb urgo
ĠNÃº Ã±ez
Ġdesaf ÃŃo
ĠTor o
la y
Ġfle cha
Ġconten idos
Ġorganiz a
Ġp ido
A mb
Ġ3 50
Ġunivers itario
ĠScien ces
ĠBeat riz
Ġdocu mentaciÃ³n
Ġsecund ario
Ġcono ces
igu iendo
ĠS ie
ĠS enci
Ġten Ã©is
one y
Ten emos
Ġenf ure
ĠMat the
Ġdispar Ã³
Ġnorm ales
Ġliter almente
ĠT Ãºn
ada jo
ĠB ack
Ġman to
Ġfun cional
Ġincre mento
ĠT iro
Ġcos tÃ³
ĠMar cus
Ġdomin ante
ĠH amilton
ĠespÃŃritu s
ĠWa ter
ĠBlack well
Ġtom ada
Ġcent rado
Ġastero ide
c ana
Ġrec tan
ĠZ ag
ĠC ross
tent ri
ĠcrÃ© ditos
Ġt ribun
Ġcor dillera
ĠHum anos
un der
om or
Ġrepresent ada
Ġad yac
tro it
Ġcom en
Ġrepi tiÃ³
Ġpie dad
Ġat entado
Ġcant ando
ĠsÃ¡b anas
Ġfrances as
Ġbar rera
lu la
f Ã³n
ĠCh in
ĠP ay
ch era
g et
Ġrecib ÃŃa
Ġatraves Ã³
ĠD ia
ĠseÃ±al ar
ĠAm y
Par ece
Ġin Ã©
Ġsub terrÃ¡n
iz aciones
Ġvari ante
kespe are
Ġten dremos
Ġcompeti ciones
Ġsu puestamente
Ġespon tÃ¡n
ra me
Ġinter net
Ġsusur ro
Ġcar gar
ĠTown ship
Ġpas ara
Fran cis
Ġper dÃŃa
Ġsal vado
n an
ĠdÃ©b iles
Ġconta ctos
Ġilum inaciÃ³n
Ġinstru cciÃ³n
Ġte les
li p
Ġconsigu ieron
am Ã³n
Ġcaptu rado
Ġr ÃŃg
Ġse min
lo g
ticu atro
Ġac Ãºst
Ġno taba
ĠHel en
ta pa
ĠMic rosoft
zz i
ĠCin co
ĠB eth
Ġsub di
Ġcier tamente
Ġpreci pi
B er
Ġcor tina
Ġarist oc
Ġob vio
Ġbru ja
Ġbal cÃ³n
Ġcarru aje
Ġalma cÃ©n
Ġver Ã¡s
Ġvol ando
Ġtrans curso
z er
que tas
ĠPrim eros
G ab
ĠSe govia
Ġsecre taria
" ?
Ġesc ru
omb o
ar m
Ġsuperviv encia
ĠAr k
Ġrefle ja
ĠT s
Ġentrev istas
on ias
ĠMal asia
Ġmort ales
Ġvenci Ã³
Ġconvertir ÃŃa
Ġ188 9
Ġclasific ado
Ġco bar
son riÃ³
Ġvocal ista
Ġsober ano
B an
Ã©s imo
e gu
Ġce der
ĠincÃ³mo do
Ġcolec tivo
Ġac era
Ġrefer ente
ĠTru jillo
ĠB es
ĠH ome
st al
Ġex ha
ina ta
Ġr uego
in io
Ġinterro g
Ġcolon os
z io
ĠUn der
% ,
ĠB ron
ĠCor pora
Ġavanz ada
Ġjue ves
estr ÃŃa
Ġtor tura
ĠPos t
Ġexperim entos
Ġsum amente
Ġdis gust
Ġlo cos
Ġ ris
ĠInstitu te
Ġnomb rada
Ġdes plom
ĠAp olo
v ento
ĠF ield
ĠprÃ©st amo
ĠSe p
ĠAnto ine
ti fica
ch et
Ġne ur
Ġretra tos
Ġco do
Ã¡r qu
ĠcÃ³ mp
Ġbas tÃ³n
Ġconstru yeron
ĠcÃ¡l culo
Ġdej arÃŃa
Ġun ieron
ĠL ion
Ġplen amente
ir as
Ġen se
dr en
Ġcre cido
Ġindi ferencia
cri ta
adajo z
ĠS ap
ĠG iro
Ġhor ario
vi de
Ġcru ces
Ġs ho
Ġvo taciÃ³n
ĠCon go
Ġdel gada
Ġsh ift
gar t
Ġdecir se
qui as
Ġcontempl aba
ĠT oma
ĠMo ham
Ġsovi Ã©ticos
ac Ã¡n
M iss
S ec
ĠLy on
ĠJ in
Ġutiliz aba
ĠMor fologÃŃa
Ġofre cido
ta tivas
Cam peÃ³n
ĠInfan terÃŃa
Ġhi drÃ³
dr Ã¡n
ic ar
ĠF lam
R ep
S I
quier en
Ġf ino
ĠVelas co
ĠNo che
Ġmus los
Ġm Ã³
Ġcuad rado
ĠDon ald
Ġcin tas
ĠEst onia
ĠA gua
enn er
âĢķ Â¿
Ġinspir ado
Ġinterpre tando
Ã¡n donos
n or
Ġen ve
pon er
Ġanim ada
Ġgua po
an al
l lan
Ġdespi diÃ³
ĠenseÃ± ado
Ġm ens
Ġreflex iÃ³n
Ġba jaba
Ġnom inaciones
Ġgran o
Ġsustitu ido
C olo
ir ro
ĠCh er
Ġmis ion
ĠBar ran
Ġaflu ente
Ġestable cieron
Ġllam arse
Ġlev emente
car riles
mu laciÃ³n
Ġmecan ismos
Ġpel os
Ġexac ta
ĠFran cesa
Ġllan to
lan ca
ĠSupre ma
ĠCh ia
Ġcaptu rar
Ġgru esa
se x
Ġe man
Ġator ment
Ġcorte za
n ell
O tra
Ġch u
Ġata cÃ³
Ġhun diÃ³
ĠCort Ã©s
Ġbr ind
Ġaficion ados
tu ve
Ġcor tado
ĠP olo
Ġrup tura
so via
e Ã³
z en
era triz
Ġpal m
ĠL itu
Ġmane jo
ĠCir cu
gu in
tel las
ĠN O
ĠG l
ĠAnte cedentes
ĠB eck
Ġrode aban
Ġfin alidad
p ue
ĠN Ãºmero
Ġenam orada
Ġdem ol
Ġmonum entos
Ġc ierra
Ġver so
Ġadop tar
Lo ve
it en
ĠagrÃŃ colas
Ġson rÃŃe
ĠA aron
Ġcar tera
Ã© p
Ġllev ara
ĠCla ire
Ġdesesper ada
mun do
ĠP ia
ĠX avier
di gos
ĠG las
ĠJ en
Ġpar Ã³
ĠC ala
ĠN osotros
ome trÃŃa
wa ter
ĠSebasti an
Ġdel itos
ĠPar anÃ¡
Ġcaracter ÃŃstico
Ġret ablo
Ñ ı
Ġliber ado
Ġlien zo
ud ar
ĠPal mas
Ġmar cador
Ġfu tu
Ġrad iaciÃ³n
Ġbio grafÃŃa
Ġ14 0
Ġbor des
Ġpes ta
Ã¡r s
Ġsac a
ĠB ona
Ġselec cionado
v ara
ĠInforma tion
uy a
ĠHe art
Ġdiv ina
Ġest Ã©s
ĠJ enny
pr in
H en
ab ilidades
do b
Å ¾
ĠS os
Ġescen arios
ĠCas as
Ġpod amos
ĠProfes or
ĠS pencer
Ġfas es
Ġinici ado
s ÃŃ
ĠM ED
ĠRum ania
ĠJ as
ĠP il
Ġtemb lar
en ix
ĠE u
Ġaf irmar
Ã¡r sela
ĠP iz
Ù Ħ
Ġaterri zaje
o va
Ġcondu cido
ĠespectÃ¡ culos
na val
ĠRom an
ĠPerson al
B ro
ĠCh Ã¡
Ġval enci
ig ra
Ġconstru idos
Ġcul tivos
pres ente
Ġextra Ã±as
Ġsig las
Ġcampe onatos
ĠRe gres
ĠB ud
Ġan uales
Ġviol ento
ol ar
Ġemp at
Ġmostr ador
ĠrÃŃ t
ĠFer rar
adu cciÃ³n
ĠSad dle
ĠV ÃŃa
D Ã©j
ent aba
196 7
ĠOr lando
rio tas
Ġcorrespon dencia
Ġref res
oc ol
Ġelector ales
ĠAs es
Ġneces itas
cuent ro
Ġon das
Ġconsigu iendo
ĠStor y
in osa
Ġenter ado
Ġdoctor ado
ĠIch thy
ust er
Ġlad y
ĠAbra ham
Ġestal lar
Ġad h
he ad
Ġpu entes
ĠO di
Ġfavor able
p ton
b s
ĠT ul
ax aca
ie la
ri as
Ġintim idad
ver pool
Ġadul to
Ġaso ciaciones
ĠFac ebook
Ġase dio
Ġnomb rar
Ġescrib ÃŃa
ĠFre der
d Ã©s
bili ario
Ġ9 00
Ġma ci
ĠMon o
Ġpresenta ciones
Ġacerc Ã¡ndose
ci era
Ġexperim ento
Ġasust ada
ĠsÃ³l ido
Ġalum no
Ġbien venida
Ġnombra miento
ĠDebu tÃ³
ĠPos ee
ing ue
Ġcl im
Ġ188 8
gaz ine
ĠI ris
ĠC H
gu erra
ĠL em
Ġapar atos
to v
Ġsenci llamente
iz ando
Ġclar as
Ġsuel ta
ĠEst amos
No tas
c Ã¡ndose
ĠSÃŃ dney
ĠC ron
b ÃŃa
Ġsu til
Ġres al
man d
Ġdescen der
ÃŃ sta
Ġhab las
Ġse cos
Ġna cida
Ġprovo cando
Ġt ÃŃm
ti ta
Ġimp lement
ĠHam burgo
ĠP ad
ĠD iÃ³
Ġtra tados
Ġas trÃ³n
ĠCom is
Ġbas adas
Ġarchi piÃ©lago
ĠIn stru
Ġcre ce
Ġsu ceso
Ġgo tas
v ro
ĠAdri Ã¡n
ĠVat icano
ĠSan dra
" âĢĶ
Ġmer ecÃŃa
gr ados
Ġ36 0
ent ÃŃa
Ġpira tas
ĠMin nesota
t ab
Ġposi tiva
Ġevitar lo
hel m
Ġdesa fi
Ġdescen dencia
ĠNico le
Ġsuce dÃŃa
ĠAgu irre
cu rio
ĠZ ac
Ġdest inada
Ġv ener
Ġencar gada
Ġmis eria
P R
ĠCÃ¡ ceres
ĠCerv antes
Ġre velaciÃ³n
us co
Ġman tienen
Ġba u
Ġespeci alizado
ĠG im
ĠAt las
Ġconoce mos
ĠJohan n
Ġf utbol
Ġpen et
Ġsobr ina
Ġdel in
ĠV igo
ĠCla y
r Ã©s
ĠHo p
Ġrode a
Ġfron tal
u ci
ĠR ab
ĠC E
an im
ci entas
ĠC um
ĠMargar et
Ġest abilidad
Ġres umen
ĠBa k
ul ada
Ġlidera zgo
Ġgen Ã©rico
Ġmanif iesto
ĠZ h
Ġenf oc
Ġus ados
Ġsin te
Ġembara zo
Ġparroqui al
Ġen vÃŃa
Ġpl omo
ĠmuÃ± ecas
Ġextin gu
Ġpres os
ug ÃŃa
ĠRes ta
Ġ189 2
Ġsens ibilidad
ti dumbre
tr icos
en ne
Ġimag ino
Ġbre ves
ĠDra ma
ĠF ores
ĠIgu al
ĠPr omo
C in
Ġlog ros
ĠMar ian
Ġescuad ra
Ġimpa ciencia
Ġ %)
ĠCon cer
ĠExtre madura
ĠDi jo
av y
z Ã¡n
Ġt ens
hem ia
Ġc ac
V i
ĠBar ry
Ġdiecis iete
Ġincen di
Ġrazon able
ent u
ĠP onte
ĠSh el
Ġsumer g
cep tible
aliz ando
Ġprodu jeron
Ġtermin aron
Ġacep taciÃ³n
Ġcaz ador
Ġdeber ÃŃas
Ġar ag
Ġnaz is
ĠUni on
Ġgener ar
ĠAr ts
Ġw hisky
Ġma pas
Ġemple ar
Ġsatisfac er
z ig
Ġcome ter
Ġev olucion
p ha
ĠF und
ĠVÃ© lez
Ġllam aron
ĠCalder Ã³n
Ġautor a
Ġventa jas
Ġab aste
Ġlimp iar
Ġinaugu raciÃ³n
Ġg ama
Ãºs culo
ĠQue en
I R
Ġ189 3
ĠLin da
Ġreg imiento
Ġinter n
Ġ16 0
ĠArmen ia
Ġfru ta
Ġpul so
cin to
A Ãºn
ĠDemocrÃ¡ tico
ĠY e
Ġencan ta
Ġfinanci ero
Ġb ril
Ġalterna tivo
Ġaplic ar
ran ge
Ġhue vo
Ġvolver Ã¡
ĠPer Ã³n
ti emp
Ġan ces
Ġso cios
Car rera
Ġenga Ã±
ar l
Ġform ados
Ġren unciÃ³
Ġdis gusto
Ġperci bir
Ġpr ÃŃncipes
Ġrever encia
Ġamb ul
Ġrestr ing
Ġref iero
v on
el i
Ġz um
ĠL et
ĠSud americana
Ġoblig ada
ĠDal las
Ġne um
Ġpeda zo
ĠVar sovia
ĠCh u
ĠJa Ã©n
J ac
ĠM oyle
ĠJal isco
T M
an ge
ĠDis eÃ±o
Ķ Ģ
Ġper judi
V as
Ġproductor a
Ġv om
ĠdÃ© j
p est
ĠF iesta
Ġrecuper ado
ĠN um
Ġprome to
Ġt all
ĠCe ch
ĠF ila
Ġmelo dÃŃa
ĠAm ist
Ġce ja
ti bles
ĠMa ur
Ġdi agn
ĠLo la
Ã¡ndo las
Ġdist ante
Ġacu diÃ³
ĠmÃŃ st
ci e
ĠNa cido
Ġrecib en
Ġas amblea
ĠSt and
Ġg ro
ĠJes s
Ġton os
Ġafec tado
F o
ĠCap illa
Ġaga chÃ³
Ġdefens or
ÃŃ l
ĠR S
Ġcolabor Ã³
Ã¡ ramos
Ġcre aron
don de
ĠMontre al
Ġv Ã¡
ĠR ot
ĠBo e
Ġfinanci era
Ġl lo
Ġsolici tÃ³
ĠA er
ĠSha kespeare
ĠIchthy ology
Ġau da
H izo
mp h
Ġestatu as
Ġtrop icales
Ġy endo
v ora
ir d
ĠmÃ³vil es
Ġestable cida
Ġlad rÃ³n
y on
u ka
Ġg atos
Ġb Ã¡r
Ġren omb
ĠDe ad
Ġbo tellas
ĠL ight
ĠcientÃŃf icas
Ġba ta
Ġtra ÃŃa
Ġsepar adas
erba iy
aya quil
Ġmon jes
Ġir Ã¡
Ġpod remos
Ġab iertamente
Ġfun dados
Ġh ard
Ġca Ã±a
Ġsos tuvo
Ale mania
Ġesp len
Ġrestau rantes
Ġesque ma
Ġal iado
ĠGu ay
Ġtrans for
ĠWar ner
ar di
Ġexten dido
Ġbas ados
Ġpa ja
ĠVal paraÃŃso
ĠDe jÃ³
Ġcam ion
Ġrevolucion ario
Ġdesper tado
ĠT oy
Ġcam inÃ³
ĠSong s
Ġcicl ista
Ġtu vieran
Ġval les
Ġso pl
Ġsue los
Ġoblig aciones
Ġal tamente
Ġabund ancia
Ġal i
ĠA ven
Ġfru tas
ĠVil lan
al lo
ĠK i
Ġsil ueta
di eran
ĠFa ir
Ġpiel es
Ġest Ã©tica
Ã¨ ne
Ġestar ÃŃan
âĢ ĺ
ĠSar miento
Ġra m
ĠFrank lin
zu ki
cip iente
Ġpol icial
ĠPe tro
Ġpermi tiendo
ĠPh ill
jec t
) ':
Ġcircunst ancia
Ġasesin atos
Ð ¹
Ġesca pa
Ġsober anÃŃa
M el
ĠMa z
Ġpen dientes
Ġf os
ĠDan ce
Univers idad
ĠEug enio
eb e
ĠJer Ã³nimo
Ġimpi diÃ³
ĠGab rie
cil io
Ġviol enta
Qu iere
s ia
Ġde cenas
Ġasign ado
Ġcer tific
Ġde tenciÃ³n
ĠGin ebra
Ġlu jos
il ip
Ġbel ga
Ġimag inaba
V o
Ġsospe chas
ĠBrig ada
Ġpe gado
Ġhici ste
Ġe chaba
ĠCon tr
ens tein
ĠLu ke
vi ra
ocol mo
j un
ĠperÃŃo dos
chi la
Ġcruz ado
ma cul
Ġand aba
Ġar ca
Ġdivers ity
Ġmagn ÃŃfico
Ġ188 7
Ġencan to
y m
ĠD Ã©
Ġyo u
ĠYugos lavia
Ġcon tag
Ġtu viese
Ġdesn udos
ĠLar ry
Ġrebel de
Ġmir Ã¡ndola
Ġcar ros
Ġherram ienta
ĠO mar
ep pe
tun e
ĠO axaca
l us
Ġpodr Ã¡n
Ġ9 78
Ġimpa ciente
Ġincor pora
ĠL ad
em y
E p
A Ã±o
j Ã¡
Ġlle ve
M ed
Ġcre ma
Ġtecn ologÃŃas
Ġj ab
Ġgust Ã³
196 6
via ciÃ³n
Ġdi vino
u ve
re b
ĠArm ando
Ġarran cÃ³
tar ias
Ġdis oluciÃ³n
Ġviv as
ar ial
ĠAri as
Ġex clam
me yer
Ġsex ta
Ġh am
ust ro
Ġnorte americano
Ġpropa ganda
ĠpÃ¡r pados
ĠDE F
ll ado
cu les
Ġrev Ã©s
Ġen loque
Ġsig o
ĠGar y
Ġestro pe
Ġest rib
Ġcontar le
Ġfeder ales
Ã¡ndo te
ĠEmp ezÃ³
Ġretroce diÃ³
Ġpreocupar se
ĠhÃºme da
Ġacuer dos
Ġproven ientes
Ġdomin ar
l inas
ĠD ado
ĠT ag
ib ol
Ġos ci
ent en
Ġper for
ĠSoc cer
ĠBÃ¡r bara
CI ÃĵN
Ġvein ticuatro
Ġloc aliz
Ġre ctor
Ġtrabaj an
Ġconsider arse
Ġcompos iciones
Ġvuel vo
Ġca udal
ven o
ĠBook s
Ġale manas
ĠZe us
Lo u
ĠOb ispo
Ġencer rado
Ġdurm iendo
ĠJÃº piter
Ġrepresent ando
Est ados
ĠacadÃ©m ica
Ġce Ã±
ÃŃr ica
ĠTa k
Ġj inetes
Ġrode Ã³
Ġhol an
Ġcon cesiÃ³n
Ã¡ ticamente
Ġvir gen
Ġque do
ĠJug Ã³
c ala
iel os
pro du
ĠC res
ĠBu car
Ġ( -
Ġprefer ido
Ġte mÃ¡tica
ĠGra ham
Ġcri ados
j in
Ġmi de
Ġcom entar
Ġfil ial
Ġe terna
Ġadolesc entes
Ġaprove chÃ³
ĠPubl ish
Ġin est
ĠK un
ĠE t
Ġdefens ores
ĠE mple
Ġdi a
Ġmar quesa
Ġalcanz ando
u ver
ĠMar quÃ©s
ĠEsper anza
Ġasist entes
Ġregu lares
ĠestÃº pida
Ã ®
ĠB iel
Ġco co
Ġme tales
Ġprom ul
Ġex cus
ĠO cu
Ġpen it
Ġexter na
Vol viÃ³
Ġdedi carse
itan es
Ġconv icciÃ³n
MÃ© xico
J ames
ĠRobin son
Ġimb Ã©
ĠPer u
Ġhacer te
ĠSer rano
Ġvar iaciones
Ġqued ara
ĠMan chester
ĠG es
Ġe rÃ³
ĠDe troit
lic h
Ġso cor
Ġpru dente
O B
Ġdes igual
fr adÃŃa
Ġases inos
ĠHuman idad
ĠPas Ã³
Ġemo cional
ue vo
Ġres uelto
ĠFon do
Ġrecom pensa
Ġalm uerzo
Ġpe d
ĠMetro politana
ĠmetÃ¡l ico
ĠAlb acete
Ġ oso
ĠArgel ia
Ġg i
Ġde vas
Ġpue das
ĠCh allen
Ġob rero
ip Ãº
ir os
Ġtra tara
ĠG on
Ġexit osa
Ġa Ã±
Ġcompu tadora
c amos
ĠEx tra
Ġc Ã©sped
Ġfron ter
ier i
âĢĻ ,
Ġater ror
Ġesca pe
hat tan
T R
Ġpens arlo
ĠCora zÃ³n
Ġtur co
Ã¡st icas
Ġvari ables
Ġdoc ente
il y
Ġcat Ã¡logo
ĠS ay
u ga
ĠRena cimiento
ĠP ep
Ġen rique
ĠJos ef
196 5
ĠMÃ© rito
D S
r adura
ĠAman da
Ġactu ando
ĠO ver
Ġale jar
Ġav iaciÃ³n
ĠDipu taciÃ³n
Ð¾Ð ²
am en
ĠMar iana
Ġgo ta
Ġasoci ados
ĠRo que
Ã ļ
Ġ188 5
Ġconvo cado
Ġanci anos
Ġv it
Ġdirector es
Ġrecha zar
Ġdisim ular
Ġide ologÃŃa
ĠIndust rial
ĠH ierro
Ġencen der
ĠT aller
U M
Ġriv ales
ĠV es
Ġarque olÃ³gicos
ar k
Ġcre ados
Ġejecu tar
ĠW WE
ĠIg lesias
ĠN eb
ĠR C
Ġob ispos
Ġdespre ci
ĠK os
re ctor
Ġb igo
Ġcomple jos
ĠAust in
Ġbur bu
ĠD ante
Ġhacer la
Ġconst antes
Ġant or
Ġsub e
Ġpa ga
Ġap el
ĠenseÃ± ar
Ġara Ã±a
Ġman dado
B r
g adores
are la
ĠA gencia
ĠRem ix
ĠJ PG
Ġte jado
et ales
Ġdej arse
Ġabrir se
G C
J ust
Ġgaran tizar
ĠW ag
Ġmat or
ĠW ind
ĠPens Ã©
ĠRel ig
Ġjust ific
ĠJ ur
Ġref uer
ĠEuro visiÃ³n
Ġmonstru os
Ġp acto
ĠV on
Ġro taciÃ³n
Ġrec re
Ġmar inos
196 4
Ġv ice
Ġlab ores
Î »
Ġres ign
ĠS oria
ĠmÃ¡g ico
ur bios
Ġir onÃŃa
ĠCol lette
b itro
Ġ188 6
ĠA pro
ĠfÃ¡br icas
ĠMal den
b is
ÃŃf ero
ĠV izca
Ġmoder nas
Ġvenci do
Ġinoc encia
Ġlo bos
Ġley endas
par se
mp ica
ĠPres idencia
Ġfilos Ã³f
ĠC lin
ĠcÃ³mo do
Ġaprove chando
Ġencant ado
Ġh ur
Ġh uy
Ã¡ mb
ces or
Ġau tos
d ano
Ġestudi ado
Ġrepe ti
Ġabog ados
vers ia
Ġregres ado
eo grafÃŃa
v ing
ĠF r
ĠAl ar
Ġvari antes
Ï ĥ
Ġesp adas
ĠcontemporÃ¡n eo
Ġvenezol ano
ĠAquel lo
Ġextran jera
g ne
Ġcontra jo
Ġir landÃ©s
Ġla tina
Ġ189 4
Ġdul z
Ġexp loraciÃ³n
ci li
Ġadver tencia
Ġre cos
Ġpara ÃŃso
ĠbÃ¡s icos
Ġamar ill
l al
ĠWil d
ĠRecon oci
Ġlanz ando
Ġlogr aba
Ġn omin
Ġhos til
ĠSub campeÃ³n
Ġcompar tido
Ġreac cionar
Ġvolv ÃŃan
Ġprefer ÃŃa
Ġa dem
ĠÃºn icas
Ġcos taba
Ġne w
Ġacord Ã³
Ġescla vo
ĠRecep ciÃ³n
ĠGra ce
de ar
ĠS iete
Ġman ual
Ġenc am
ĠS z
ĠVer siÃ³n
at ch
au x
m all
Ġemp ecÃ©
ĠAmb as
ĠCom andante
ĠBu ck
Ġplata formas
ĠCla ude
ĠlÃ¡ p
Ġf lora
ĠOri gen
ĠT omo
c oso
Ġan ch
ĠNew ton
ĠH ud
ĠRe forma
Ġal ien
ĠK ur
Ġferrovi aria
ĠG ior
con s
Ġcruz ados
Ġre mi
ĠNa cionales
ĠÃī sta
ĠestÃ¡ is
ll am
ĠCuar tos
m ÃŃn
ĠH ues
A demÃ¡s
t anos
di um
Ġsemb lante
Ġrepent inamente
Ġllen ar
Ġemi tir
Ġcen izas
ĠdepÃ³ sitos
ĠCo lecciÃ³n
Ġcumpl imiento
ĠSp ace
ĠM TV
Ġtom an
v enci
ĠI da
Ġre organiz
ĠW ho
Ġ188 4
Ġsab io
Ġhab il
Ġpro hib
Ġreh abil
ĠRad ical
Ġla ber
igg ins
Ġadem Ã¡n
Ġcor rÃŃan
ĠSec ciÃ³n
ĠMonum ento
Ġdevo ciÃ³n
or ien
lar d
Ġde no
Ġcir cul
Ġar rib
is se
Ġquin ientos
Ġinsoport able
ĠF os
Ġlegis laciÃ³n
ĠAudi encia
Ġ Ãºtiles
ĠBla ke
Ġson riente
Ġf esti
Ġpla yas
Ġatra viesa
Ġesco g
ĠD ag
crip ciones
si der
Ġaut Ã³n
ĠFre e
Ġventan illa
Ġguarn iciÃ³n
Ġocup ando
Ġpre mi
Ġreco ge
Ġesca Ã±os
Ġfantas mas
as tas
ĠRes erva
ri ano
di es
ÃŃo do
ab ul
Ġpreocu paciones
Ġlec ciÃ³n
ras e
ĠOl ivia
ĠSin ga
ĠQ ues
Ġor nam
Ġpuntu aciÃ³n
Am eric
Ġconserv ado
Ġvolun tarios
ĠS we
Ġsimp atÃŃa
ĠC ÃŃv
ĠR Ã¡
itor al
ĠSum mer
Ġconven cional
Ġ ÃŃb
cion amiento
Ġrev uelta
Ġ** '
at ra
Ġer rÃ³n
Ġhuel ga
ĠpuÃ± eta
Ġbar ran
Ġso pa
Ġsolu ciones
tÃ³ rica
ĠG rim
om ar
dr Ã¡s
Ġenfad ado
Ġmoles to
Ġtesti mon
Ġg ala
Ġdiver tida
ĠG ig
ĠfÃŃs icos
Ġmucha chas
Ġreac cion
ĠS pa
ĠTe xto
Ġatra pado
B ra
ĠC is
ĠfÃ³s iles
Ġqu itado
Ġ18 48
Ġfu imos
ĠAb el
Ġf este
Ġregist rado
Ġter restres
ĠGal le
ĠRena ult
ie blas
Ġtien de
ĠDo Ã±a
que Ã±o
Ġalo j
Ġasom Ã³
ĠM Ã³nica
Ġorigin aria
ĠbÃ¡s ica
C os
Ġdoncel la
Ġmon je
Ġimp rim
Ġsuper ado
Ġfil me
Ġe terno
Ġinsist iÃ³
Ġaz u
ĠF acey
pi dos
Ġrega zo
ĠvÃŃn culo
Ġch am
Ġhom Ã³nimo
vi dades
Ġur gencia
Ġe ternidad
ti pos
Ġven eno
Ãºr pura
Ġ* "
rib e
Ġcho que
Ġconmem ora
ĠM ot
Ġmate mÃ¡tico
Ġpareci da
ĠG w
Ġpsic ologÃŃa
ĠO R
pi rando
A u
Ġprome tiÃ³
Ġinform ado
Ġgrab ados
ĠcontemporÃ¡n eos
ĠHel fman
Ã¡lo gos
ĠSino psis
Ġhorizon tal
Ġf eria
Ġagreg Ã³
Ġes quiv
ĠGlo bal
ĠMa Ã±ana
ĠNe vada
po t
ha i
Ġcorrespon dÃŃa
Ġmeridi onal
ĠLaw rence
Ġcaz adores
Ġten dencias
ĠÃ© ramos
Ġclav Ã³
an go
K e
ĠCab e
ĠH ea
Ġab al
Ġma go
Ġarmon ÃŃa
Ġpersonal idades
p to
ĠPo tos
Ġtendr Ã¡n
Ġbot ones
Ġgrab ada
ĠEst ocolmo
Yo u
Ġde tiene
ĠC A
Ġde la
inter vino
ĠaÃ±a de
Ġopera tivo
ĠW ork
Ġpu Ã±ado
ĠBo x
Ġdes col
Ġinter nos
Ġmister iosa
ĠC asta
Ġtrans ferencia
h oy
ta Ã±o
mple mente
Ġsitu ados
Ġhu ida
Ġponer me
estiv ales
ĠNa zar
and ar
ĠMa gal
Ġmanif est
Ġsolici tud
s Ã³
ĠSe t
L P
Ġp abellÃ³n
Ġce dido
Ġpres tado
Ġinsign ific
im b
iw Ã¡n
ir man
ĠCor re
ri rÃŃa
ĠT ito
Ã¤ n
Ġsab rÃŃa
Ġempie zan
ĠSer ena
v ist
Ġent ab
Ġexpres Ã³
Ġdepen diente
ĠHerman dad
Ġenvi ados
ĠEuro copa
ig Ã¼
ĠP ul
ĠCh el
itu des
Ġan i
Ġotor ga
ĠJer ry
de d
Ġqu ise
Ġcre ciendo
Ġesplen dor
Ġhaber la
Ġases inar
Ġaprob ado
ĠCh ann
Ġson ro
Ġmayor domo
ĠChÃ¡ vez
Ġbicicle ta
Ġt ac
Ġinter venir
Ġc ep
f utbolista
Ġmodi ficaciones
Ġfran ja
Ġpodr ÃŃas
Ġsignifica tivo
ĠMor ris
gor it
Ġadop tado
ĠCan aria
p is
Ã± al
Ġcr Ã³nica
B lack
ĠC lima
Ġ18 00
Ã©r icos
Ġmin erales
Ġrecord ando
Ġap lica
vis te
Ġbrill aba
Ġsugi riÃ³
ĠO sa
Ġab ismo
Ġpreocu paba
ĠG ust
J ul
ĠfrÃ¡g il
ĠhelicÃ³p tero
Ġsuje tos
b ilidad
Ġdel i
ho ven
ĠLi verpool
ĠGu ayaquil
ĠCo oper
ĠBa ker
Bar celona
ĠA BC
ĠSala zar
Ġpor ciÃ³n
m ens
ti ro
ĠI m
tif icia
Ġhom Ã³nima
Ġinv itada
Ġabra zar
Ġmoto ci
Ġcampe ones
Ġpl Ã¡
Es pero
Ġconj untos
ĠCo urt
Ġisrael ÃŃ
Ġvelo cidades
int ana
Ġu til
Ġelec tro
Ġan da
Ġre apar
ill on
se le
Ġcatal o
ĠK urt
ĠEn con
Ġimp lac
Ġespec tro
ĠA dela
Ġatra par
E A
u o
Ġce diÃ³
ĠMur ray
Ġcor al
Ġpor tÃ¡
ĠSimp son
Ã©spe des
ĠG oya
Ġmulti plic
dez co
ĠhÃ¡ bito
Ġenco g
Ġan alizar
Ġemi tido
d ÃŃas
Ġcri ada
Ġdig itales
ĠA P
ud Ã³nimo
S ch
Ġrom pe
Ġ186 8
196 2
ĠEstad ÃŃstica
Ġmer ced
Ġdesapar ece
ĠgÃ³ tico
Ġpre lim
ke e
rar me
ĠNep tune
Ġex hibiciÃ³n
Ġdirig ieron
Ġsolem ne
Ġc rÃŃa
Ġampl iaciÃ³n
cur ru
Ġloc alizaciÃ³n
Ġconvo ca
ĠDipu tado
ĠSh ang
196 0
Ġpla cas
ĠRob er
ĠsÃŃn tesis
Ġaband ona
c tivo
ĠTen iente
ĠArt ÃŃculo
Ġpa gado
Ġb Ã©isbol
Ġileg al
Ġbarro co
p ico
Ġten taciÃ³n
Ġsuel do
ĠhÃ¡b il
Ġmar e
Ġdefin ido
Ġvir rey
ĠEv oluciÃ³n
ĠGuar di
ĠMarsh all
Ġaver gonz
Ġsilenci oso
Ġregal os
Ġexcep cional
ĠFrances co
ca te
ĠL GB
Ġsal ario
Ã¤ r
ĠJos h
ĠLux em
ĠF A
im ir
Ġrev ol
Ġcolo ca
ĠP aco
Ġsuf rag
In ter
Ġpar ezca
Ġanunci ado
ĠSoci ales
Ġpas ta
Ġinteres antes
Ġlu chas
Ġtest amento
go la
Ġrefug iados
Ġop rim
ard ÃŃa
ĠApar te
enn es
ĠbÃ¡s ico
ab u
ar ist
Ġgobern ante
âĢĵ Â¡
ĠPap el
Ġmam ÃŃferos
Ġespos as
Ġ18 50
Ġescon der
ĠG alax
Ġestar Ã©
ĠMat ÃŃas
Ġcapa cidades
Ġfle chas
P edro
ĠPe pe
ens ores
Ġfun eral
ig Ã³n
Ġsu cio
Ġproce dimientos
Ġen z
vi es
ius eppe
B M
ĠL P
Ġdest inos
Ġva queros
Ġten ÃŃas
vi tud
ĠS A
ĠDeb ÃŃa
Ġinn umer
ĠGas par
ĠGu a
Ġvelo z
Ġloc omo
196 3
ĠD ul
Ġcri terios
Ġbas tar
fre d
Ġtri Ã¡n
Ġad onde
Ġconce jo
Ġorien tales
Ġempren der
ĠElector al
p ina
Ġsu bido
ĠA vi
Ġgu antes
Ġcab ÃŃa
Ġin como
on imia
Ġcre ÃŃan
ĠSpr ing
ĠM itch
ĠSin tiÃ³
n ada
le ibol
Ġintegr Ã³
ĠTor neos
Ġconten ta
Ġperf ume
Ġcol lar
ĠromÃ¡n tico
Ġca zar
si ma
Ġt inta
Ġmis iles
Ġib Ã©rica
er mo
Ġcomp uso
ĠL obo
ĠMe g
Ġabandon ada
Ġespeci alizada
r ino
Ġaut omo
Ġfun er
Ġde tuvieron
Ġre o
Ġf araÃ³n
ĠTecn ologÃŃa
Ġha gan
Ġfus ion
Ġenter arse
ĠAp ple
Ġesp es
Ġhu Ã©r
olu ciones
Ġdel im
Ġconj un
u ce
Ġprofun dos
Ġaer ol
ĠO cho
Ġgor do
Ġr Ã¡f
Ġro daje
M ag
G ar
Ã© tera
ĠR ho
ĠPales tina
e us
Ġp ales
Ġconf esiÃ³n
San tiago
Ġpan el
Ġexp uesto
cu laciÃ³n
ĠK rist
Ġsu mo
Ġad judi
Ġcompon ente
ĠA V
Ġin cer
ano va
ĠSe is
ĠPie dra
Ġy acÃŃa
Ġtra tan
ti ficaciones
ven iles
Ġtr ompe
Ġ187 9
Ġindi caba
Ġtej idos
Ġfu riosa
Ġtemb laba
ĠPascu al
Ġ Ã©n
Ġpar lamento
idar idad
Ġre di
Est amos
k t
Ġdispon er
ĠromÃ¡n tica
Ã³g ico
Ġpaisa jes
ĠVill al
Ġnecesit amos
lec tion
Ġhuel la
Ġp irÃ¡mi
ĠConstantino pla
ĠhidrÃ³ geno
ĠT ienen
Ġad quisiciÃ³n
Ġhor no
Ġmo chila
Ġcol gaba
Ġalmoh ada
ĠVe lo
ce dido
Ġbe bidas
Ġen ti
ral tar
cul ino
Ã³g ica
Ġatra jo
ĠIz quierda
erbaiy Ã¡n
ĠO peraciÃ³n
h ÃŃ
Ġ188 1
Ġcal mar
Ġcon greso
ĠJ uega
Ġconvenci da
Ġle e
M un
f ue
Ġimp uso
Ġpodr Ã¡s
Ġportugu esa
Ġa pu
ĠSus ana
Ġunivers itaria
ĠStu dios
Ġcomerci ante
ĠSa j
Man uel
N B
Ġdol ÃŃa
as i
qu istas
ĠNa taciÃ³n
ĠolÃŃ mpico
Ġpreci sa
Ġmar x
Ġpoten cias
ĠV ila
Ġelev Ã³
ĠCarre tera
Ġver Ã¡
ĠpÃºb licamente
ĠLugar es
Ġabund antes
Ġdele gaciÃ³n
ĠRom Ã¡n
que dad
ĠT imo
Ġces ar
Ġmin isterio
rag ona
Ġval ÃŃa
Ġconquist ar
ĠBio divers
Ġapar eci
Ġpes ados
ĠÅ ł
Ġso viÃ©tica
ĠDem Ã³crata
ĠSal ta
ĠDra ke
di c
Ġesc aso
Ġpr osa
Ġcur vas
amb ri
Ġsustitu ciÃ³n
Ġconvers iÃ³n
fer ence
Ġplane ado
Ġases inados
ĠVillan ueva
Ġingres ar
Ġmanif iesta
ĠD od
Ġcorre dores
Ġadministra tivo
val os
ĠMa jestad
ĠH ell
Ġca ÃŃan
gan cia
ĠrÃ¡pi dos
Ġata cado
ĠE ri
ĠSud americano
Ġex acto
Ġglo b
M ay
Ġah og
Ġverda deros
Ġl Ã¡s
ins tein
Ġredu cida
Ġsub iendo
ĠC ry
ĠUR SS
ĠB in
Ġtrans forma
ĠC omb
ĠSan d
ĠMan s
Ġacus aciÃ³n
Ġapropi ado
Ġlo gro
Ġsigu iera
Ġgol fo
Ġemp a
ĠF res
em ento
Ġcompe tencias
ĠaquÃ© l
la yo
ĠFer ia
T ri
ĠSuper copa
ĠM Hz
Ġaust ri
ĠmÃ© rito
ĠMan hattan
del fia
ĠR eno
ĠG ene
et ano
ĠTur ÃŃn
te os
Ġprepar Ã³
Ġfol cl
Ġin quis
D oc
ed ora
tio us
Ġgan aron
ĠcÃ³n sul
Ġdist ancias
Ġutiliz adas
ĠMad ison
Ġinf lam
p ac
tr Ã¡n
ff a
, "
ĠPr usia
Mus eo
P ap
Ġdue Ã±os
tr icas
Ġmejor as
Ġdeber Ã¡
Ġsustitu ir
Ġpen umbra
ĠkilÃ³ metro
fas is
Ġinv itar
di ese
ĠMer cado
Ġ187 6
Ġmeter se
ĠHora cio
ĠcÃ¡l ida
Ġconf irmar
ĠTw itter
Dan iel
ĠB adajoz
Ġdel ica
P rin
ens en
gn i
F lor
Ġcon des
Ġvir tual
Ġtermin aba
Ġtum bas
ĠF en
Ġ10 2
I F
Ġauto buses
Ġpresiden ciales
h asta
Ã ½
Ġmater ias
Ġdelic ada
Ġlum inos
ĠP ien
ĠintÃ©rpre te
Ġh ala
Ġh ÃŃ
Ġv ayas
Ġgem ido
fer as
Ġespecta cular
Ġlen titud
Ġgana derÃŃa
ĠcÃ© lula
Ġrepublic ano
Ġpas arÃ¡
rie to
Ġbol ivi
ĠG ijÃ³n
Ġpres ion
Ġagu da
ĠO ctubre
Ġcora zones
Ġambien tal
ĠLen gua
Ġcri terio
Ġan illos
ĠCons cien
ĠDes ign
Ġcal cular
serv Ã³
Ġbus can
Ġconfigu raciÃ³n
ĠS ib
Ġbols as
Ġevidente mente
Ġn eb
ĠH im
Ġfinanci eros
Ġ ond
ĠNingun o
Ġmer cen
S C
ĠDemo cracia
Ġcomple ja
Ġdivor cio
de clar
ios amente
omp son
ĠM ona
Ġsorpren de
Ġalf abe
Ġcom ido
Ġdiv ul
ĠGo do
ĠnÃºcle os
Ġdes b
ĠC all
Ġin ces
Ġ188 2
Ġsust ancias
Ġuruguay o
Ġdirig idas
Ġdrama tur
Ä «
Ġpo pa
car io
ĠW ang
Ġ188 3
Ġreal ista
ĠB ena
ĠFerrar i
tron omÃŃa
Ġpar Ã¡
Ġelec to
ĠG ala
ĠCh eck
I P
ĠCle mente
Ġgar ras
Ġascen dido
ĠPak istÃ¡n
ĠF enner
Ġtabl ero
Ġin minente
Ġex clamÃ³
ĠJ ama
ona je
Ġgen Ã©tica
ve d
ĠMÃ¡r quez
ĠA riel
ĠJu vent
Ġdesign ados
ĠLeopol do
I tal
Ġsimb Ã³
Ġc it
Ġpar ad
Ġrecha zado
Ġetc Ã©tera
Ġdesgra ci
Ġdra mÃ¡tica
Ġexig e
ĠC ris
Ġefec tiva
Ġdi la
Ġreper torio
tin i
Ġestudi ando
Ġliber ar
Ġencen dido
ĠPotos ÃŃ
z zo
ĠE mer
Ġpros iguiÃ³
ĠEs os
Ig lesia
inter rump
Ġdue le
Ġf erv
iÃ©ndo le
ol s
C ab
Ġlo go
Ġbille te
U D
ĠCon venciÃ³n
Ġcu bo
Ġdar te
ic ero
Ġla dera
ÃŃ qu
Ġcam as
Ġla zos
Ġdeten idos
Ġexperim ental
ĠEvan s
ĠCorpora tion
ĠA ug
ĠD J
ĠAz erbaiyÃ¡n
Ġterror istas
ĠMa ta
Ġform almente
ĠacompaÃ± aba
Ġper sa
tis te
Ġ187 1
ic ular
Ġdes pro
ĠWar ren
Ġefica cia
ĠCas s
ho p
ific ados
Ġo pos
ĠF ÃŃsica
ĠJa zz
ĠMon tal
Ġcomunic ado
Ġver ÃŃa
ĠD ion
Ġlu chÃ³
Ġdispu tado
ĠParro quia
ĠG ris
Ġdomin ios
Ġsignifica tiva
Ġan uncia
Ġobst Ã¡culos
Ġcarca jadas
r ena
Ġproteg ida
Ġdescen diÃ³
Ġacusa ciones
Ġles iones
Ġpo Ã©tica
ĠPat ria
Ġsent aba
Ġprepar ando
Ġacom paÃ±a
ĠÃ¡ mb
Ġcomis arÃŃa
Ġtam bor
Ġnega tivo
re am
Ġn ido
Ġd ÃŃg
ĠH and
Ġinf el
ez co
Ġmetro politana
Ġrecopi la
gan istÃ¡n
Ġcomenz ando
Ġent ran
Ġprodu ciendo
ĠH D
Ġsuperfici al
Ġv ot
ĠS car
ĠI ron
Ġcre yendo
ĠF ro
B iografÃŃa
Ġdesenca den
d Ã³nde
Ġtransform Ã³
ĠInici almente
ci fic
Ġdesempe Ã±a
Ġg ara
Ġing re
Ġgan adores
is hi
rio ta
ĠMas ter
J es
Ġpres enci
ĠA del
Ġsal iera
Ġcontribuy Ã³
Ġcab ell
ĠDan ubio
3 00
ma g
Ġfre cuent
Ġrespec tivos
Francis co
ĠB enn
Ã¡st ro
ve do
Ġlibre mente
Ġpon go
Ġdesconoci dos
Ġcens ura
h in
ig en
it ÃŃ
udi llo
Ġescu dos
ĠP le
Ġcelebr ada
i vidad
Ġpsi quia
ĠMr s
Ġcomple tÃ³
Ġesp ir
Ġpor che
ĠCas tel
Ġmin eral
Ġre ÃŃa
ĠÃį n
m ante
eric or
an or
ĠK ras
ĠBot Ã¡nica
ĠD ice
ĠFu era
Ġre ta
ĠTa iwÃ¡n
Al guien
ĠLGB T
M ichael
ut ico
Ġestable cidas
ĠquÃŃm ico
19 45
Ġras tre
Ġnove dad
Ġsor bo
Ġconv iene
Ġmenti ras
ĠJun g
ĠKar en
Ġdulz ura
ĠÃ©n fasis
Ġa curru
Ġdirig ente
Ġauto pista
con dado
Ġcereb ral
Ġconfor man
Ġcir u
Ġpi anista
Ġapo ya
C asa
Ġev angel
Ġe cha
Ġtres cientos
Ġex cur
Ġ3 000
Ġand ando
Ġmar cada
Ã©c do
Ġsalva ciÃ³n
Ġnar raciÃ³n
ĠCat herine
Ġins er
Ġconoc ÃŃ
Ġfrag mento
Ġsof oc
l om
Ġvir tudes
ide a
on mano
ĠXX X
Ġa diÃ³s
Ġden uncia
Ġsal ÃŃ
ÃŃ metro
Ġb ull
Ġdis pers
Ġservi dor
g entes
Ġ10 7
Ġpractic ar
Ġdest inados
Ġgri taba
ĠBar re
p ta
jug ador
Ġprodu cidos
ĠCual quier
Ġgen es
Ġreno vaciÃ³n
Ġmat riz
Ġpri va
ĠBuda pest
er i
oc ÃŃa
B el
Ġpropi amente
Ġher b
Ġdeci dÃŃ
Ġsome tido
P ub
ĠH uracÃ¡n
Ġmi ro
Ġb las
ĠSon ora
Ġestall ido
H u
Ġs orte
gu ard
tic ul
Ġf aro
Ġidentific ado
Ġ18 30
Ġcont ribuciÃ³n
Ġexclus iva
u ke
Ġreun ido
w itz
Ġsal sa
ĠmÃ¡ xim
I X
ĠE xt
Ġcont aban
Ġdestac ada
Ġcar gas
Ġdestru ida
Ġpar to
Ġveg etales
ĠSte ven
Ġal er
w al
lo cu
Ġag rup
Ġdro ga
E mb
Ġretroce der
Ġt ent
Ġque mar
ja te
Ġvio laciÃ³n
Ġloc aliza
ĠEsp ÃŃritu
Ġtri ple
H ubo
S ur
ĠLa u
ĠAdam s
Ġh ambri
Ġinnumer ables
Ġsu ple
Ġdivers iÃ³n
ĠConscien tious
Ġpas illos
ĠAqu arist
S erÃŃa
Ġres pira
Ġcontro ver
os e
ĠMo vie
ĠMan n
Ġoblig a
ka i
Ġreserv ado
Ġredon de
Ġguer rill
Ġpatr ones
ĠSal om
ĠA guas
tu almente
Ġrepresent Ã³
Ġprovis ional
ĠAf ganistÃ¡n
s im
Ġacab aron
Ġpol Ã©mica
Cas i
Ġje fa
ie d
Cam peonato
C y
dad ores
ĠEl ÃŃas
Ġso bra
ĠPas tor
ĠAl co
si te
N O
ĠLa gos
Ġdesarroll ada
ĠN y
ip zig
Ġredu ce
ab ra
Ġcob rar
Ġantepas ados
Ġsensa ciones
c ron
ch in
aro te
ma ciÃ³n
ĠsÃ³l ida
A na
ĠAr abia
Ġpas ados
ĠLeg iÃ³n
Ġdar les
ĠF iestas
Ġindi ferente
ĠPho enix
An d
enn is
Ġbrill aban
ti zado
ĠPla ya
ĠD ri
ĠR ita
Americ an
F L
cuer da
hua hua
Ġcl Ã©ri
ĠfotÃ³ grafo
ĠDel gado
pon imia
ĠMa gazine
land s
le cto
Ġsin cero
ĠUnivers itaria
di tas
Ġal deas
k os
Ġ/ /
Ġ186 7
Ġentra Ã±as
a vi
Ġacab arÃŃa
Ġbe biÃ³
landes es
Ġcor pora
Ġproyec ciÃ³n
Ã±ar ol
Ġvues tras
Ġproce der
Ġan at
ve t
Ġautor izaciÃ³n
Ġbr ome
Ġclasific ados
ĠCra ig
Ġcu Ã¡les
Ġdesper di
Ġvis ibles
Ġpob ladores
Ġsusp ensiÃ³n
ĠSte vens
ĠTraba j
Ġar gentinos
Le v
Ġrefug i
ĠhÃ¡b itos
ĠGu itarra
r adores
de dor
ĠDu ran
ĠCor rientes
Ġparticip an
Ġm y
Ġsospe chos
ĠD Ã¡
i der
ic ol
f fe
Ġtur cos
ch igan
Ġafec ta
Ġespec ÃŃfica
Ġmar tes
Ġvar Ã³n
Ġcole ga
go Ã±a
Ġcuader no
Ġdej arla
ĠP ant
E uro
ag as
Ġcu rar
Ġa tado
ĠB ros
Ġnar ices
ti me
Ġconsider aban
M ac
W al
Ġcomun ica
Ġ187 5
Ġmurmul lo
Ġemb al
v Ã©
Ġmi Ã©rcoles
Ġencuent re
gu aya
ĠOc Ã©ano
an unciÃ³
Ġcon fec
ĠreÃºn e
ĠF as
ĠLat in
n idad
Ġdescub ierta
Ġposes iones
ĠMon asterio
ĠAn tÃ³n
ĠPer eira
Ġs ientes
Ġde udas
Ġre lÃ¡
ĠF itz
Ġescol ta
ĠTÃºn ez
Ġex futbolista
Ġ186 4
ul lo
u fac
Ġtarje tas
Ġmanio bra
Ġjura mento
Ġcons piraciÃ³n
Ġmemor ias
ĠdeberÃŃa mos
Ġdirig idos
ĠS pecies
Ġdisminu ciÃ³n
Ġco ge
Ġla va
Ġatrac tiva
Ġarreg lo
Ġsig a
ĠPÃºb lico
Ġsep tentri
ĠAgr icultura
ĠCien t
Ġinde fin
man uel
ud or
h il
Ġavanz ado
ĠPub licaciones
or adas
Ġhabl amos
Ġ187 2
Ġglo bo
Ġtur ÃŃstico
C ada
dÃ³ s
Ġand alu
Ġsu deste
ĠRay mond
Ġcomp ras
ĠDes cub
Ġamist oso
cam pista
es tas
Ġagu jeros
Ġincor poraciÃ³n
Ġge omÃ©
ĠH orn
Ġgra vemente
Ġinf ante
Ġimp ide
Ġpre ju
Ġloc alizada
Ġesca pado
Ġcer rando
Ġav ances
Ġex itos
Ġper cusiÃ³n
Ġsobre pas
un k
Ġtrans mis
Ġcent ra
Ġen m
Ġrecur rir
Ġcer raba
am ina
Ġmec Ã¡nico
Ġingen ieros
to p
Ġreci bi
Ġapete ce
Ġm adu
ĠI F
con tes
ĠL t
th ers
Ġescla vitud
bor g
Ġasegu ra
ĠTh at
ĠTy ler
p ri
Ġno ciÃ³n
Ġmal diciÃ³n
imnas io
b it
Ġb Ãºl
ĠFila delfia
ien ses
Ġtro pe
Ġais lamiento
Ġadolesc encia
ter ial
Ġp Ã³l
e Ã±a
Ġresplan de
Ġv imos
g antes
ĠA G
ĠWar s
ĠV ille
Ġacab o
t ch
Ġlad rones
F ern
am par
Ġpas Ã©
Ġinst antÃ¡n
Ġinici aron
Ġcamp us
Ġano ch
Ġatribuy e
Ġa ero
Ġf luy
in an
Ġfon ts
Ġgas es
un ya
Ġpresent ada
ĠA x
Ġhos p
Ġps ÃŃqu
ĠJor di
C entro
Ġten ue
Ġma Ã±
Ġsal ga
ĠTh ompson
Ġens al
Ġaf iciÃ³n
Ġamar gura
Ġdu reza
Ġater riz
m ut
ĠM aya
Ãģ n
Ġar bi
ĠquÃŃm icos
Ġfacul tades
ĠC ath
G en
ĠVal ley
ĠIncl uye
Ġne uro
u res
Ġintegr al
w ald
ĠEst Ã¡s
Ġemp laz
Ġtir ado
Ġrecep tor
Ġinesper ado
ĠWil helm
Ġj ub
ĠmolÃ© culas
M D
h ad
Ġins pirÃ³
Ġperman ecido
195 8
Ġvoc ales
vin as
Ġabra z
Ġenvi dia
Ġman tuvieron
ĠCom posiciÃ³n
Ġconside rando
Po co
Ġenter amente
Ġencar ga
Ġ187 8
Ġperu ana
fac ciÃ³n
Ġocta vo
Ġauxil iar
ĠI van
Ġconcre tamente
Ġdo lores
Ġtin ieblas
Ġex Ã³
ĠPue do
Ġat leta
Ġcolec tiva
il s
Ġin mer
ĠQu il
Ġfirm emente
Ãį A
ton o
Ġda Ã±
Ġgolpe ar
ĠA ca
us ion
Ġmedi oc
Ġrepent ina
ic an
Ġmostr aban
ĠhÃºme dos
Ġmaquin aria
Ġfonts ize
ad izo
196 1
ĠTab la
Ch rist
Ġexcl u
Ġsupre mo
Ġes pu
Ġobede cer
ĠP is
ĠL omb
ĠGib raltar
Ar t
ĠP OR
Ġre vi
Ġindustri as
Ġs am
ĠDob les
Ġexp ulsiÃ³n
ĠBar ra
ĠAb u
Ġmiser able
ĠEn ci
Ġselec cion
ĠC ÃŃrculo
Ġneg aba
Ġarm amento
ĠZ en
s abes
an y
Ġinter nas
Ġvar ÃŃa
Ġ186 5
Ġexpuls ado
Ġha cha
Ġvol viÃ©ndose
Ġcer tamen
ĠStan ley
Ġla gos
se o
Ġdif unto
ĠSte in
Ġsang ri
Ġcorrec tamente
en tir
ĠW ander
Ġor al
ĠNatal ia
Ġecu aciÃ³n
Ġsirv ientes
z za
ĠSol ar
Ġcat Ã¡stro
ÃŃn guez
Ġencontr arÃŃa
ĠNan cy
Ġdici Ã©ndole
de x
Ġdeci den
Ġconclu ir
cil los
Ġconserv ador
ĠVio let
e to
Ġt as
Ġnecesit aban
Anton io
Ġcer radas
Ġavent ur
Ġvence dor
Ã± era
Ġgir as
ĠGol fo
ĠArm adas
Ġperio d
Ġfich Ã³
ĠKla us
Ġpe gar
ĠSegura mente
ĠÃºlti mamente
rig iÃ³
Ġ10 3
Ġsilenci osa
ĠBenj amin
ran e
ĠBat allÃ³n
Ġmon itor
Ð ¼
qu ino
b los
am antes
bi le
Ġexcel encia
Ġmat ando
ĠRepres ent
go b
Ġintent aron
Ġtrabaj aban
Ġtemb lando
qui cia
ĠD S
Ġhim no
Ġperman ecieron
B us
so uri
ĠBel Ã©n
ĠM ec
Ġpon iÃ©ndose
Ġp Ã³st
te gui
Ã ¬
ĠEs cal
â ĶĢ
p ace
ĠdiseÃ± ada
Ġperio dismo
V II
Ġpin tar
ĠbritÃ¡n icas
Ġpun k
Ġcalle jÃ³n
All ÃŃ
ĠSe attle
Ġ187 7
Ġin e
Ġ185 7
Ġtro pa
Ġagrade cimiento
Ġprivi legio
T ro
ĠBritÃ¡n ico
Ġ10 4
' m
Ġcam iones
o ke
Ġpensa tivo
Ġac cidentes
ĠSyste m
ĠVal di
c ord
ĠN in
im i
Ġcons te
fa z
Ġgeo grÃ¡ficos
Ġselec ciones
ĠM esa
is er
M amÃ¡
ĠdÃ© cimo
ĠNeces ito
Ġsocial istas
Ġcar o
Ġam as
C C
Pe ter
Ġy u
ĠBo hemia
ĠIo wa
Ġdisco grÃ¡fico
Ġdes gas
Ġorden a
Ġtermin ando
ĠGeor ges
Ġca ch
Ġfran que
Ġ187 3
Ġ186 3
ĠChi pre
vi esen
Ġz ur
Ġinmo vil
ĠG iuseppe
ĠDa kota
Ġdef ien
Ġco pi
Ġmar ea
Ġanch ura
ĠacompaÃ± ar
Ġdelic ado
Ġrectan gular
gr ad
Ġh omo
Ġsin tiera
Ġ186 1
Ġemo cion
Ġpl ie
Ġclas ifica
Ġtranspar ente
Ġc lor
Ġ18 40
Ġlevant aron
p ino
T ER
ci ne
Ã³ dromo
Ġor ques
r ona
Ġliter arias
ci Ã©
Ġenga Ã±o
Ġespa ciales
P at
ĠMo delo
Ġcont ing
Ġas tr
ĠMil es
Ġcar ece
ĠR ang
Ġmus ic
Ġconce dido
ĠSac ra
ĠF ig
c uela
res a
entar ias
Ġtra tarse
ĠPon ce
Ġen dure
Ġpa vi
Ġpol ar
Ġprivi leg
ent ino
Ġcor bata
ĠSaj onia
ĠCo ok
Ġte Ã±
ue Ã±o
Ġ1 19
Ġfal lo
Ã©r cules
Ġmi lagros
ĠNic olas
Ġapar ecÃŃan
Ġdestac ando
Ġanti cip
Ġprofundi dades
ĠFinal ista
Ġresca tar
orm emente
Ġpublic adas
ĠReci biÃ³
ĠSinga pur
Ġho guera
T re
ĠAp ril
ĠK ay
ĠK ath
dr ÃŃas
is eo
ĠB Ã©
ĠG len
Ġapar camiento
Ġequi paje
Ġarm adas
ĠG ay
Ġbat allÃ³n
Ġcol gado
Ġconden ados
Ġproxim idad
Ġre cub
re cto
Ġest il
Ġ Ø
Ġquie to
Ġ å
ĠHol mes
Ġinesper ada
ic on
ĠAr mas
Ġcr omos
p m
ĠS iendo
ac ol
gu ilas
ĠDel ta
Ġimpe dÃŃa
ĠIma g
Ġinterac ciÃ³n
Ġro ble
ond alar
ĠON U
Ã µ
Ġin tes
ĠBo ur
Ġri gu
ÃŃr ico
Ġequi p
Ġdetermin ados
Ġran cho
Ġha za
Ġdelica deza
Ġs ano
Ġgen ial
Ġar men
Ġbo x
udi llos
ĠA dol
ĠSte wart
iv al
ĠcÃ¡l culos
ĠPic tures
K O
ĠEntre vista
Segu ro
Ġsenti mental
Ġat entamente
ĠSo ledad
isco pal
ĠPrin cesa
ĠCh al
Ġpal mas
Ġquer rÃŃa
Ġma ch
Ġpl ana
Ġsitu adas
Ġdesp ierto
or um
Ġascen diÃ³
Ġemis iones
O ne
Ġredon da
me diatamente
Ġsac aba
Ġdi eta
D R
Ġle ma
ĠDiÃ³ cesis
Ġcirc und
Ã± ones
Ġfabric ante
Ġg us
ig no
Ġsin cera
Ġsul tÃ¡n
Ġnav ÃŃo
ĠJu venil
D F
ron g
ĠD icho
ĠQu intana
ĠM inas
ĠG om
Ġp ino
Ġgem elos
fa to
ĠHisp ano
Ġorb ital
Ġren cor
Ġas eme
a i
Ġal zaba
Ġlun ar
L ar
Ġr aras
ĠFir st
ĠVal dÃ©s
B al
Ġde stitu
ase gu
ĠMus ical
Ġpel irro
Ġnoctur na
Ġadminist rador
Ġk ilos
Ġinfra estructura
Å Ħ
ĠIn st
Ġhab ita
ĠHern Ã¡n
un i
Ġapo do
ĠN ASA
Ġir res
Ġescalofr ÃŃo
Ġch ir
ĠP ros
don ado
ĠacadÃ©m icos
ĠTÃ©cn ica
E timologÃŃa
L C
ĠMad onna
Ġinclu idas
Ġcobar de
Ġl inaje
ĠH es
ĠV ers
Ġdeci dida
ĠVer ano
ina e
ĠLas t
Ġti rando
Ġle o
Ġhon ores
Ġgan adora
Ġjorn adas
ĠAmeric ana
ĠG Ã¼
Ġdue Ã±a
ĠTig re
19 39
Ġresul taron
ĠES P
ĠUr b
B l
Ġrecom enda
Ġexplor ar
â ĪĴ
il ado
Ġagu antar
Ġhall ado
Ġa ires
Ġestrech amente
ce diÃ³
ific Ã³
âĢ ł
ĠStu art
v ente
Ġinfin ita
ĠGabrie la
22 8
ro e
Ġconver tÃŃa
Ġdepen dencia
Ġcar ecÃŃa
Ġda to
Ġpron unciÃ³
ĠComun icaciÃ³n
ro ck
Ġprepar ados
Ġasent amientos
Ġa ci
ĠLuxem burgo
f et
Ġcapa ci
cur s
Ġgras a
Ġn as
po b
Ġconta c
Ġco ordin
ĠÃŃnti mo
Ġfi jos
Ġpata tas
ĠE bro
vi das
IN A
seÃ± alÃ³
Ġde pre
Ġdiagn Ã³stico
Ġdemos traciÃ³n
Ġevalu aciÃ³n
Ġsin gle
eb as
vin cia
ĠVizca ya
Ġconex iones
ĠHun ter
Ġele vaciÃ³n
ĠhÃºn garo
Ġb ue
Ġper d
ri x
Ġab ad
Ġalber gar
Ġperpe tu
ĠOb rero
ab ado
Ġol ÃŃa
ĠOrig inalmente
Ġsubmar ino
Ġsust an
Ġpanor ama
Ġman gas
Ġt acto
Ġron ca
is erie
Ġr ond
Ġrecor re
Ġreempla zar
ĠDe ath
Ġpase ar
Ġburgu esÃŃa
udo l
ĠHar rison
% '
Ġes por
gu sta
declar Ã³
ĠChi huahua
ĠDes ta
Ġan Ã©cdo
ĠbÃ¡r bar
Ġbus cado
Ġalquil er
mb erg
ĠW as
Ġmo viendo
ĠCamp bell
Ġfi del
Ġjust amente
ĠFemen ina
Ġlevant Ã©
Ġ10 9
ĠPrincip al
Ġcer e
Ġestu pe
Ġc itas
Ġpers uad
ipe dia
Ġcir co
Ġfr ÃŃos
19 36
Ġtradu cido
ĠCo pen
Ġven drÃŃa
Ġalmacen amiento
ĠFron tera
Ġperten ecer
Ġarro jar
ĠBritÃ¡n ica
ĠEstudi o
Ġmal e
Ġmon tado
Ġcal ificaciÃ³n
ĠGer ardo
Ġres ide
Ġdesemboc adura
Ġpres um
ĠQu ÃŃm
ĠEdu ca
tador as
Ġhom ici
ga wa
ĠAr tista
ĠTur ner
Ġal gorit
ĠB ren
Ġparticip ando
Ġat Ã³n
ĠInvesti gaciones
ĠY as
Ġexperim entar
ĠRa w
Ġelabor ado
ĠSpor tivo
v elas
Ġh ig
Ġcortes ÃŃa
Ġt ensa
Ġes qu
Ġri endas
di stas
Ġpro hibiciÃ³n
ĠLu cha
ĠCrÃŃ tica
qu io
at l
Ġcolabor adores
Ġaj eno
ĠimbÃ© cil
ri go
H ol
ĠPr ensa
195 9
ĠMaur ice
S N
In cl
Ġcon gres
ĠV idal
Ġespeci alidad
Ġmanten ÃŃan
Ġignor ancia
ĠT ren
ĠG et
Ġunivers itarios
Ġcamp ana
ven ido
Ġru tina
Ã© f
Ġintrodu cido
Ġconf uso
Ġ11 5
ĠprÃ¡c tico
Ġarti ficiales
ĠG P
Ġan taÃ±o
Ġabandon aron
Ġ10 6
ĠRevolucion ario
Ġh uracÃ¡n
ĠIs landia
Ġvac ÃŃas
TA L
ĠÃŃb amos
f ren
p ando
Ġju veniles
ĠgrÃ¡f icos
V in
Ġb ÃŃb
ĠT ama
Ġanti ci
A st
Ġcomba ti
l ismo
Ġfor mid
ĠLe ipzig
ĠHer bert
Ġrela tivo
Ġdetec tar
b lan
ĠCar ras
f acto
k k
Ġacor de
Ġca pu
ent on
ĠC av
ĠCat ar
Ġremon ta
Ġ186 9
t entes
di ar
Ġsorpren der
Ġmanz anas
Ġam ada
Ġfal s
ĠD amas
Ã³cra tas
T ar
Ġpersegu ir
ĠPor sche
Ġocur ra
ĠW on
ĠmetÃ¡ lica
Ġambi ciÃ³n
Ã¡s ica
ĠCarol ine
Ġven eci
Ġvar iaciÃ³n
ĠHar old
Ġin sta
Ġdiscur sos
Ġk W
ĠGu ido
era to
mit en
Ġsepar ada
ĠepÃŃ teto
Ġtribun ales
me t
Ġhaci Ã©ndose
Ġab st
Ġemb os
Ġcasta Ã±o
Ġdespe dir
ad illas
ru st
Ġdes mon
ĠO wen
Ġir rump
Ġvo caciÃ³n
Ġejerci cios
Ġafron tar
Ġde tes
Ġac entu
ĠseÃ± as
g ener
Ġh is
ĠRos as
Ġtra gÃ³
ĠPas a
ĠPa olo
ĠsimultÃ¡n eamente
con sin
Ġa ir
Ġn ominado
ĠW right
Ġo yeron
ĠL ine
Ġide ales
gen da
ten iente
ĠPar do
Ġcrim inales
ĠBri t
Ġsur gido
ĠCoun ty
Ġre iv
Ġcru za
Ġasoci ada
ĠL loyd
Ġcab les
Ġdis crim
Des cripciÃ³n
Ġtempor almente
Ġpus iera
Ġcorpor al
ĠZag reb
Ġsindi cal
ĠW omen
ĠCar rillo
Ġm entales
Ġan ualmente
Ġterror ista
h ague
Ġ186 6
Ġapren diÃ³
uc risto
Ġproven iente
Ġcon ces
ul u
Ġfi jar
Ġis lam
Ġpon ga
Ġver los
Un iÃ³n
Ġs Ã¡
Ã³ lito
Ġdu do
ĠDar ÃŃo
Ġest ÃŃm
Ġf estivales
ĠseÃ±al ado
Ġmadri le
ĠÃ© tica
bur n
ĠrelÃ¡ mpa
ĠlÃ¡s er
is en
âĢ¦ "
Ġâ ĪĴ
vro let
Ġc allado
A v
Ġcos tar
Ġexist ido
Ġreempla zo
Ġalterna tivas
Ġcant antes
Ġprogra m
Ġbr omas
Ġadel antÃ³
Ġregular mente
Ġpre fectura
Ġor iente
ĠDe tal
Ġpod Ã©is
ĠD at
Ġdeber es
ĠM ina
an ismo
ern er
tu viera
Ġestar Ã¡n
ĠS omos
Ġpul gadas
H um
ab i
Ġt rist
Ã¡n ime
pla y
Ġtab erna
Ġexit oso
ĠP oz
U G
ck y
Ġfi jado
ĠMatthe w
Ġmen tir
Ġfutu ros
z ona
ĠPon tificia
Ġesper an
ĠTr in
Ġenga Ã±ar
ar to
ma c
ĠGram my
ĠReg istro
el t
Ġdes ol
Ġascen dencia
Ġ186 2
Ġgole ador
ent er
le te
vent ura
ĠÃ³ leo
Ġcom an
di l
ĠS M
Ġplan tilla
Ġacep tadas
ĠEn er
ĠG ER
g em
ĠM ez
ba te
Ġm era
ĠC R
Ġtradu cciones
Ġgeo grafÃŃa
ĠD ÃŃas
H y
Ġan hel
Ġagu ja
gra phy
ĠMis souri
ĠM Ã¼
Ġpu p
Ġaument ando
ĠP iloto
bo ok
Ġaver gon
Ġin cidentes
ĠK ol
ac ciÃ³n
ĠDeb erÃŃa
Ġseg mento
Ã¡zar o
ĠP AR
ff y
Ġvel ada
ĠU D
Ġpr endas
Ġse cas
ĠM ant
Ġcompa t
ĠBat man
Ġel ab
Ġam on
lev eland
lo b
ĠCa ja
Je an
Ġenc amin
Ġtem eros
gan g
Ġejecu tado
Ġrevis ar
ĠMe ga
Ġfran quicia
Ġarquitec tos
Ġhebre o
e aba
ist ic
Ġmus eos
Ġdemas iadas
cam entos
Ġhar emos
Ġsor do
Ġbas tantes
Ġe ficiente
ĠT un
Ġdespe dido
or de
Ġtron cos
Ġc una
Ġhici eran
V io
ĠEst her
Ġpa quetes
Ġser iamente
Ġintelig entes
ĠBus h
Ġole ada
ĠCuar to
Ġproto tipo
ĠDie z
Ġal mor
Ġexplic ado
Ġpla tino
Ġser Ã©
Ġlec ciones
te x
Ġanfitri Ã³n
ĠFer rer
Ġla mento
Ġsent ÃŃan
Ġceleb ran
ĠPas eo
ĠPhilip pe
Ġhab lo
Ġagu ar
tt gart
lu encia
Ġgradu almente
ĠNo ti
g ana
Ġvia ja
Ġsac ando
Ġllam ando
ĠD ip
Ġnorte americana
Ġdescon oce
Ġdes er
Ġalter n
ĠL on
ĠMiemb ros
dor e
Ġru ina
Ġdi pl
ĠF RA
J orge
il er
ti more
Ġdin osa
Ġinaugu rada
Ġbiz ant
ĠH ue
Fran cia
ĠT la
Ġsu cia
ĠC ase
cul tura
ĠGÃ©n ero
Ġ187 4
ÃŃ menes
Ġque das
Ġton terÃŃas
co urt
Ġimpon er
Ġdomici lio
Ġenf ri
Ġcinemato grÃ¡fica
Ã©r selo
al las
Ġcar ica
Ġdec ora
Ġhol andÃ©s
Ġatar decer
Ãº es
ĠPie tro
ĠB ian
ĠRe cuerdo
Ġextran jeras
Ġestad ÃŃsticas
Ġpertur b
Ġp Ãºrpura
Ġdu d
Ġv iste
f ix
se mos
ĠB iz
Ġmo vÃŃan
ĠPartici paciones
Ġvest ÃŃa
Ġcontro versia
Ġenfr enta
Ġdeclar ada
Ġab ras
Ġven drÃ¡
ĠDub lÃŃn
ari us
Ġilum inado
Ġbor rar
Ġrequis itos
Ġagu ant
ĠChann el
tal os
Ġgan ados
ĠÃ¡ guila
Ġqued amos
ĠBiodivers ity
a hora
ĠbÃ¡s icamente
Ġnucle ares
ĠPatri cio
Ġconfirm ado
Ġsuje ta
Ġtranspor tar
ĠCo ur
ĠFo to
ĠS ign
Ġreg lam
Buen as
ĠH at
Ġcompos itores
Ġmar iscal
ra t
Ġnarra tiva
Ġrode an
burg h
ĠBene di
Ġpa tron
ĠBlo om
an drÃŃa
Ah ÃŃ
Ġen ar
Ġa x
Ġpresiden ta
L ive
Ġcor ro
195 7
Ġpil ares
ĠDom ÃŃnguez
Ġa que
Ġdestac adas
Ġsuperviv ientes
Rob ert
Ġfus iles
Ġdefens as
ci ller
Ġascen der
Ġco her
Ġal usiÃ³n
Ġgas olina
Ġqued arÃ¡
Ġcolombi ana
ti es
Ġto alla
ĠMemor ial
ĠAb riÃ³
alÃŃ mpicos
ĠH em
Ġliter arios
Ġpla y
Ġvig ente
ĠincÃ³mo da
ĠE tapa
Ġmanus critos
Ġna cidos
ĠX box
Ġretras o
r Ãº
Ġob tuvieron
ĠEscu ad
Ġtermin ada
b in
Ġpros egu
Ġesp ÃŃa
Ġmencion Ã³
ĠBer lin
Ġmir Ã¡ndolo
Ġconv ierten
L in
li quÃ©
Ġautom Ã¡ticamente
Ġretir ar
Ġincer tidumbre
te aba
Ġago tado
Res ultado
Ġmu do
Ġmonta je
ĠLil y
Ġre li
ada via
Ġun en
Ġhal lan
Ġsab ore
Ġ12 8
Ġlevant amiento
ĠPro greso
Ġapa gÃ³
Ġdin Ã¡mica
ĠW en
Ġf es
Ġdefens iva
ĠPach eco
Ġmas iva
Mar y
Ġindig naciÃ³n
ĠF ama
ĠK om
ĠNe u
ĠR oth
Ġexter no
Ġvan guardia
ĠelectrÃ³n icos
ĠBoe ing
ĠP ompe
Ġvac a
Ġrob ots
co uver
Ġesco gido
Ġsuperior idad
Ġcaver na
ĠseÃ±or as
ĠJa va
ĠPla tino
ĠPens Ã³
ul Ã³
Ġreun ieron
Ġcenten ares
ĠVi ol
V illa
Ġcontr aria
Ġar mar
Ġev itando
Ġdescub rieron
ĠAmaz onas
Ġmor dis
Ġtercio pelo
ĠWag ner
S abe
Ġcose cha
ĠArn old
ĠAl fa
eno grafÃŃa
ĠTar ragona
ĠSqu are
Ġsincer idad
ĠEs pec
Ġe ros
hab ÃŃa
Ġciudad anÃŃa
ĠMel bourne
ĠR ue
ĠAl im
ĠMa k
H emos
Ġy er
Ġcap itales
Ġinclu ÃŃan
Ġdig na
ĠCant Ã³n
Ġtra mos
Ġpat ada
n ica
que Ã±a
qu itos
g encias
Ï ħ
ĠH id
Ġab adÃŃa
Ġdefender se
Ġurb anos
4 00
S eg
Ġaust rÃŃa
ĠEs grima
ĠFigu ero
ĠSe Ãºl
ĠPal encia
ĠAlas ka
Ġcuad rada
Ġpres o
ĠMotor s
ĠEst ru
Ġdetermin adas
Ġsobrevi v
ĠDepor te
o le
Ġtan que
Ġment almente
ri es
ĠY Ã¡Ã±ez
Ġpol lo
tal o
ĠArro yo
ĠMaxim il
Ġalcanz aba
Ġc ris
Ġmar es
Ġpro le
if ormes
Ġcos tillas
Ġa cademia
le tÃŃn
ĠT ron
es p
Ġderi vados
Es pera
ent ÃŃ
ĠMal ta
ĠNig eria
ab ol
ĠPo esÃŃa
Ġext enso
Ġcumpl iÃ³
Ġdiscu siones
Ġatre viÃ³
Ġ ×
ĠDe an
c antes
Ġc emento
ist ra
Ġemis ora
Ġa ull
Ġle Ã±a
ĠW it
es sa
Ġrelig iones
ĠMac edonia
Ġsuces ivamente
Ĥ ¬
Ġve j
Ġja ula
ĠIma gen
Ġinter vino
ĠRe alizÃ³
Ġmercan cÃŃa
ĠB ara
Ġho teles
ĠChia pas
ĠK ings
hi ro
Ġdi me
Ã©l ites
Ġmom ent
Ġdefen diÃ³
ĠBroad way
Ġtan go
Ġpermi tieron
ĠAl pes
ĠAle mÃ¡n
ĠM AR
Ġpar ques
Ġcon tuvo
Sab ÃŃa
al los
ĠIndust ria
blas t
Ġtribu to
Ġcotidi ana
Ġacab aban
ĠLib eraciÃ³n
S t
ĠD res
Ġest ri
ĠCatal unya
ĠÃ¡t omos
Ġban deras
Ġdep rim
Ġf ea
195 6
Ġa ch
T ran
ĠR at
Ġex ce
ĠT rist
ĠJohan nes
s s
Ġprivi legios
ant ha
ĠEscu do
Ġproto colo
Ġsepar aba
Ã© lico
Ġprote ÃŃna
R ol
Ġh uyÃ³
Ġmara villa
gru Ã±Ã³
ĠJo ven
Ġodi aba
v ano
Ġincom pr
Ġencontr ados
ĠK han
Ġcompon en
Ġdespl ie
Ġperio dos
ad me
Ġloc alizar
Ġin dul
iz con
Ġaber tura
ĠIng lÃ©s
ob ia
ĠPue des
Ã§ Ã£o
Ġape tito
Pal marÃ©s
ĠUb icaciÃ³n
ĠW ith
oyo te
Ġquit arse
ĠCol lins
Ġredu jo
Ġdesempe Ã±o
ĠHud son
Ġbombar deo
Ġres um
ĠMÃŃ chigan
ĠN athan
Ġconcl usiones
Ã³s itos
Ġmencion ada
ĠMal vinas
Ġdesplaz amiento
Ġmo tiva
Ġpro cu
tor y
Ġorgullos a
di damente
Ġinter cep
lig ht
am bo
Ġas igna
Ġsub campeÃ³n
Ġflan que
ĠlÃ¡mp aras
br ados
Ġrespec tivas
R om
Ġpropor ciones
Ġreno v
ĠR id
Ġfran cis
Ġcafe terÃŃa
Ġesc and
Ġsospe choso
Ġconf ron
Ġmeta f
u il
Ġo puesta
Ġjo venci
ĠCre ek
c entes
Ġcom idas
Ġnar rador
Ġur gente
Ġcu riosa
Ġhos pe
Ġconsol id
Ġsec uela
Ġfidel idad
Ġpublic aron
ĠTraba jÃ³
e lo
Ġ--- -
Ġtransfor mar
Ġcal lar
ĠPartici paciÃ³n
S ara
Ġsurg ieron
Ġsuminist ro
Ġvege tal
ĠMetro politano
Ġcomprob Ã³
ĠI T
Ġrep as
ist or
ĠEn car
Ġconvir tiendo
Ġreun idos
ĠCopen hague
Ġproteg idas
Ġpel u
alo gÃŃa
ĠEdi ficio
ti ciones
Ġmostr aron
Ġsobr ena
Ġindi cado
ĠStal in
Ġcolabor ar
Ġtecl ados
Segun da
temp orada
ĠBab y
Ġesenci almente
ĠP om
ĠSal to
es co
od y
Ġquer iendo
tic al
ĠHanna h
Ġinquie to
ines s
Ġhel ada
j ita
Ġcor s
ĠP enn
Ġprim os
car as
Ġdi aria
Ġpro clamÃ³
Ġinteg rante
Ġsepar arse
Ġcla ustro
Ġac tivamente
Ġemp eratriz
qui pa
Ġcaus ando
Ġasist encias
S oci
ĠT ir
ĠSal inas
Ġcicl ismo
Ġest abil
Ġemb le
Ñ Į
Ġnovel ista
Ġcol gÃ³
Ġlej ana
g icos
ĠCh en
Ġli tros
Ġeti queta
E m
Ġexac titud
Ġbiz antino
Ġt hat
Ġcas cos
ens ivo
Ġexten der
S E
T AN
Ġsalv Ã³
ĠWik ipedia
Ġp ilas
Ġcre p
Ġmagn ÃŃfica
Ġnot ablemente
Ġd rag
r adora
Ġcon vi
ĠFa una
ĠM om
ver n
Ġ18 10
Ġv inos
ĠBos que
Ġoper ar
cor dia
Ġder re
ĠSent ÃŃa
Ġal za
Ġempe or
Ġconstitu ido
Ġpar iente
Ġcon fer
ĠK no
Ġextra ord
ĠW inter
Ġregres aron
in st
Ġespu ma
ĠG aller
ĠH unt
ĠVie ja
ĠBar bara
Ġempez aban
diÃ³ cesis
Ġdom ingos
Ġres pirÃ³
Ġre ch
Ġpe dÃŃ
anna h
ĠlÃ¡p iz
c ort
Ġrepar ar
Ġri fle
mo uth
Ġv ill
Ġsus ci
Ġincen dios
Ġinf il
ĠClub e
ĠquiÃ©n es
Ġmor diÃ³
Ġfol k
Ġimpon ente
ĠN ominada
ĠEs lovaquia
ĠÃ©l ite
gent inas
Ġindis pens
ĠG ras
Ġb eca
Ġllev arÃ¡
Re ino
tal gia
Ã©s ima
Ġbrig ada
ĠT Ã¡
Ġpel da
Ġsu izo
19 50
pan ia
ĠGir ls
ĠMÃ¡ ximo
i pa
Ġmon jas
ĠNeces itaba
ĠJenn ifer
Ġimpor tar
lo ven
Ġrevel ar
ĠCÃ¡r denas
ĠmaÃ± anas
Ġpre texto
Ġcusto dia
Ġante cedentes
Ġinteres aba
rial dad
Ġun ida
ĠdiscÃŃ pulo
Ġpe ga
Ġcontro les
ul k
Ġprepara tivos
Ġpat ente
Ġfra cciÃ³n
c ci
ĠC P
i ya
ĠCent re
ĠP A
ĠCh ang
d ing
Ġg lu
Ġmexic anos
Ġc uevas
Ġilust raciones
Ġprob ado
Ġrelev ancia
Ã©st or
ĠN eo
ĠMon taÃ±a
ĠH uelva
Ġdar Ã©
Ġmutu amente
ĠC ano
Ġdesem bo
ĠAut om
Ġlaber into
Ġhermos as
ĠA ya
ĠRa in
Ï Ģ
z gos
ĠK h
Ġdist ingue
ĠBet ty
Ġalcanz aron
Ġtrabaj ador
Ġsupre ma
Ġen gan
Ġtub os
N or
Ġc ielos
ĠAntio quia
Ġamon ton
am entales
v iene
Ġgan ancias
gun os
ĠMad ame
Ġsospe char
Ġmelan cÃ³
ĠEx cel
ĠP y
Mu jer
Ġestan que
Ġlegisla tura
Ġmarin ero
ad mitiÃ³
Ġambien tadas
Ġaustral iano
Ġsal tos
Ġcircun s
ĠStu ttgart
Ġllor aba
Ġprom esas
Ġpref iere
g at
Ġl Ã³
ci stas
go t
ĠEdi tor
Ġenfrent aron
Ġregist rÃ³
ĠEs ca
Ġpatr ulla
ton ia
Ġvolver Ã©
Ġmic rÃ³
ĠA quil
Ġf rialdad
Ġcomp uestas
Ġcre cÃŃa
bu ce
ĠMe ta
Ġespec ÃŃficos
Ġapos tÃ³
Ġg oma
Ġcoord inaciÃ³n
F I
Ġc era
Ġre quieren
Sin onimia
Ġsi m
Ġcapital ista
Ġrecor rÃŃa
ĠCon oci
Ġviol entamente
m ona
tar i
ĠaÃ±ad ido
lo pe
ĠChe vrolet
Ġdedi cados
ent aria
eci da
Ġale jaba
Ġcomple jidad
ĠprÃ³xim as
Ġna va
Ġreconoci dos
Ġp Ã³
Ġfavor ita
Ġab rup
leg ada
cion istas
ĠRa o
Ġense Ã±a
Ġenfrent amientos
Ġreten er
ĠJes ucristo
Ġsuje tÃ³
G A
âĢĶ âĢ¦
ob servÃ³
Ġexter min
Ġca ta
Ġb its
so bre
Ġrealiz aba
Ġprepar aba
th ing
z el
ĠA cos
Ġpens iÃ³n
ire mos
ĠModer n
ie u
ĠFis cal
Ġsobrevi vido
Ġf ugi
ĠCa iro
tiemp o
Ġcom iendo
Ġfu gaz
Ġcompar te
ĠTÃ©cn ico
Ġrespon dÃŃa
Ġac aban
de mo
Ġjuz gado
Ġembar caciÃ³n
Ġenro je
Ġmate mÃ¡tica
' -
is pado
cis amente
Ġperf um
M iguel
Ġob se
Ġeleg ancia
ĠK ane
Ġcir ugÃŃa
Ġgru esas
ĠFo ur
E mil
ĠC Ã¡n
Ġba tida
Ġsecu estro
p ice
Ġinstru mental
Ġte ologÃŃa
Ġdescen diente
Ġatre vÃŃa
Ġrepublic anos
ĠAlej andrÃŃa
b ri
ĠS par
ĠEs ch
Ġcl ero
Ġtecl ado
b orn
ĠS tella
ĠMi ri
b able
ac tual
em ber
ĠSte fan
ĠfÃŃs icamente
Ġradi ante
ĠRober ts
Ġbal Ã³n
Ġc eg
Ġencant adora
ol las
it ra
Ġpro hibi
Ġpin ta
ĠV iernes
Ġmedi ana
Ġdese ar
Ġanim ado
Ġad quiere
R ed
Ġto po
Ġvis itado
Ġconec ta
ĠDN Q
Ġe chando
Ġex hal
Ġescas ez
ĠF idel
ĠDe part
Ġpre venir
di camente
Ġab an
Ġar ra
Ġplan ificaciÃ³n
Ġb iÃ³
ran za
Ġfue gos
tagon ista
ĠK iev
ĠL lor
B O
Ġsent Ã©
ĠHues ca
Ġmu da
Ġtr ÃŃo
ĠMer idi
Ġdispar ado
195 5
ĠcÃ¡ ps
L S
Ġes bel
T rans
tr aron
Ġdu dar
o h
lah oma
Ġarreg los
ĠMoz art
ĠH amp
mas car
Ġmor ales
Ġcercan ÃŃa
Ġrelev antes
Ġcerem onias
Ġdes ar
Ġadivin ar
Ġde fecto
n on
Ġton terÃŃa
ĠAc triz
Ġsuf rÃŃa
Ġblan que
Ġinstitu cional
te m
ĠU tiliz
fic ada
Ã©ro es
ĠComun icaciones
Ġforma ciones
Ġcomb inado
Ġvac ÃŃos
ĠTech n
ancia ciÃ³n
Ġtri an
ĠAmb ros
Ġempe Ã±o
P ierre
P el
ĠLor ena
ĠCastell Ã³n
ci co
Ġpura mente
ĠC leveland
Ġconstitu yÃ³
Ġcontra tos
Ġsuce diendo
ĠEcu ator
Ġeduca tivo
z al
Ġllev arlo
Ġpre val
ĠMc K
Ġrepos o
Ġten or
U P
D u
Ġ10 8
ĠMagal lanes
ma t
Ġdi amantes
ĠU FC
Ġdedi caba
Ġinte gra
G ener
Ġad Ã³nde
ĠUn as
Ġbaj ista
Ġh ÃŃb
Ġnie ta
ar las
ĠEl lio
Ġescon di
la te
po ca
ĠCircu ito
Ġser vÃŃan
Ġextra va
Ġac cidental
tan ia
ĠContemp orÃ¡n
Ġpe di
Ġfu iste
ĠMar tha
Ġs Ã¡n
til de
âĢĻ .
ĠE as
pro testÃ³
Ġfrust raciÃ³n
Ġhar ÃŃan
Ġexpec tativas
Ġab us
Ġbur la
ke ley
Ġfres cos
ĠJer ez
de ando
Ġa te
H al
Ġserp ientes
ĠgrÃ¡f ica
ĠFre ud
ĠCham ber
Ġvi deos
Ġdesarro llan
Ġobst Ã¡culo
Ġpos ada
Ġre lo
Ġintent arlo
i tivo
ĠAn nie
Ġ185 9
m icos
Ġvig ilar
olog ical
Ġluch ador
Ad Ã³nde
Ġobten idos
Ġcar idad
Ġesco ger
Ġdesf ile
ĠAnton ia
Ġus aban
Ġpes etas
De portivo
Ġso le
Ġdeter mina
I E
B L
Ġc ÃŃ
Ġdelin cu
ĠK il
ĠIb ero
Ġextra er
Ġhar to
o pl
Ġrepent ino
ĠM amÃ¡
Ġllev arla
ĠNico la
Ñ ĭ
til le
Ġocasion almente
ĠenseÃ± anzas
Ġin venciÃ³n
Ġrecord ado
Ġopon ente
Ġhosp itales
A diÃ³s
Ġtre gua
Ven ga
ĠItal iano
Ġac lam
Ġn Ã³r
Ġin al
ĠH ap
ĠC leo
Ġal boro
ul osa
Ġen gen
p las
Ġg in
ĠCo ch
Ġfemen inos
ĠMon ten
Ġdesapar ecieron
Ġtor so
tiv es
S F
en go
Ġline al
r Ã¶
Ġmic ros
Ġanun cios
ac t
Ġpien san
ĠGri ff
ĠPer ÃŃodo
Ġexpon er
Ã© taro
Ġdes mor
Ġ*** *
Ġesco cÃ©s
te au
Ġab uelos
mi dos
Ġconform ado
iv an
ĠpÃ³l vora
ab y
Ġmu che
k ra
u ki
Ġcan cha
Ġseren idad
ile a
Ġdeca dencia
ti zo
Ġvia jero
Ġenter os
Ġestre chÃ³
Ġmono pol
f en
ĠLud wig
ĠR ud
Ġprimi tivo
Ġ2 20
ĠMal donado
ĠTe mple
Ġejer ce
Ġentre ab
ro y
Ġvin ieron
ĠRiv adavia
ĠHum berto
Ġpene trar
ĠConn ec
Ġalum inio
ma co
Ġcamp anas
lar ia
Ġdeclar ar
le e
Ġocup ados
Ġvam piros
ĠmÃ¡g ica
Ġcer tificado
ĠDel an
Ġcas er
Ġtera pia
ĠM ada
Ġexcel entes
ĠWander ers
ĠH Ã©rcules
Ġestu pidez
a a
Ġaf Ã¡n
Ġinvad iÃ³
ĠLu go
Ġrefuer zos
Ġportu gueses
Ġsu mar
la za
P an
Po bre
Ġic ono
Ġmurm urÃ³
Ġdesb ord
Ġ11 2
Ġpos tre
ĠMar ca
quilla je
Ġexam inÃ³
Ġllam e
ĠO ber
ĠÃ ĸ
Ġdepen dencias
Ġre go
Ġrig or
R ich
Ġcar gada
ĠSu zuki
ĠCatal og
E X
Ġimp lem
ĠPal ermo
Ġcau tela
Ġ18 20
j on
ĠMich elle
Ġad her
Ġconst ancia
Ġger ente
mer s
Ġl on
Ġpermitir ÃŃa
Ġprop Ã³sitos
Ġac ome
Ġllen aba
Ġpl us
ti tas
Ġinver siones
ĠBar rios
is cos
ĠBrook lyn
Ġseguir ÃŃa
ĠGil bert
Ġco opera
ĠInter pre
ĠLu cio
Ġrelev ante
ri Ã³n
Ġcol gar
ĠCe le
em ia
Ġn Ã³m
Ġprim or
Ġneg ado
ĠelÃ©ctr icos
R adio
Ġin a
o do
ci so
respon dÃŃ
e i
T r
re loj
gl ish
ĠCom par
Ġimp o
Ġmovi do
ĠCic lista
Ġreo jo
Ġsent aron
eo ple
ĠY am
M C
Ġle ones
inar iamente
Ġas ume
Ġcuer nos
ĠMil an
Ġreg ente
Ġcap tar
i bre
se gÃºn
ev ales
Ġgara je
Ġpla te
Ital ia
Ġin ti
s ub
S he
l amos
Ġusu almente
Ġesp inas
Ġpreocu p
ist es
ĠBel grado
ĠBor is
ĠTrabaj adores
ĠAs censo
Ġcon vin
ĠB ond
un ciaciÃ³n
ĠAc adÃ©m
ĠBal timore
ĠÃģlbum es
Ġcu Ã±ado
ĠCh aco
Ġpes te
Ġpes cadores
ens iva
ĠQue ens
Ġderi vado
ab Ã©
Ġgru esos
ĠL Ã¡zaro
Ġconf ies
ĠFuer te
tr Ã©
tes e
al les
ĠF rom
ĠRe la
macul ada
Ġcre an
Ġmater i
Ġdesconf ianza
ba to
Ġdistribuy e
J ug
Ġentien des
Ġeste lar
Ġsien ten
Will iam
in do
Ġbeb iendo
ti an
den ce
uer tas
Ġcub ano
ĠFiguero a
Ġsub si
Ġa per
ĠS ally
Ġbrasile Ã±a
ĠExpres s
ĠSi mplemente
l ut
Ġ17 0
ĠAlex and
Ġacer caron
R ock
Ġjust a
Ġa uge
Ġra ya
ĠSta de
ĠolÃŃ mpica
Ġrique zas
Ġotom ano
u za
Ġflo tando
Ġmanifes tÃ³
A ust
Ġcom ando
Ġ11 1
as intiÃ³
Ġen laces
co ta
ĠR un
Ġpr enda
Ġag itaciÃ³n
ÃŃb ano
i ted
Ġtransform ado
Ġqu ita
Ġgor ra
re cta
Ġficti cios
Ġbus caban
Ġdespe dirse
Ġedu cado
Ġconce der
ĠGer man
ĠLu igi
ĠNik ola
Ġinm ue
ens on
tar iamente
Ġexperim entÃ³
Ġroj izo
C he
D ec
Ã³ grafo
Ġdes cif
Ġfund ar
Ġauto bio
rÃŃ quez
Ġconvenci Ã³
ĠAlvar ado
val le
Ġarras trÃ³
B ur
Ġdolor oso
Ġdesarroll ados
ĠMol ly
O ye
Ġh olo
ÑĢ Ð°
Ġfuncion aba
Ġrestr icciones
ĠFamil y
ĠUn ida
195 3
Ġmonum ental
P u
ĠA da
ĠPe Ã±arol
Ġgrande za
Ġindu d
all ero
Ġconstru idas
O tro
ĠDy lan
al to
Ġpele ar
d ares
ĠCom ien
Ġprovis iones
Ġemple ada
Ġmodi ficaciÃ³n
Ġo je
Ġhu Ã©spedes
her iff
uck y
Ġperder se
ĠRos en
Ġbel las
ro v
ĠC lan
Ġin cu
Ġdej es
Ġcruz ando
ĠAb ril
Ġhorm igÃ³n
Ġca en
Ġegip cio
ĠLitu ania
Ġincl inado
ĠEner gÃŃa
ĠAr senal
Ġhu Ã©sped
Ġdiscul pas
ĠGre y
Ġcruel dad
t Ã¡ndole
Ġun ÃŃa
Ġg ay
ig ne
ent s
Ã¡m onos
Ġalegre mente
Ġcon sola
Ġpatr ona
ĠY uri
ĠLt d
x os
Ġque j
Ġrec to
Ã© mon
Ġpeligros os
Dist ribuciÃ³n
Ġ &
Ġaf icionado
Ġenv uelta
ĠEsco bar
ĠGra cia
ĠRang ers
ĠPar ra
V III
ĠJ onas
ĠZ amb
Ġdist or
ĠPa u
Ġutiliz aron
S O
ĠG BR
ĠIn ca
Ġag itÃ³
mus itÃ³
Ġinn eces
Ġsi ti
is Ã©s
ĠN ED
Ġgesti on
Ġser ena
h os
Ġenten dimiento
i Äĩ
edi encia
ĠG ur
ĠCh ac
Ġperci biÃ³
ĠMe lo
ĠTer ra
ĠHo ff
Ġapoder Ã³
Ġdes ignaciÃ³n
Ġinmedia ciones
Ġhar ina
Ġas fix
ĠpodÃŃa mos
Ġrom ance
Ġm im
ĠCrist ian
ch y
Ġapa gado
Ġcamion eta
me la
ich os
ĠR E
Ġver du
Ġorigin ario
E qui
v ador
Ġenter Ã³
Ġdisfru tando
ek w
ĠC Ã³mo
ĠJess ica
u tiliz
Ġcu br
dos as
ĠPÃºb licas
Ġin er
Ġbar ras
g rim
ĠR ural
tos a
Ġale g
Ġafec tada
ĠR av
Ġquer ÃŃas
Ġexist iÃ³
Ġayud aba
ÃŃ tica
ĠQue bec
ĠJac obo
Ġadver tido
Ġbode ga
ĠHe ad
Ġac ora
Ġcontribu ciones
Ġrecom pens
ĠF at
Ġhablar le
Ġcatal ana
Ġp se
Ġes cur
cri biÃ³
ĠN ash
Ã¡r melo
195 4
Ġocul taba
ĠNorm almente
Ġde cepciÃ³n
ĠS D
oc as
Ch ar
Ġingen io
ĠPala cios
j Ã¡n
Ġt enso
Ġbar an
Ġpon ÃŃan
ĠMas ters
Ġsol ares
in ense
Ġmedi camentos
Ġam abilidad
S D
Ġos t
R oy
Ġra tas
Ġ18 12
Ġcuidad os
Ġimplac able
Ġ* #
es tes
ĠMars ella
W ar
Ġove jas
Ġllev as
ĠEcon om
ĠOlimp ia
Ġcondu cciÃ³n
ĠH ad
Ġestric tamente
Ġri tuales
Ġredon do
ĠsÃºb itamente
z ano
Ġen ig
A TA
Ġcar ab
E du
Ġan si
Ġcon oz
ment s
" [
Ġ q
Ġtom arse
gen os
Ġaproxima ciÃ³n
Ġautom Ã¡tico
Ġfamos as
ĠMis iones
Ġespant oso
Ġcatedr Ã¡tico
E ran
Ġmig ra
Ġfal la
ter ista
am ÃŃn
Ġtib ur
Ġexplo tar
at su
c anos
Ġdo cenas
Ġacce de
ĠH av
ĠHer manos
ĠHab rÃŃa
ĠsÃ©pti ma
Ġfor zado
Ġiden tifica
ĠLu ciano
ĠN ilo
ĠOsa ka
ĠA do
Ġdi rÃ¡
Ġmin ia
Ġarre p
ĠRub io
Ġest am
ĠSa k
C at
Ġdor ados
Ġamar illas
all ones
ĠjurÃŃ dica
Ġesp esa
ĠE TA
Ġh uyendo
Ġdecor ado
ĠH olo
Ġconf usa
ĠArist Ã³
Ġvis iones
ĠS P
Ġpres tÃ³
ĠRo os
Ġautom Ã¡tica
Ġcohe te
Ġb ord
Ġinterrump ir
Ġba terÃŃas
Ġduer me
ĠtÃŃp icos
Ã¡m icas
u tos
Ġsurg ir
Ġais lado
Ġco leg
ĠCer ca
is fer
ĠG ale
ĠJo el
Ġdes al
ca t
Ġgeneros o
Ġpres cin
Ġposi tivos
ĠO ak
Ġgal erÃŃas
Ġen fa
Le y
Ġma jes
Ġderro tados
D ime
ĠV arias
ĠTom Ã³
Ġbloque o
Ġcontro lado
ĠdecÃŃr selo
Ġas co
Ġco legios
ĠUr ban
ar Ã¡s
Ġcasti gar
um ba
ĠD Ã©j
Ġm esti
Ġpas iones
Ġpu ri
Ġaten to
asegu rÃ³
Ġal b
Ġcr Ã³nicas
Ġart ÃŃsticas
Ġincorpor arse
ĠA tra
Ġprimi tiva
Ġun idas
Ġmir ado
ĠG ames
Ġcas cada
Ġgas to
Ġ5 000
Ġacostumb rada
ame la
Ġenfad ada
Ġk a
EN T
Ġves tuario
ĠQuer Ã©taro
ĠAn teriormente
Ġconf iden
Ġextra cciÃ³n
Ġbu f
Ġenten diÃ³
Ġconserv adores
Ġcon g
Ġre tumb
Ġ185 4
r encia
ĠKir k
es h
Ġayud arla
Ġj udi
Ġenti erro
Ġver s
ĠdiseÃ± ador
car ga
com un
cl ismo
Ġreal istas
ĠJ udi
Ġap ri
ĠRev iew
unta in
ĠS pin
ĠA us
Ġac Ã¡
Ġatre vido
Ġren diciÃ³n
Ġpasa jes
ĠWar ri
vi dos
ĠLu ca
ad in
9 40
ĠTig res
Ġh ilos
ĠW oman
ĠO st
ĠI bar
Ġaloj amiento
ĠÃ ĳ
yo ffs
Ġconsist ente
Ġna tiva
Ġconfun dido
Ġcon son
ĠNe fer
ĠRos al
Ġprop ici
ĠPro ject
ĠvÃŃ deos
Ġen ormemente
Ġya cimiento
Ġfum ar
B ol
Ġagrade cer
Ġpres as
Ġdesh ac
Ġ11 3
Ġacep tada
ĠP TS
ĠcÃ³m ico
ĠC i
ic Ã³
ĠbÃ¡s icas
ĠcuÃ¡n tos
ĠJug adores
Ġintermin able
Ġmin orÃŃa
Ġlig as
ure l
Ã¡s quez
ĠT itu
Ġin o
ĠMen or
in go
ĠAn o
del phia
ic z
Ġmar ciales
Ġcas tillos
ĠMan uela
Ġllegar Ã¡
Ġbol as
Ġhaber te
ues tros
Ġ4 50
Ġocup aban
Ġtra idor
ĠDe ut
Te atro
Ġaprob ada
Ġgan ancia
sec ciÃ³n
ĠF iat
Ġti ran
Ġespe jos
Ġembarca ciones
Ġe ficiencia
Ġvis u
ĠTelevis ion
ĠM eso
Ġcom a
L ond
Ġest ran
quil las
Ġb ron
M r
ĠJ uego
jos a
z or
Ġpal os
d t
Ġ18 21
n ueve
Ġsal idas
Ġimpresion ado
ĠR Ã³
ĠT ac
Ġenv ÃŃo
ĠP ea
Ġhici mos
Ġs p
Â ³
Ã³r icas
Ġconti enda
ĠPro f
Ġrevel ado
Ġexclus ivo
Ġarras trando
k us
is i
rar y
Ġhar Ã¡n
Ġb all
ĠFor ce
Ġcu mb
Ġconserv aba
Ġfant Ã¡stico
âĢĵ ,
Ġperten eciÃ³
Ġconfun dir
Ġdig amos
Ġsol itaria
Ġ185 8
Ġterror ismo
ĠcÃ³m ics
ces s
Ġmon os
ien s
Ġpr Ã³logo
Ġbur l
Ġvag ab
ĠDan i
ĠBos nia
Ġneer landÃ©s
Ù Ĭ
Ġdirig ÃŃan
ĠtriÃ¡n gulo
Ġcen iza
ĠCal cio
G a
Ġconcent rarse
Ġful min
cu ando
ĠV os
omb ros
Ġprom et
cl ama
ĠCÃŃv ica
ÃŃ cola
ĠSal as
Ġespecial istas
ĠContin ental
Ġcampes ino
rim os
Ġadap tado
Ġadul ta
S ha
ĠBa terÃŃa
ĠHein rich
Ġmes eta
Ġdesarroll ando
ĠL ut
Ġex as
Ġimpre gn
ĠA vel
Ġsosten iendo
ĠSil via
Ġsegu imiento
Ġ ]
Ġdis ca
S im
Ġaclar ar
ĠMonten egro
Ġf anes
ÃŃ bal
Ġrib era
co ck
Ġ18 33
ĠPro gres
Ġden sa
ch ino
Ġ( *
Ġla var
ĠAn ime
Ġserie dad
t rans
je tivo
Ġcompar ten
ĠPa v
Ġins ol
h ay
id th
ekw ondo
Ġguitar ras
Ġcica triz
ĠD ro
Ġal berg
ĠCent enario
ĠAn gelo
ĠCam eron
Ġesque leto
Ñģ Ðº
Ġmadu rez
ol ares
Ġre querÃŃa
Ġmoles tar
Ġexca vaciones
Ġcompar a
Ġimpres cin
ĠportÃ¡ til
S ac
Î ·
ĠS ag
ĠH utch
Ġrad icales
cu ro
ĠFer gus
Ġacce diÃ³
ĠJ ue
ĠP io
Ġelef ante
Ñ ĩ
es pa
ĠPro p
ĠSem inario
Ġhermos os
en ko
Ġfal das
Ġinfec ciÃ³n
u jo
ac Ã¡
Ġab rum
ĠConstitu cional
t Ãº
Ġc enta
ĠSte p
eg al
ĠVan couver
di Ã©ndole
ĠC ementerio
Ġr ena
ĠN ora
Ġdor sal
Ġn in
Ġcomp ite
tr ad
u dad
Ġespec ÃŃficas
it ano
Ġbes arla
Ġjesu itas
tor ÃŃa
pÃ³ st
ĠUN AM
Ġf ec
ĠDe trÃ¡s
ĠWis consin
vis ibles
P ien
Ġocu pan
or b
F il
Ġen cub
conoci do
ĠF BI
Ġadvers ario
lara ciÃ³n
Ġas fal
Ġlanz as
Ġegip cios
ĠCol ombi
ĠVel Ã¡zquez
W A
Ġd ados
Ġresul tando
ĠC iudades
we en
ĠEn fer
Ġsomb rÃŃo
ĠtelÃ© fonos
ĠJ ondalar
Ġdej arme
Ġorden ar
ĠCan ada
Ġautomo vil
Ġre mor
ch arse
ĠG ia
Ġexten dida
ĠPla ce
tor iales
ĠCompos tela
Ġs able
Ġob viamente
ti eran
Ġco dos
Ã³lo ga
Ġrecl ut
Ġm osa
h im
u v
Ġconf e
Res ul
ĠFer re
Ġnu p
Ġinv entado
Par ÃŃs
ĠacompaÃ± ante
Ġgobern antes
Ġalmacen es
Ġhab rÃ¡n
Ġcora je
Ġemi te
Ġjer arquÃŃa
mi le
ado w
Ġquer Ã©is
li que
ĠEdward s
Ġvacil Ã³
ĠBale ares
x ia
Ġtranscur rido
f ag
ĠBras ile
ĠKe ith
Ġsab Ã©is
Po demos
Ġde fectos
Ġconseguir lo
Ġacab ara
ch s
Ġobserv ador
ijo te
ĠL ane
ĠResta uraciÃ³n
Ġdespre ocu
un os
ĠK ub
Ġman ufac
Ġor quÃŃ
Ġterrible mente
ĠS era
Ġgen til
Ġdes ple
ĠK ill
mit as
ĠFab io
Ġimag ina
Ġcort Ã©s
ĠMar ÃŃn
Ġcenten ar
Ġrefle jaba
Ġpal e
ab ase
ĠS O
ĠPublica tion
ĠCorn el
ĠG y
Ġesfor z
Ġdi lu
g li
ĠCal vo
ĠTest amento
Ġestru endo
ĠRe cur
Ġdo bla
ER O
Ġcontam inaciÃ³n
f us
hila delphia
Ġampl ias
Ġ185 6
Ġbo das
Ġdemo grÃ¡fica
pro ducciÃ³n
do wn
ĠG ros
ĠH Ã¡bitat
Ġgra titud
ĠLi ter
Ġprome diÃ³
Ġescas as
ĠLic eo
pregun ta
at en
Ġcons entimiento
ĠNor ton
Ġ13 5
Ġsolici tar
ĠM A
Ġam ores
ĠSec und
ĠcÃ³m ic
Ġdis posiciones
PS OE
Ġl ÃŃo
ĠJe ffer
Ġrad ar
ĠBor ges
Doc tor
Ġma quillaje
RA C
ĠBun des
F inal
ĠY osh
w ing
Ġficti cio
Ġdes inte
u gu
ĠD ale
lam o
Ġsatisfe cha
ti st
ĠCam bio
Ġfu rios
Ġcant Ã³
ĠCap ÃŃtulo
Ġart ÃŃsticos
Ġc i
Ġmedi evales
ĠpÃ¡r ra
Ġdem ues
Ġil usiones
Ġnorm alidad
ĠClas s
D en
Ġemi tida
Ġcor n
ĠCatal o
Ġprop uls
los a
Ġv Ã©ase
Ġap uesta
uri os
ĠJul ian
195 2
Ġcie ga
Ġno tado
ĠPerten ece
Ġani quil
Ġfib ra
ĠK el
Ġmar cando
ĠPublish ing
ĠsÃº bito
g is
ĠEx pe
Ġespec tador
Ġagra dezco
A mor
gas car
ĠI mÃ¡genes
E u
19 40
Ġatraves ando
ĠCon c
Ġexplic aba
M O
Ġactiv ista
m endo
Ġinv ol
Ġcar icias
Ġrob Ã³
Ġp icos
Ġilum inada
Ġampli ar
ĠLanz amiento
Ġpist olas
Ġin sa
ĠBer keley
qui dos
ĠDiv ision
Ġdesempe Ã±
ec on
ĠcÃ¡ tedra
Ġesc enografÃŃa
uy o
Ġmat arlo
el Ã©ctr
ĠCan ad
Ġintent an
Ġal udi
ĠAmb iente
ĠBl ues
Ġ oraciones
ĠE C
ĠEsch meyer
ĠSha w
Ġadyac entes
Ġsu puesta
Ġs ta
ĠIs lam
Ġtien den
Ġcal m
Ġcel este
Ġgust aban
Ġbailar ina
Ġriv alidad
Ù Ĩ
Ġs un
Ġhun dido
Ġmuche dumbre
Ġest irÃ³
Ġba jado
ĠEcon Ã³mica
ĠTo dd
Ġprovin ciales
B on
iz aron
Ġpres ta
ĠKe y
ĠAd vent
Ġras go
Ġvulner able
Ġpec ados
Ġben diciÃ³n
Ġpresent ador
ĠL ore
Ġgalax ia
y ev
Ġelectr ones
Ġaerona ve
G ol
Ġh ir
Ġcruz ada
Ġreconoc ÃŃa
Ġdescrip ciones
ĠPri x
ĠSalom Ã³n
f urt
ĠB ust
ä ¸
Ġor n
Ġpa Ã±o
ĠRa quel
Ġexig encias
Ġla zo
ĠÃ¡r bitro
ci siÃ³n
Ġenve je
Ġ185 5
Ġra yas
Ġtal entos
s Ã©s
Ġs tar
Ġmir arme
Ġnego ciar
Ġc ano
Ġro dar
Ġm orÃŃa
ĠgruÃ± ido
ul ados
ĠEmil ia
Ġtem ores
Ġmedi cin
Ġnos talgia
Ġsust o
tic e
ine os
Ġcapi tu
Ġsat Ã©lites
Ġnego ci
ĠPer ry
Ġperman encia
Ġc Ã©n
Ġse udÃ³nimo
Ġn ec
Ġtelevis iva
ĠRe yn
Ġservi dores
Ġadel antado
Ġasomb rado
ĠS ter
it re
lic es
Ġdesgra ciado
Ã³r icamente
B iblio
r ing
Ġsa grada
mos o
ĠCom pu
ĠPa tag
tern al
G O
Ġ11 4
Ġgr ad
Ġpin tada
ĠJan et
Ġdesarrollar on
Ġpe trol
Ġsub terrÃ¡neo
ĠMor elos
Ch ile
ĠAmist oso
Ġtrist es
Ġciru jano
ĠmÃºs culo
ĠP eg
cios os
or ios
Ġn ÃŃ
ĠL ÃŃbano
Ã©n ico
ĠL ike
ĠTri ple
Ġsegu idos
U r
Ġalim entar
Ġtes oros
ĠD ime
Ġcol gando
ion ista
Ġtransmi tido
ĠKras no
Ġm entes
Ġdivor ci
ĠBM W
h ne
Ġan chas
Ġju icios
Ġafric ano
ĠJoy ce
Ġdefin ida
Ġcoinci dencia
Ġestrateg ias
dera ciones
ĠCh ico
ĠNe il
ĠVal de
H A
ĠC ielo
ĠEs as
Ġapun tÃ³
Ġ18 42
Ġresul tan
Ġ ÃŃdo
Ġca dera
Ġgran os
ĠtÃ¡c tica
ĠAr co
ĠSer ge
ĠQu inta
al an
Ġab uso
ĠvÃ¡l v
Ġubic ados
ĠBry an
Ġindi cando
V an
gos o
ry s
ĠD ennis
Ġpref iero
Ġtestimon ios
Seg Ãºn
ĠMis uri
Ġsignific ar
ĠÃ¡n gulos
Ġmari posa
ĠRes istencia
Ġreci bida
Ġapoy ando
Ġtom Ã©
19 30
Ġconce jales
ĠH ombres
Ġfal sas
ĠS N
g ios
Ġimp renta
Ġexig ÃŃa
Ġarque olÃ³gico
d arse
Har ry
Ġregres aba
tr ero
ĠCre aciÃ³n
Ġsepar ar
Ġalco h
Ġsuminist ros
Ġtir Ã³n
Ù ħ
Ġcruz aba
Ġllev ados
Ġch amp
Ġconstitu ÃŃa
ĠSh ane
Ġpronunci ado
ĠD icha
Ġcar dÃŃa
Ġco br
ĠIs ma
Ġcompon er
I t
ch is
ĠOb s
Ã© ci
ĠBe et
ĠA gn
orm al
ĠAs ist
Ġencuent ras
Ġofre ciendo
Ġmin or
ĠG Ã¶
Ġc itar
Ġf Ã¼r
Ġmole cular
ĠLou ise
Son riÃ³
ĠVi ve
Don ald
Ġpas adas
ti ga
Ġvac as
Ġagr icul
Ġmu riendo
Ġmat aron
Ġafirm aba
ĠNingun a
Ġmo del
cu ta
ĠPen al
ĠCom mun
Ġafec tados
Ġacarici aba
ĠAntÃ¡r tida
ĠN Ã©stor
Ġtradu cir
ĠLor ca
Ġla deras
ĠT us
To p
tar iado
ĠO m
Ġaguard aba
Ġla titud
tor as
ĠP rÃ³
Ġprotagon izÃ³
ĠCar la
ĠDun can
Ġfabric ar
v Ã©ase
ĠfilÃ³so fos
Ġab ro
po p
Ġni Ã±ez
Ġdipl oma
ĠG el
ĠG em
ĠSta tes
che vi
Ġes quinas
Ġfres h
al is
cu m
Ġmar g
ĠlingÃ¼ ÃŃstica
ĠpuÃ± al
Ġalar gÃ³
Ġgran ito
Ġrefor zar
Ġpan eles
ur ce
Ġprodu cidas
amb res
sus pirÃ³
ĠZ or
Ġrepi te
in aria
Ġcambi aron
iÃ©ndo la
Ġocta va
Ġdirec tiva
ĠRon ald
al di
Ø ±
Ġrela ta
ĠMu cho
Ġolvid Ã³
jes e
Ġpe gÃ³
Ġderro tas
ch ones
Ġba Ã±os
ĠK now
Ġata caron
Ġrin cones
A f
Ã¨ res
Ġfin anciaciÃ³n
ĠWat son
ĠT ales
ĠSem ifinales
Ġen ju
Ġvic tor
Ġop tÃ³
Ġefec tivos
Ġcircu itos
sig lo
Ġdeci sivo
ĠMor e
Ġdeb ieron
ĠPer ci
Ġran king
ĠcÃ³ digos
ad illo
ĠMar in
Ġinconven iente
ĠF ren
Ġma estrÃŃa
ĠVig il
ĠpÃ© talos
Ġper las
Ġco Ã±o
Ġsocial ismo
ĠRe mo
ĠEst rada
min as
ĠS ÃŃn
Ġpreocu pe
ĠBeat les
ir Ã©
Ġ24 0
Ġintens amente
ĠB res
Ġale gra
ĠF ior
Ġinter rup
gon eta
Ġcigar rillos
Fe cha
ĠCrist al
19 48
ĠVol ks
Ġacus Ã³
pi de
ĠR udol
ros os
ĠAm Ã©ricas
Ġdesl umb
P O
Ġca ci
lant ic
L ista
Ġfr ÃŃas
Ġdemas iados
ĠHu a
Ġresidu os
ĠW alla
ĠMat h
Ġesenci ales
pi d
ĠOb tuvo
Ġdan Ã©s
ĠFreder ick
Ġinvol un
ĠdiscÃŃ pulos
Ġinoc entes
Ġcas ados
Ã¡ menes
Ġtal los
Ġpola cos
Ġc ente
Ġrad ios
Ġlist ado
Ġacog ida
Ġapar eciendo
Ġmin Ãºs
Ġencant aba
Ġav anza
ud ales
k Ã¡n
19 49
Ġw idth
Ġsuperfici es
ĠRe in
Ġtea tros
tr inas
A par
Ġval ioso
Ġincl usiÃ³n
Ġh oci
ĠS omb
ĠfÃ¡ ciles
Ã¡ce o
Ġconj unta
Ġin unda
Ġ185 1
Ġech aron
ic om
ĠL oz
ĠG estiÃ³n
ĠU TC
Ġsal ones
195 1
Gab riel
Ġv iu
Ġdepen der
Ġbe bido
ĠrÃŃ e
Ġseptentri onal
Ġp om
ĠP ip
ĠpuÃ±eta zo
Ġsegu ÃŃ
do este
Ġfran quista
ĠBal d
Ġp Ã³r
P lan
Ġso Ã±ado
te pec
ul in
Ġalcanz an
ĠHill s
ĠMar ino
ĠPor tal
Ġt ÃŃos
Ġgobern ar
Ġres uci
Ġfal taban
Ġincorpor ado
Ġmodific ar
Ġinsist encia
ĠOk lahoma
ĠL lu
Ġp ica
Ġcor rido
ĠMunicip alidad
it anos
Ġjust ificar
uf ra
amp ista
ras h
ĠK ap
ĠStar s
bi d
Ġfro tÃ³
Ġsuf riendo
Ġfla uta
ĠA pol
Ã©ndo les
Ġconfi aba
in ga
Ġbas taba
Ġdic tador
Ġexces iva
Ġayud ando
ch ich
Ġmor os
k is
Ã© i
M ich
âĢ Į
Do wn
A ctu
ĠCar ab
Ġarrodill Ã³
Pre mios
ĠUl tra
ana to
ĠP ine
Ġexpres idente
ĠJama ica
c un
ĠSal va
Ġcilind ros
Ġp ay
ĠU tah
Ġreprodu cir
chill erato
ro ll
Ġdesesper adamente
ÅĤ a
ĠBona parte
rea k
D iv
o ff
Ġposi tivas
Ġfavor ables
ĠP ut
Ġpor quÃ©
Ġlim itaciones
ĠZac ate
Ġmel ena
Ġg av
os hi
bi mos
isto ire
Ġrespe tar
Ġg eme
ĠTh Ã©
Ġcolabor ador
Ġproducir se
Ġa tis
Ġy e
Ġapoy aba
Ġal t
Ġpre ma
Ġad s
Ġguardi Ã¡n
ti tos
ĠIn quisiciÃ³n
ĠMar tÃŃ
Ġmon Ã³
- '
ĠRe un
ĠD as
ĠValdi via
Ġl it
tin e
co tt
Ġcer radura
Ġconsul tar
Ġinfor mÃ¡tica
Ġmes ita
Ġque jas
ĠF oro
gar os
Ġguard ado
Ġpob lados
Ġ[ âĢ¦
ris h
ĠNatural eza
ĠTen drÃŃa
irm ingham
gos a
emas iado
Ġsacri fic
ĠInte ligencia
N ingun
Ġempres arios
ul f
Ġcolon izaciÃ³n
Ġunif ormes
Ġacer caban
Ġv illas
ĠS onia
Ġpens aban
ĠAs s
Ġf l
ĠF ray
M ur
Ġpol vor
Ġtelef Ã³nica
Ġenerg ÃŃas
Ġarre ci
ĠConserv atorio
ĠTaller es
Ġaproxim ada
Ġal men
Ġtre mendo
Ġrecur rente
ĠMich o
Ġingre dientes
ĠGaller y
D eci
Ġg am
Ġmor ib
Ġgigantes co
e go
ĠP N
Ġj inete
Ġcabell era
Ġmil itantes
Ġus ur
ĠCon curso
car lo
ra cia
Ġexpe diciones
ĠF om
ĠGeo ff
Ġprece dentes
Ġes quÃŃ
ĠAr enas
Ġver nos
ĠIn tent
940 228
Ġtemp er
Ġinus ual
Ġllev Ã¡ndose
Ġregu laciÃ³n
Ġ7 50
Å Ļ
Ġper gam
dente mente
z uela
Ġref rig
Ġorden adores
drÃ¡ ul
h art
v ario
iv ar
Ġocupar se
aca f
ib io
Ġat letismo
ĠVir g
ĠrÃŃ gido
ĠL ock
Ġper on
ici oso
Ġmar inas
Ġsuel to
Ġse vera
ĠÃ¡n imos
Ġtig re
ĠN C
Ġab ren
fac tos
Ġconsider adas
dul idad
Ġtra taban
Ġperman ecÃŃan
ĠF ay
ĠV arela
Ġesc ombros
Ġaf irman
ĠCol in
Ġnorte americanos
Ġfur goneta
Ġabur rido
Ġdor so
ĠL iam
Ġb ea
Ġmus lo
Ġcontemp la
Ġb estias
Ġmostr arse
Ġaum entado
Ġdesagr ad
den t
Ġren dir
ĠAnd reas
ĠErn est
Ġra tÃ³n
Ġcol chÃ³n
Ġampl ios
ĠcatÃ¡stro fe
Ġar dÃŃa
Ġprecau ciÃ³n
ij i
Fran k
Ġflam enco
Ġtripul antes
u an
ĠC en
ĠMas culino
Ġgra cioso
Ġus adas
ĠMada gascar
Ġimpuls Ã³
ĠGru pos
Ġgan arse
Ġc is
Ġ# '
ĠFort una
ĠE z
ĠP RI
Ġ( Â¿
car ia
Ġocur riendo
Ġpier den
Ġaj ena
Ġh adas
ĠSu p
ĠGob ernaciÃ³n
Ġbi ologÃŃa
ĠLim ita
Ġmor ena
ĠEl is
ian s
d Ã©n
ĠB j
Ġco ca
cos as
Ġescuad rÃ³n
in ia
ĠÃŃnti ma
Ġpre m
stad t
ag Ã¼
ama ciones
ci tas
ĠU A
Ġba iles
ĠMas s
ĠDes cen
ĠJa cinto
Ġconcur s
ĠSer ra
ER A
ĠJam ie
Î º
Ġpareci era
ĠseÃ±or ÃŃo
enci ada
Ġretir aron
Ġcastell ana
B ig
in ista
G P
ter apia
he d
Ġurb anas
Ġarres tado
Ġc im
Ġgener Ã³
Ġproyec tiles
Ġfoto graf
ĠQuÃŃm ica
Ġm antas
Ġg imnasio
ian i
Z A
Ġs heriff
ĠPascu a
al th
tu la
Ġinde f
Ġtra te
Ġdolor osa
cas e
Ġpro dig
Ġocul tos
Ġcomplic ada
Ġar cilla
Ġjue gan
Ġanoch ecer
Ġconf iado
Ġderro taron
Ġcent r
ĠGodo y
ĠX L
ĠLev ante
Ġverti ente
ĠCol lection
Ġcomp l
ĠPro vi
Ġacces ible
ĠÃĵ pera
Ġans ioso
Ġmovi Ã©ndose
ĠMitch ell
ĠS ra
Ġcal ibre
Ġvas co
Ġag onÃŃa
Ġalco ba
Ġe ri
ĠT ang
ri et
ĠBel lo
Ġveter ano
ĠComp lu
ĠAristÃ³ teles
Ġemp ar
Ġdra mÃ¡tico
Ġcas ar
ĠCor rea
ĠmÃ¡r genes
ĠPens aba
ac ciones
Ġval iÃ³
Ġya cimientos
Ġpen ales
Ġtra t
ĠPue den
ĠastrÃ³n omo
âĢĶ "
Ġsub familia
Ġafirm ando
Ġaerona ves
Ġ18 47
ĠNo w
Ġna tivo
ĠHar per
Ġreflex ionar
ph or
Ġprelim inar
ĠR ivas
ĠPort land
ĠRib era
Ġn et
ĠE ze
ĠelÃ©ctr icas
Ġhon ra
ĠAre quipa
Ġconv ul
Ġque mado
Ġcomp rim
ib us
Ġsub ieron
ĠEntren ador
Ġgubern amental
F ar
Ġilum inÃ³
Ġcan on
sin ki
peci e
col ÃŃa
ĠAgu il
ĠCamil o
ĠGener ales
ici ales
Ġbas ti
Ġbacter ias
tas is
Ġsinte tiz
Ġsem ifinal
meral da
Ġmi xto
ĠCa fÃ©
Ġcruz aron
Ġhall Ã³
Ġaux ilio
Ġmales tar
ĠGer ona
zco a
Ġmemb rana
19 43
Ġi ran
Ġende rez
qu a
ru dencia
ĠRo w
Ġsuger ido
Ġhub ieras
asa ki
ĠLin ux
Ġjugue te
ĠE instein
ĠF ight
Ġperman ecen
vir us
ĠCoun try
ĠCarta go
ĠS iento
ĠGu ana
Ġapoder arse
Ġinquie ta
ĠÃģ reas
Ġnacional ismo
T L
Ġcom ÃŃa
Ġorg Ã¡nica
Ġla ta
Ġmol estia
ĠF K
Ġbar es
Ġconjun tamente
Ġmaci zo
ĠseÃ±al aba
ĠsÃŃn drome
Ġclasific ar
Ġbl usa
ĠZ an
ĠDa ta
qu ien
ĠacompaÃ± ados
ch ner
eo t
Â ·
ĠRos si
Th omas
Ġtea trales
ĠN ingÃºn
Ġpresent ando
Ġcant aba
Ġpira ta
Ġproporcion Ã³
omen cla
Ġcubr ÃŃan
Î ¼
ĠS la
Ġilum in
T ur
Ġdiscip linas
Ġ18 25
Ð½ Ð¸
ĠBat tle
i tim
ĠMag gie
ĠDan iela
Ġprome te
ĠDrag on
ĠQu ijote
Ġacos tarse
Ġ185 3
B ob
ĠTerri torio
Ġenter as
ran as
Dic cionario
Ġsuper st
Ġcompren dÃŃ
ull Ã³
Ġtemblor osa
Ġal zando
No ta
ent ina
Ġentre laz
Ġmuer tas
Ġrom anas
Ġco j
Ġ* :
Ġjugue tes
Ġmo zo
che a
Ġacu mulaciÃ³n
gar d
Ġe dades
Ġpes a
Ġnacional istas
Ġilust re
Ġpantal las
ĠConc acaf
Ġvis uales
ib il
Ġjug ados
Ġenvi ada
n eo
Ġver ja
in or
chu ca
br ica
Ġcapital ismo
ĠÃģ guila
ĠPe tr
ul i
ĠLib rary
ĠP rieto
ĠH ig
Ã¡c tica
ĠP into
Ġcla ves
Ġpob lada
ĠDi ablo
Ġbiblio tecas
ĠpirÃ¡mi de
ĠD ama
gu esa
Ġhaci Ã©ndole
ĠC AR
E F
es tal
ĠCat Ã¡logo
ĠLin ares
Ġdiscul pa
Ġoport uno
g Ã¡ndose
ĠDe le
Ġimag inÃ³
Ġac al
Ġen gu
ĠO range
Ġrecor riendo
sie ur
ĠWe ek
Ġpopular mente
Ġsospe chaba
Ġe j
ĠBir d
Ã©m icas
ĠEn trÃ³
Ġmal tra
Ġconcre ta
Ġcomp licaciones
ĠTw o
B re
Ġ185 2
ĠContr eras
Ġsin tiÃ©ndose
ĠV or
Ġacord ado
Ġfund amento
p ÃŃ
ci rÃŃa
ab ama
ĠAb ierto
Ġdisminu ir
n ales
ĠSal iÃ³
ĠvÃŃs pera
Ġparlam entarias
Ġtener lo
ĠOli ve
ell s
Ġpant anos
C ha
Ġdu dÃ³
ĠRoger s
ericor dia
Ġf eo
Ġd ans
ĠWhit ney
Ġrepe tÃŃa
Ġdes tello
Ġilust res
Ġcon gregaciÃ³n
Jo der
ĠExper im
ĠA B
Ġin can
loven ia
ĠDe bo
ĠHab sburgo
ĠJer emy
Ġ18 14
Ġfo co
cent ri
ĠLe andro
Ġop uso
ĠTh ys
Ġvincul ado
Ġcar peta
Ġutiliz aban
wa gen
Ġpermit ÃŃan
di ana
ch eras
ĠChel sea
Ġmis m
Ġ18 45
ĠA cto
Ġcompar tÃŃa
ĠY ang
emp ezÃ³
ĠE y
ĠDar win
A del
Ġ17 5
Ġdirig iendo
Ġempres arial
Ġintrodu ce
Ġtorm entas
Ġser Ã¡s
Ġconstru ye
Ã© semos
ĠE che
ĠPro to
Ġregist rar
ĠCh ecos
ĠL lan
Ġres ol
Ġobs esiÃ³n
Ġnacional ista
ĠdiseÃ± Ã³
ra i
19 46
ros as
Ġ11 6
Ġparroqui as
ĠA pÃ³st
ĠPo int
Ġdedi cadas
Ġaerol ÃŃnea
Ġestu pen
Ġhalla zgo
Ġdest er
Ġnu dos
Ġpru dencia
ĠPo e
Ġindi cios
ĠMo del
e jos
ĠEst ambul
ĠErn st
Ġemp i
ad ar
ma ck
Ġinter medio
Ba jo
ĠR ace
Ġ18 35
un dos
Ġ18 49
Ġdom inaciÃ³n
ĠEs col
Ġdramatur go
Ġfor zada
ĠPro tecciÃ³n
ĠDi am
Ġli qui
Ġata Ãºd
Ġpa gÃ³
ĠAlban ia
ĠM C
ĠCu rios
ma in
Ġmar tillo
Ġ12 3
Ġempu jar
y i
ĠIlust raciÃ³n
ĠVit oria
ti cidad
ĠH ob
ĠparÃ¡ metros
Ġdestru yÃ³
Ġa genda
ĠEs pin
ĠÃ¡ pice
Ġcau te
ĠAl t
ĠrÃ© plica
et he
Ġmun iciones
ĠMc G
Ġsuspen dido
Ġ æ
Ġayud arme
Ġmister ios
ĠCo aliciÃ³n
V ida
val do
Ġo igo
Ġtru co
Ġl itoral
ĠB Ã©isbol
Ġacer quÃ©
Ġenga Ã±ado
graph ic
Ġbas Ã¡ndose
Ġperm ita
B est
Ġexpor taciÃ³n
ĠG Ã¡l
Ġro dÃ³
ometra jes
Ġib n
ĠAquil es
Te le
ĠMit re
ĠH in
ĠInter Ã©s
Ġantic u
Ã© ticamente
ĠTen nes
y ama
ĠT ea
Ġpres iones
Ġpon drÃŃa
st rong
ĠP acto
ĠL iu
Ġencar gados
H iggins
K A
ĠD ame
ĠP sy
ĠZ u
aliz aron
and on
Fu era
ĠAC B
it ora
des es
Ġver b
ĠP ico
ĠCh ad
Ġhabit an
ĠJes se
ĠOn ce
ĠBer en
ĠUl ises
ĠBro thers
Ġque ja
Ġman dos
Ġsignific Ã³
Ġencant ador
ĠMo de
ĠarquitectÃ³n ico
gar te
Ġcolo cada
Ġdieci nueve
Ġdiplom Ã¡ticas
Ġcarb on
av es
CuÃ¡n tos
Ġpregun tando
Ġrecon for
mon s
Ġponer le
g icas
Ġv izcon
ĠF us
Ġlec turas
Ġrad ial
Ġconclu ido
ĠPerio do
Ġla gar
Ġdis puestas
ĠLo gan
Ġignor aba
P adre
Ġrepar aciÃ³n
ipÃº zcoa
ĠD ru
Ġ11 7
Ġli tera
ĠhuÃ©r f
Ë Ĳ
Ġlad rillos
Ġh ind
qu Ã©n
ĠT omas
Ġw as
Ġlist os
ĠestÃ¡n dares
Ġbru jas
Ġespir al
Ġcor pul
Ġcoin ciden
Ġnum er
ĠCandida to
ĠPr om
Ġencen dida
ĠToy ota
Ġmon t
re tario
Ġmensa jero
Ġgratu ita
Ġtraves ÃŃa
Ã« n
Ġl omo
ĠAdri an
Ġj ac
Ġquitar le
ĠAn ders
Ġado pciÃ³n
ĠMur phy
ĠComplu tense
Ġcon tor
ĠFran cÃ©s
ĠFin n
Ġcru ci
Ġcon je
con cl
Ġcusto di
Ġs ana
Ġdes may
ĠMas on
Ġor gas
Ġgol f
Ġocupar on
ĠnÃ¡ us
acen tista
Ġc allÃ³
Ġo ce
Ġjugar on
ĠSu cre
Ġara Ã±as
Ġzum bido
ĠN aran
Ġtu vimos
ĠBor goÃ±a
To das
ĠAb dul
ĠM P
Ġconfes Ã³
Ġ18 39
Ġestudi a
ĠMo isÃ©s
ĠS cha
Ġdomin aba
Ġorb itales
Ġdes il
Ġayud arle
ĠGue vara
Ġdes in
Ġmater na
ĠGuad al
Ġfor amin
19 44
Ġdele gado
H onda
g ad
Ġin of
ĠO per
ĠCon ven
ĠLeon ard
N uestra
im an
Ġsuf rieron
ĠD um
Ġre edi
Ġapresur adamente
Ġmin eros
Ġenvi aron
Ġsir vieron
Ġexig ir
pe a
itan ia
y ar
Ġtitu be
Ġdepen dÃŃa
ĠFal con
ĠA j
pa ti
Ġcontra tÃ³
Ġins cripciones
Ġescol ares
Ġcas tel
ĠMa ug
Ġf Ãºn
Ġesp anto
Ġos cil
Ġremo de
Ġagrade cido
ĠGÃ©n ova
ĠTh is
Ġinspir ada
Ġvende dor
Ġquie ta
Ġincom ple
Ġat mos
tras e
Ġmon ja
ĠC C
ras ka
ĠY ar
Ġsimp a
ie ga
Ġprim arias
Ġhici ese
Ġtempor ales
ĠFores t
A z
ĠP ale
Ġlib rerÃŃa
Ġconcl uy
SeÃ± ora
Ġtal ones
is elle
tal eza
Ġpal ide
Ġcorre os
olÃŃ tico
Ġn al
po dos
ĠHer mann
Ġsem illa
ĠM isiÃ³n
Ġfor zar
val u
ĠZÃº rich
Ġas tro
ĠI TA
ĠP eople
Ġoper ador
ĠT ina
Ġqu ir
Ġentre cer
Ġcal ientes
ĠDon de
Ġentreten imiento
S ar
Ġreconstru ir
ĠEth an
Ġper ez
ĠBer m
ila ter
ĠEdi mburgo
ĠGreg ory
U A
ĠKn ight
T ampoco
p istas
W hat
ĠBlo od
Ġanim Ã³
ĠV eg
Ġdestro zado
ĠClar ke
ĠIn mediatamente
Ġmator rales
Ġesc ab
ti zada
Ġso Ã±ar
Ġdiag nos
Ġba terista
Est udi
Ġatraves aba
Cin co
Ġs ales
Ġpara guay
Ġ20 21
A penas
Ġtr om
Ġmar fil
19 41
Ġfin as
ĠDen ver
M adre
Ġdest inadas
Ġlig eros
ĠMunicip ios
Ġsu pera
at lÃ¡n
É Ļ
ĠIgu almente
tivi dades
Ġhos pit
Ġafric anos
ant al
ĠD ÃŃ
Ġprior idad
ĠDat abase
B ah
du cto
Ġcompar ado
ĠSacra mento
U nos
ser ie
ĠPiz arro
N osotros
Ġa ven
Ġex centri
Est Ã¡n
ĠSan tuario
Ġcohe tes
Ġimplem entaciÃ³n
k on
Ġreconoc en
is ca
ez o
Ġsinies tro
Ġin Ãºtiles
ĠAc ab
Ġhaci Ã©ndolo
Ġn on
Ġ12 1
Ġlog ran
ĠVelo cidad
Ġsal arios
Ġcon dados
ĠAu x
ab lanca
ĠP hiladelphia
Ġmat anza
isfer io
M E
Ġmi ran
Ġbigo te
Ġata ca
Ġdeliber adamente
ĠN ord
Ġfrun cido
Ġpro posiciÃ³n
ÃŃn dr
Ġpor cel
iv es
Ġreco lec
Ġpola ca
Ġsubmar inos
c tions
Ġcant os
Ġprosper idad
Ġcos tados
ĠTen ÃŃan
ĠB ent
Ġrefer ido
ĠG lad
Ġcam arote
ĠMon ts
Ġatra ÃŃdo
Ġsin Ã³nimo
ĠPro ce
Ġdetermin Ã³
D omin
Ñģ ÑĤ
Ġsindica tos
Ġ' Â¿
ĠBar t
cina ciÃ³n
viv encia
ĠW er
Ġentr Ã©
Ġprimo gÃ©n
Ġd anz
Ġreal ismo
icas so
Ġmir Ã¡ndome
Ġacos tado
Ġentr aban
- ),
Ġin dem
Ġincl us
Ġcombati entes
t ton
Ġan he
ĠTro feo
Ġref ieres
p aces
end s
Ġabsur da
Ġb Ãº
Ġenca den
ĠIb Ã¡Ã±ez
ĠMin d
ĠMin istros
Ġcreer lo
Ġfing ir
Ġf eb
Ġrit mos
B asta
ĠA ch
Ġregist rados
Ġinsignific ante
Ġsab rÃ¡
Ġden so
ĠBer na
re inato
ĠCas tle
ĠAn ima
Ġam argo
Ġinf un
e Pub
Ġinstal ar
Ġ12 7
Ġhil era
Ġinmig raciÃ³n
ĠestratÃ© gica
tio pÃŃa
Ġasegu rado
ĠHel sinki
ĠtÃºn eles
At lÃ©tico
Ġse t
ĠK r
Ġgi rando
Ġl itu
Ġpu reza
Ġ18 46
Ġno veno
ĠL OS
ĠTennes see
An te
In stituto
Ġdivi dir
- )
P on
Ġedi ficaciÃ³n
ĠKa w
Ge orge
ir s
tol icismo
Ġs pecies
Ġpes adas
Ġacantil ado
Ġmas acre
K ar
Ġplante a
L lev
ĠC rea
Ġgri egas
Ġmod ales
Ġcos tera
Ġapa gar
Ġformid able
ce o
cin i
J an
vi ales
C rist
Ġin da
Ġsen os
ĠRom eo
ĠacÃºst ica
c ens
ĠV ern
ĠAllen de
K ing
es tros
ĠB ris
Ġrepublic ana
C ruz
ĠH aya
Ġmar chaba
ĠÃ¡ b
Ġg ene
ĠAn dra
ĠAy ala
Ma x
ĠC ip
ch ia
Ġsof istic
Ġintu iciÃ³n
ĠB irmingham
arÃŃa mos
Ġla m
19 42
Ġsa xo
Ġment Ã³n
ĠFri tz
M Ã¡
T ÃŃtulo
Ġpos Ã³
iÃ©ndo lo
pi diÃ³
id ora
Ġlic or
ĠR andy
Ġsosten ido
ĠCic lismo
Ġmotoci cle
ĠEstru ctura
ore ma
ĠAst ron
Ġatraves ado
b eth
Ġin dia
ĠTok yo
Ġfabric ado
Ã¸ r
ĠreÃŃr se
Ġconvoca toria
Ġhum ill
Ġro llo
Ġinvoluc rado
Ġexplor ador
ĠOrig inal
Ġpues tas
ĠRa ven
C LO
ĠPri mo
D ÃŃa
Ã Ĺ
Ġcruz adas
abas co
ĠâĢ ¢
ĠvÃŃn culos
Ġ29 05
Ġbot ÃŃn
Ġcal zada
Ġdomin ado
Ġempren diÃ³
ĠEpiso dios
P ers
Ġas in
Ġtumb ado
Ġfati ga
ti ese
B or
Ġre iter
Ġsuper visiÃ³n
ĠE usk
Ġinex plic
Ġbaran dilla
ĠDe v
ĠGu ÃŃa
reg Ã³
ĠPres enta
ĠMic ro
do le
ĠPrincip ado
Ġevent ualmente
ĠCor o
fortun adamente
in z
ĠT O
Ġap uesto
ĠRe bec
ĠCa dena
Ġinquie tante
Ġex Ã¡menes
Ġbes ar
j ol
Ġproce dÃŃa
ĠPre par
ĠNa k
ĠPen ÃŃnsula
Ġcontribu ir
ĠAlma gro
ĠNo t
ĠCent ury
ĠT all
ĠEs pada
za ga
g ase
Ġsu da
Ġanim ados
Ġfas tidi
Ġdesconcer tado
Ma Ã±ana
H or
ĠE timologÃŃa
Ġlanz aba
ev elt
p ra
Ġrec rea
ĠWell s
C ra
Ġt ensiones
ĠF ly
Ġdivi diÃ³
ĠB ug
p iÃ³
ĠAn Ã¡lisis
ĠLe x
ro ugh
qu ilo
ĠBer t
Ġexplic arle
Ġfirm es
z aban
Ġpala cios
ĠO reg
Ġnad ar
ĠP ris
ĠCon cilio
ro quÃŃ
Ġ11 8
Ġit iner
N E
Ġlarg ometraje
Ġbot Ã¡nicos
eci miento
Ġcolab ora
ĠC M
ĠT ala
Ġservir ÃŃa
Ġsop rano
19 47
orn ing
Ġinsign ia
Ġsin cron
tin ente
Ã©m ico
ĠM ess
iuda dela
Ġdes ac
go w
Ġal tera
Ġdist anci
do men
Ġbas ÃŃlica
ĠR A
ĠPos e
m em
ĠSmith s
Ġdeshac erse
Ġcont un
vie w
ĠClin ton
[...]
