{
  "!": 10,
  "!!": 15632,
  "!!!": 37707,
  "\"": 11,
  "\"!": 37173,
  "\"'": 5035,
  "\"',": 13549,
  "\"'.": 13310,
  "\"(": 45136,
  "\")": 6235,
  "\"),": 10213,
  "\").": 10334,
  "\",": 945,
  "\".": 848,
  "\":": 11577,
  "\";": 9711,
  "\"?": 16453,
  "\"[": 21608,
  "\"Â¡": 15117,
  "\"Â¿": 13182,
  "\"âĢ¦": 28175,
  "\"âĢĶ": 16872,
  "\"âĢĶ.": 46592,
  "#": 12,
  "$": 13,
  "%": 14,
  "%'": 19714,
  "%)": 5534,
  "%),": 28206,
  "%).": 33195,
  "%,": 16493,
  "%.": 15196,
  "&": 15,
  "'": 16,
  "'\"": 5623,
  "'\",": 13212,
  "'\".": 11970,
  "'(": 13208,
  "')": 2105,
  "'),": 4723,
  "').": 6631,
  "'):": 34875,
  "');": 40810,
  "',": 647,
  "'-": 20878,
  "'.": 924,
  "':": 2485,
  "';": 7425,
  "'=": 44518,
  "'d": 35161,
  "'ll": 36998,
  "'m": 19360,
  "'re": 30194,
  "'s": 2552,
  "'t": 10055,
  "'ve": 43664,
  "'âĢĵ": 26406,
  "'âĢĶ": 42067,
  "(": 17,
  "('": 44283,
  "()": 26878,
  ")": 18,
  ")\"": 13026,
  ")\",": 30870,
  ")\".": 31623,
  ")'": 3256,
  ")',": 10369,
  ")'.": 15545,
  ")':": 17203,
  ")(": 40116,
  "))": 28640,
  "),": 664,
  ")-": 34709,
  ").": 677,
  ")...": 38780,
  "):": 3125,
  ");": 4321,
  ")<|": 7350,
  ")=": 27266,
  "*": 19,
  "**": 8971,
  "***": 24780,
  "****": 47119,
  "+": 20,
  "++": 42610,
  ",": 21,
  ",\"": 18433,
  ",'": 9497,
  ",-": 47405,
  ",.": 48798,
  ",[": 47885,
  "-": 22,
  "-'": 22758,
  "-)": 23794,
  "-),": 23739,
  "-,": 12775,
  "--": 6132,
  "----": 30409,
  "-.": 6601,
  "-Â¡": 34335,
  "-Â¿": 15590,
  ".": 23,
  "..": 783,
  "...": 1200,
  "/": 24,
  "0": 25,
  "00": 521,
  "000": 3825,
  "001": 47331,
  "01": 6653,
  "02": 7976,
  "03": 7527,
  "04": 7640,
  "05": 6091,
  "06": 6782,
  "07": 6862,
  "08": 6743,
  "09": 6646,
  "1": 26,
  "10": 1758,
  "100": 8238,
  "1000": 35735,
  "101": 25189,
  "102": 33559,
  "103": 35349,
  "104": 34827,
  "105": 31411,
  "106": 36603,
  "107": 37995,
  "108": 36912,
  "109": 35427,
  "11": 2591,
  "110": 26015,
  "111": 34940,
  "112": 33931,
  "113": 31705,
  "114": 33451,
  "115": 32126,
  "116": 36777,
  "117": 34428,
  "118": 28257,
  "119": 40852,
  "12": 2036,
  "120": 24363,
  "121": 44337,
  "122": 44794,
  "123": 39596,
  "124": 43897,
  "125": 31086,
  "126": 46391,
  "127": 46104,
  "128": 37436,
  "129": 45401,
  "13": 2335,
  "130": 27771,
  "131": 48545,
  "132": 45343,
  "133": 46668,
  "134": 46986,
  "135": 39504,
  "136": 45920,
  "137": 44770,
  "138": 48819,
  "14": 2288,
  "140": 37430,
  "144": 48312,
  "145": 46948,
  "148": 48533,
  "15": 1981,
  "150": 24339,
  "152": 41626,
  "153": 48916,
  "154": 46446,
  "155": 47040,
  "157": 49900,
  "16": 2082,
  "160": 34485,
  "17": 1950,
  "170": 43434,
  "175": 48280,
  "18": 1364,
  "180": 34697,
  "1800": 50116,
  "1850": 48763,
  "1860": 47362,
  "1864": 49362,
  "1865": 47065,
  "1867": 46893,
  "1868": 45005,
  "1870": 43683,
  "1871": 48974,
  "1872": 50243,
  "1873": 47522,
  "1874": 48801,
  "1875": 48412,
  "1876": 44542,
  "1878": 44994,
  "1879": 45506,
  "1880": 43652,
  "1881": 41821,
  "1882": 45458,
  "1883": 43958,
  "1884": 45521,
  "1885": 43505,
  "1886": 44558,
  "1887": 45445,
  "1888": 42684,
  "1889": 41732,
  "1890": 40403,
  "1891": 39589,
  "1892": 42284,
  "1893": 43341,
  "1894": 40576,
  "1895": 37257,
  "1896": 40132,
  "1897": 40065,
  "1898": 37538,
  "1899": 39604,
  "19": 654,
  "190": 44909,
  "1900": 30410,
  "1901": 36849,
  "1902": 38201,
  "1903": 35337,
  "1904": 36751,
  "1905": 33643,
  "1906": 34401,
  "1907": 35525,
  "1908": 34808,
  "1909": 33628,
  "1910": 27885,
  "1911": 30782,
  "1912": 28671,
  "1913": 28120,
  "1914": 25245,
  "1915": 29812,
  "1916": 30444,
  "1917": 29696,
  "1918": 25554,
  "1919": 27898,
  "1920": 26002,
  "1921": 29652,
  "1922": 28380,
  "1923": 29125,
  "1924": 28907,
  "1925": 27847,
  "1926": 28613,
  "1927": 28497,
  "1928": 27080,
  "1929": 26978,
  "1930": 22414,
  "1931": 25154,
  "1932": 26138,
  "1933": 25391,
  "1934": 25392,
  "1935": 24471,
  "1936": 19741,
  "1937": 24974,
  "1938": 24743,
  "1939": 19629,
  "1940": 22203,
  "1941": 23644,
  "1942": 23845,
  "1943": 23073,
  "1944": 23527,
  "1945": 18741,
  "1946": 23302,
  "1947": 23977,
  "1948": 22585,
  "1949": 22625,
  "195": 4267,
  "1950": 20703,
  "1951": 22647,
  "1952": 22185,
  "1953": 21412,
  "1954": 21561,
  "1955": 20955,
  "1956": 20457,
  "1957": 20224,
  "1958": 19188,
  "1959": 19793,
  "196": 3335,
  "1960": 18080,
  "1961": 19230,
  "1962": 18061,
  "1963": 18171,
  "1964": 17568,
  "1965": 17482,
  "1966": 17287,
  "1967": 16767,
  "1968": 16043,
  "1969": 15981,
  "197": 2745,
  "1970": 14873,
  "1971": 16094,
  "1972": 15463,
  "1973": 14665,
  "1974": 15269,
  "1975": 14527,
  "1976": 14287,
  "1977": 14320,
  "1978": 14204,
  "1979": 13442,
  "198": 2233,
  "1980": 12840,
  "1981": 13177,
  "1982": 12563,
  "1983": 12056,
  "1984": 12472,
  "1985": 11779,
  "1986": 11691,
  "1987": 11326,
  "1988": 11609,
  "1989": 10890,
  "199": 1682,
  "1990": 10282,
  "1991": 10137,
  "1992": 10060,
  "1993": 10102,
  "1994": 9583,
  "1995": 8766,
  "1996": 8868,
  "1997": 8633,
  "1998": 8236,
  "1999": 7672,
  "2": 27,
  "20": 867,
  "200": 1193,
  "2000": 6595,
  "2001": 7127,
  "2002": 7225,
  "2003": 6828,
  "2004": 6664,
  "2005": 6390,
  "2006": 6161,
  "2007": 6028,
  "2008": 6259,
  "2009": 6348,
  "201": 1513,
  "2010": 6115,
  "2011": 6232,
  "2012": 6598,
  "2013": 6814,
  "2014": 7068,
  "2015": 7022,
  "2016": 7934,
  "2017": 8561,
  "2018": 8861,
  "2019": 9737,
  "2020": 14500,
  "205": 49340,
  "206": 47696,
  "21": 3561,
  "210": 42823,
  "22": 3370,
  "220": 45749,
  "228": 19649,
  "23": 3509,
  "24": 3701,
  "240": 44950,
  "25": 3011,
  "250": 25011,
  "26": 3938,
  "260": 48007,
  "27": 3927,
  "270": 44030,
  "28": 3985,
  "29": 4120,
  "3": 28,
  "30": 3015,
  "300": 18697,
  "301": 47789,
  "31": 5063,
  "32": 5125,
  "320": 36567,
  "33": 4414,
  "330": 44405,
  "34": 4926,
  "340": 45000,
  "35": 4309,
  "350": 42084,
  "36": 4487,
  "360": 42724,
  "37": 4652,
  "38": 4797,
  "39": 4663,
  "4": 29,
  "40": 3237,
  "400": 20359,
  "41": 5739,
  "42": 5572,
  "43": 5730,
  "44": 5375,
  "45": 4519,
  "450": 47764,
  "46": 5073,
  "47": 4366,
  "48": 4587,
  "49": 5045,
  "5": 30,
  "50": 2632,
  "500": 15264,
  "51": 9773,
  "52": 9047,
  "53": 8591,
  "54": 9449,
  "55": 7191,
  "56": 9407,
  "57": 9726,
  "58": 9158,
  "59": 10115,
  "6": 31,
  "60": 4659,
  "600": 29264,
  "61": 8770,
  "62": 8242,
  "63": 8376,
  "64": 7956,
  "65": 6521,
  "66": 6641,
  "67": 7362,
  "68": 7537,
  "69": 8702,
  "7": 32,
  "70": 4990,
  "700": 34791,
  "71": 8499,
  "72": 8167,
  "73": 8588,
  "74": 8201,
  "75": 5565,
  "750": 42410,
  "76": 6792,
  "77": 7581,
  "78": 5609,
  "79": 8540,
  "8": 33,
  "80": 4349,
  "800": 28171,
  "81": 8408,
  "82": 8305,
  "83": 8244,
  "84": 7965,
  "85": 6188,
  "86": 7091,
  "87": 7047,
  "88": 6618,
  "89": 7256,
  "9": 34,
  "90": 5195,
  "900": 37864,
  "91": 7738,
  "92": 7138,
  "93": 7552,
  "94": 7647,
  "940": 21760,
  "940228": 22830,
  "95": 6187,
  "96": 6948,
  "97": 6853,
  "98": 6815,
  "99": 6352,
  ":": 35,
  ";": 36,
  "<": 37,
  "<|": 793,
  "<|ax1|>": 1,
  "<|ax2|>": 2,
  "<|ax3|>": 3,
  "<|ax4|>": 4,
  "<|ax5|>": 5,
  "<|ax6|>": 6,
  "<|ax7|>": 7,
  "<|ax8|>": 8,
  "<|ax9|>": 9,
  "<|endoftext|>": 50256,
  "<|talk|>": 0,
  "=": 38,
  "=<|": 33873,
  ">": 39,
  "?": 40,
  "??": 29209,
  "@": 41,
  "A": 42,
  "AA": 15458,
  "AB": 14094,
  "ABC": 42967,
  "ABIO": 43207,
  "AC": 6398,
  "ACH": 42550,
  "AD": 6546,
  "ADA": 33836,
  "ADO": 31145,
  "AF": 10086,
  "AG": 16191,
  "AL": 5008,
  "AM": 5723,
  "AN": 3349,
  "ANA": 26544,
  "AND": 29710,
  "ANI": 39755,
  "ANL": 46357,
  "ANO": 28199,
  "ANT": 30345,
  "AP": 7761,
  "AR": 3095,
  "ARA": 35281,
  "ARC": 25015,
  "ARD": 31881,
  "ARI": 48344,
  "ARIA": 47889,
  "ARIO": 42812,
  "ART": 43214,
  "ARet": 39502,
  "AS": 3625,
  "ASA": 14661,
  "AT": 6342,
  "ATA": 21602,
  "ATAB": 26778,
  "AV": 26179,
  "Ab": 8066,
  "Abra": 43002,
  "Abre": 45625,
  "AbriÃ³": 25846,
  "Ac": 9792,
  "Acab": 40286,
  "Acabo": 48315,
  "Academia": 45137,
  "Acaso": 10816,
  "Acep": 47794,
  "Acer": 35098,
  "Acto": 38954,
  "Actu": 22708,
  "Actualizado": 38809,
  "Acu": 49243,
  "Ad": 10657,
  "Adam": 29567,
  "Adel": 23283,
  "Adelante": 26423,
  "AdemÃ¡s": 17692,
  "AdiÃ³s": 21106,
  "Adri": 25084,
  "AdÃ³nde": 21074,
  "Aeropuerto": 28928,
  "Af": 22540,
  "Ag": 29147,
  "Agar": 47236,
  "Agu": 35092,
  "Agua": 43103,
  "Ah": 4637,
  "Ahora": 5381,
  "AhÃŃ": 20218,
  "Air": 31457,
  "AjÃ¡": 48511,
  "Ak": 37891,
  "Al": 1734,
  "Alan": 38663,
  "Alar": 49424,
  "Alb": 44667,
  "Albert": 38443,
  "Alberto": 32662,
  "Ale": 10074,
  "Alej": 26459,
  "Alejandro": 29762,
  "Alemania": 17151,
  "Aless": 39839,
  "Alex": 14302,
  "Alexander": 38296,
  "Alfonso": 38949,
  "Algo": 14725,
  "Alguien": 18735,
  "Alguna": 28429,
  "Algunas": 33917,
  "Algunos": 25776,
  "AlgÃºn": 34984,
  "Ali": 15403,
  "Alianza": 27473,
  "Alice": 36042,
  "Alicia": 38593,
  "All": 8267,
  "AllÃ¡": 48487,
  "AllÃŃ": 19349,
  "Alma": 35595,
  "Alta": 49639,
  "Alto": 30814,
  "AlzÃ³": 42669,
  "Am": 7156,
  "Ama": 28462,
  "Amanda": 49320,
  "Amar": 32604,
  "Amb": 16323,
  "Ambos": 26591,
  "Amer": 34793,
  "Americ": 17767,
  "American": 18926,
  "Amor": 22199,
  "Amp": 44912,
  "Amy": 50023,
  "AmÃ©rica": 28818,
  "An": 2267,
  "Ana": 18911,
  "Anales": 43761,
  "And": 18919,
  "Anda": 32872,
  "Andr": 35338,
  "Andre": 31478,
  "Andrea": 33770,
  "Andrew": 41192,
  "AndrÃ©": 44294,
  "AndrÃ©s": 39267,
  "Andy": 38911,
  "Ane": 33073,
  "Anexo": 36162,
  "Angel": 29291,
  "Angelo": 46844,
  "Ann": 28487,
  "Anna": 24238,
  "Anne": 33831,
  "Ano": 27980,
  "Ante": 23791,
  "Antes": 11304,
  "Anth": 30356,
  "Anthony": 49163,
  "Anti": 30016,
  "Anto": 32647,
  "Antoine": 38136,
  "AntologÃŃa": 45919,
  "Anton": 15085,
  "Antonio": 19294,
  "Ap": 13396,
  "Apa": 49373,
  "Apar": 22631,
  "Aparte": 47187,
  "Apenas": 23641,
  "Apo": 27631,
  "Apre": 38752,
  "April": 35689,
  "Aprilia": 41665,
  "Apro": 44288,
  "Aquel": 8628,
  "Aquella": 16305,
  "Aquello": 27290,
  "AquÃŃ": 10016,
  "Ar": 2856,
  "Ara": 29969,
  "Arch": 43812,
  "Archivo": 13166,
  "Are": 45261,
  "Arena": 49138,
  "Argentina": 15697,
  "Ari": 36798,
  "Ark": 50070,
  "Arriba": 43977,
  "Arro": 43313,
  "Art": 19240,
  "Arte": 27557,
  "Arthur": 29703,
  "Arturo": 46731,
  "ArtÃŃculo": 46575,
  "As": 3406,
  "AsentÃŃ": 39651,
  "Ases": 43455,
  "Ash": 31605,
  "Asia": 48945,
  "AsintiÃ³": 47625,
  "AsociaciÃ³n": 26228,
  "Ast": 19832,
  "AsÃŃ": 5280,
  "At": 12316,
  "Ata": 48401,
  "Aten": 44183,
  "Ath": 46618,
  "AtlÃ©tico": 23781,
  "Atra": 32190,
  "Au": 17857,
  "Aun": 28172,
  "Aunque": 11033,
  "Aur": 44382,
  "Aust": 21362,
  "Austral": 30797,
  "Australia": 38145,
  "Auto": 32031,
  "Av": 19964,
  "Aven": 48595,
  "Avenida": 43528,
  "Ay": 9112,
  "Ayer": 36243,
  "Ayla": 40967,
  "Az": 23581,
  "AÃ±o": 17279,
  "AÃºn": 17019,
  "B": 43,
  "BA": 4229,
  "BB": 30943,
  "BC": 5825,
  "BD": 31320,
  "BE": 34762,
  "BER": 40541,
  "BI": 12943,
  "BL": 21086,
  "BM": 18158,
  "BN": 3024,
  "BO": 20948,
  "BR": 13736,
  "BRE": 45502,
  "BS": 9022,
  "Ba": 7333,
  "Baby": 41642,
  "Back": 33714,
  "Bad": 30454,
  "Bah": 23662,
  "Baj": 33052,
  "Baja": 48450,
  "Bajo": 23325,
  "BajÃ³": 35604,
  "Bal": 19585,
  "Ball": 42068,
  "Ban": 16473,
  "Bap": 41811,
  "Baptiste": 44999,
  "Bar": 6961,
  "Barcelona": 18005,
  "Barrio": 47198,
  "Bas": 15805,
  "Base": 44446,
  "Basta": 23759,
  "Bat": 24197,
  "Batalla": 44377,
  "Batman": 34455,
  "Bay": 32120,
  "Be": 11947,
  "Bea": 24641,
  "Beat": 42240,
  "Bel": 18805,
  "Bell": 44867,
  "Bella": 40590,
  "Ben": 14755,
  "Benz": 37017,
  "Ber": 16436,
  "Bern": 28112,
  "Best": 23378,
  "Bet": 32744,
  "Beth": 43298,
  "Biblio": 22327,
  "BibliografÃŃa": 42945,
  "Biblioteca": 35617,
  "Bien": 6838,
  "Big": 22952,
  "Bil": 46365,
  "Bill": 9642,
  "Billboard": 12746,
  "Billy": 39553,
  "Bio": 39585,
  "BiografÃŃa": 18677,
  "Bir": 39264,
  "Bis": 42043,
  "Bl": 19633,
  "Black": 17980,
  "Blan": 45379,
  "Blo": 27326,
  "Blood": 44153,
  "Blue": 26678,
  "Bo": 7669,
  "Bob": 23142,
  "Bobby": 46571,
  "Boca": 42106,
  "Bol": 21781,
  "BoletÃŃn": 49665,
  "Bomb": 47708,
  "Bon": 22257,
  "Bor": 23897,
  "Born": 49829,
  "Bos": 26043,
  "Boston": 48868,
  "Bot": 32853,
  "Boy": 36328,
  "Br": 17540,
  "Bra": 17804,
  "Bran": 41815,
  "Bras": 24292,
  "Brasil": 27961,
  "Bre": 23222,
  "Bri": 14256,
  "Brian": 40697,
  "Brien": 34176,
  "Brig": 47158,
  "Bro": 16743,
  "Bru": 27445,
  "Bruno": 47699,
  "Bu": 14565,
  "Buen": 3668,
  "Buena": 29721,
  "Buenas": 20206,
  "Bueno": 4881,
  "Buenos": 11882,
  "Bul": 41777,
  "Bur": 21401,
  "Bus": 19331,
  "By": 42483,
  "C": 44,
  "CA": 3808,
  "CAA": 24253,
  "CAF": 41482,
  "CAL": 39644,
  "CAM": 42723,
  "CAP": 10808,
  "CAPITULO": 38060,
  "CAPÃįTULO": 13353,
  "CAR": 27430,
  "CC": 19382,
  "CD": 9487,
  "CE": 16037,
  "CF": 41876,
  "CH": 12500,
  "CI": 4518,
  "CIA": 25824,
  "CIO": 34407,
  "CION": 29042,
  "CIONES": 45695,
  "CIS": 47482,
  "CIÃĵN": 17335,
  "CL": 32859,
  "CLO": 23878,
  "CLOFFA": 25612,
  "CN": 36378,
  "CO": 9208,
  "COM": 47562,
  "CON": 27524,
  "CR": 27497,
  "CS": 32115,
  "CU": 28273,
  "CV": 41491,
  "Ca": 7082,
  "Cab": 18595,
  "Cabeza": 40867,
  "Cada": 19063,
  "Cal": 8417,
  "California": 29337,
  "Call": 30214,
  "Calla": 32481,
  "Calle": 31314,
  "Cam": 6260,
  "Camb": 40838,
  "Cambi": 46810,
  "Camin": 32707,
  "Camino": 36937,
  "Camp": 33967,
  "Campe": 41223,
  "Campeonato": 18888,
  "CampeÃ³n": 16562,
  "Campo": 43075,
  "Can": 8182,
  "CanadÃ¡": 44553,
  "Canal": 32459,
  "Canciones": 48777,
  "CanciÃ³n": 36146,
  "Cant": 29011,
  "Cap": 5593,
  "CapitÃ¡n": 30544,
  "CapÃŃtulo": 7437,
  "Car": 3697,
  "Cara": 34475,
  "Caracas": 48345,
  "Caramba": 41906,
  "CariÃ±o": 41475,
  "Carl": 41105,
  "Carlo": 50006,
  "Carlos": 14625,
  "Carmen": 33283,
  "Carol": 31944,
  "Carolina": 37697,
  "Carrera": 17034,
  "Carta": 34812,
  "Cartas": 47797,
  "Cas": 6937,
  "Casa": 18760,
  "Casi": 18885,
  "Castillo": 39881,
  "Cat": 21645,
  "Catal": 29520,
  "Cate": 33950,
  "Catedral": 39448,
  "CategorÃŃa": 25863,
  "Cay": 44859,
  "Ce": 27551,
  "Ceci": 43062,
  "Cel": 35474,
  "Cele": 48234,
  "Cent": 26080,
  "Central": 39877,
  "Centro": 19152,
  "Cer": 14882,
  "Cerro": 41226,
  "CerrÃ³": 34586,
  "Ch": 3141,
  "Cha": 23242,
  "Challen": 44551,
  "Cham": 35061,
  "Chan": 34595,
  "Char": 21567,
  "Charles": 25708,
  "Charlie": 35127,
  "Charlotte": 39321,
  "Che": 21390,
  "Chi": 31708,
  "Chica": 31171,
  "Chicago": 37005,
  "Chile": 22343,
  "China": 33441,
  "Cho": 32749,
  "Chris": 38817,
  "Christ": 19232,
  "Christian": 45852,
  "Chu": 38078,
  "Cic": 29279,
  "Cien": 48201,
  "Cierto": 31134,
  "Cin": 16954,
  "Cinco": 23637,
  "Cine": 32461,
  "Cir": 28195,
  "City": 41676,
  "Ciudad": 15555,
  "Cl": 24822,
  "Cla": 13891,
  "Clar": 7146,
  "Clara": 45523,
  "Claro": 7924,
  "Clas": 25349,
  "Claude": 34912,
  "Claudia": 37250,
  "Cle": 42861,
  "Clo": 39219,
  "Club": 15415,
  "Co": 4451,
  "Cob": 46106,
  "Cog": 43772,
  "CogiÃ³": 35795,
  "Col": 7842,
  "Cola": 32169,
  "ColecciÃ³n": 42167,
  "Colegio": 45028,
  "Colo": 16601,
  "Colombia": 26241,
  "Com": 4658,
  "Come": 29234,
  "ComisiÃ³n": 48768,
  "ComitÃ©": 50046,
  "Como": 5243,
  "CompaÃ±": 39094,
  "Comple": 42252,
  "Compr": 30289,
  "Compren": 28185,
  "Comprendo": 36983,
  "Con": 2118,
  "Concierto": 44189,
  "Conf": 27763,
  "Cong": 43858,
  "Connell": 49932,
  "Connor": 31061,
  "Cono": 28176,
  "Conoces": 46842,
  "Conozco": 46111,
  "Conque": 49310,
  "Cons": 29973,
  "Conse": 30714,
  "Consejo": 39993,
  "Contin": 44316,
  "Continu": 43035,
  "Contra": 34172,
  "Cop": 37960,
  "Copa": 12518,
  "Cor": 7544,
  "Cora": 33050,
  "CorazÃ³n": 43401,
  "Corn": 47501,
  "Corre": 44005,
  "Cos": 17825,
  "Costa": 37445,
  "Coyote": 35565,
  "Cr": 25978,
  "Cra": 23946,
  "Cre": 6915,
  "Cree": 28698,
  "Crees": 13376,
  "Creo": 7749,
  "CreÃŃ": 44895,
  "CreÃŃa": 42994,
  "Cri": 47067,
  "Crim": 45350,
  "Crisis": 49941,
  "Crist": 23818,
  "Cristina": 42773,
  "Cristo": 37308,
  "Cro": 32191,
  "Cru": 35835,
  "Cruz": 23830,
  "Cry": 35259,
  "CrÃ©": 40598,
  "CrÃ³nica": 37575,
  "Cu": 1870,
  "Cual": 30382,
  "Cualquier": 44422,
  "Cuando": 3206,
  "Cuar": 28911,
  "Cuatro": 25556,
  "Cuba": 49266,
  "Cuentos": 37660,
  "Cuer": 43318,
  "Cuidado": 33630,
  "Cul": 29375,
  "Cur": 28667,
  "CuÃ¡l": 13734,
  "CuÃ¡les": 43301,
  "CuÃ¡n": 8116,
  "CuÃ¡ndo": 13417,
  "CuÃ¡ntas": 27279,
  "CuÃ¡nto": 12829,
  "CuÃ¡ntos": 23432,
  "CuÃ©ntame": 45564,
  "Cy": 18889,
  "CÃ¡": 29425,
  "CÃ¡diz": 44398,
  "CÃ¡l": 25767,
  "CÃ¡llate": 35697,
  "CÃ©sar": 36283,
  "CÃ³": 30741,
  "CÃ³mo": 2776,
  "CÃ³rdoba": 31156,
  "D": 45,
  "DA": 10495,
  "DB": 40178,
  "DC": 14572,
  "DE": 11958,
  "DES": 47665,
  "DF": 19565,
  "DG": 47068,
  "DI": 14283,
  "DJ": 41836,
  "DN": 36143,
  "DO": 11678,
  "DON": 47268,
  "DOS": 32528,
  "DP": 30207,
  "DR": 19553,
  "DS": 17484,
  "DT": 25737,
  "DVD": 36420,
  "Da": 6827,
  "Dal": 37649,
  "Dam": 45970,
  "Dame": 26300,
  "Dan": 10533,
  "Dance": 45822,
  "Daniel": 18454,
  "Danny": 47561,
  "Dar": 25819,
  "Dark": 33533,
  "Das": 26610,
  "Data": 28695,
  "Datos": 45701,
  "David": 14811,
  "Day": 33909,
  "De": 1594,
  "Dead": 36240,
  "Death": 41048,
  "Deb": 7438,
  "Debe": 28108,
  "Debemos": 40505,
  "DeberÃŃa": 24700,
  "DeberÃŃas": 42521,
  "Debes": 41044,
  "Debo": 25622,
  "DebÃŃa": 41460,
  "Dec": 21391,
  "Deci": 22809,
  "Def": 25064,
  "Deja": 24222,
  "DejÃ©": 45984,
  "DejÃ³": 26879,
  "Del": 11941,
  "Dem": 27155,
  "Demasiado": 38580,
  "Demo": 43031,
  "DemografÃŃa": 36876,
  "Den": 22175,
  "Denis": 47640,
  "Dentro": 27394,
  "Departamento": 42882,
  "Deportes": 33000,
  "Deportivo": 21082,
  "Der": 14924,
  "Dere": 37419,
  "Des": 2822,
  "Desa": 40620,
  "DescripciÃ³n": 19924,
  "Desde": 7559,
  "Dese": 33491,
  "DespuÃ©s": 6704,
  "Detal": 39967,
  "Detalle": 48437,
  "DetrÃ¡s": 39685,
  "Di": 9787,
  "Dia": 45853,
  "Diana": 43478,
  "Diario": 26927,
  "Dic": 14915,
  "Diccionario": 23146,
  "Dice": 32832,
  "Dicen": 48144,
  "Dicho": 41794,
  "Die": 11338,
  "Diego": 28065,
  "Diez": 32103,
  "Dif": 44715,
  "Dig": 28899,
  "Dijo": 27426,
  "Dile": 41530,
  "Dime": 21688,
  "Din": 28264,
  "Dio": 24505,
  "Dios": 8845,
  "Dip": 48085,
  "Dir": 34723,
  "Dire": 15908,
  "DirecciÃ³n": 31027,
  "Director": 28805,
  "Dis": 11178,
  "Disco": 24783,
  "DiscografÃŃa": 46217,
  "Discul": 33475,
  "Dise": 41190,
  "DiseÃ±o": 45721,
  "Dist": 12824,
  "DistribuciÃ³n": 21470,
  "Distrito": 33459,
  "Div": 22729,
  "DivisiÃ³n": 37751,
  "Do": 8239,
  "Dob": 44663,
  "Doc": 18421,
  "Doctor": 22149,
  "Dol": 41311,
  "Dom": 37443,
  "Domin": 23723,
  "Domingo": 42499,
  "Don": 6832,
  "Donald": 22462,
  "Donde": 40807,
  "Donnell": 29676,
  "Dor": 27377,
  "Dos": 10681,
  "Doug": 36604,
  "Down": 22707,
  "DoÃ±a": 33485,
  "Dr": 24993,
  "Dra": 30085,
  "Dragon": 43688,
  "Dream": 37181,
  "Du": 21013,
  "Dun": 43097,
  "Durante": 9975,
  "Dy": 41633,
  "DÃ©": 30742,
  "DÃ©j": 16765,
  "DÃ©jame": 27483,
  "DÃ³nde": 6107,
  "DÃŃ": 46951,
  "DÃŃa": 23880,
  "DÃŃgame": 46861,
  "E": 46,
  "EA": 18038,
  "EB": 15815,
  "EC": 8012,
  "ED": 5833,
  "EE": 11879,
  "EF": 23197,
  "EG": 10963,
  "EGI": 41330,
  "EH": 49465,
  "EI": 48350,
  "EL": 4864,
  "ELA": 36934,
  "ELL": 42313,
  "EM": 9734,
  "EN": 4216,
  "ENA": 28598,
  "ENCIA": 48981,
  "ENT": 21722,
  "ENTE": 31271,
  "ENTO": 37701,
  "EP": 10745,
  "ER": 2979,
  "ERA": 22944,
  "ERN": 29655,
  "ERO": 22116,
  "ERS": 45993,
  "ES": 3522,
  "ESA": 34772,
  "ESCO": 26031,
  "ESS": 38006,
  "EST": 25742,
  "ET": 9968,
  "EV": 24733,
  "EX": 21221,
  "EZ": 31291,
  "East": 39820,
  "EchÃ³": 47765,
  "Econ": 49191,
  "Ecu": 44951,
  "Ecuador": 49632,
  "Ed": 12461,
  "Eddie": 46796,
  "Edi": 15413,
  "Ediciones": 43551,
  "EdiciÃ³n": 34463,
  "Editor": 32724,
  "Editorial": 45742,
  "Edu": 21604,
  "Eduardo": 32579,
  "Edward": 39176,
  "Efectivamente": 47602,
  "Eh": 13189,
  "Ejemp": 50175,
  "El": 703,
  "Ele": 27759,
  "Elec": 42611,
  "Elecciones": 26943,
  "Elena": 35851,
  "Elim": 48623,
  "Elizabeth": 33454,
  "Ella": 3925,
  "Ellos": 31896,
  "Em": 20624,
  "Emb": 18844,
  "Embajada": 25953,
  "Emil": 20889,
  "Emilio": 49526,
  "Emily": 35284,
  "Emma": 31168,
  "Emp": 11858,
  "Empez": 41262,
  "EmpezÃ³": 37755,
  "En": 1008,
  "Enci": 41160,
  "Enciclopedia": 44082,
  "Encon": 28655,
  "Enlaces": 4772,
  "Enrique": 26829,
  "Ens": 50179,
  "Enseguida": 49271,
  "Enten": 35950,
  "Entendido": 45624,
  "Enter": 37117,
  "Entiendo": 30354,
  "Entonces": 4327,
  "Entra": 48132,
  "Entre": 10886,
  "Entretanto": 43770,
  "EntrÃ³": 33596,
  "Ep": 17278,
  "Episodio": 33460,
  "Equi": 21522,
  "Equipo": 28025,
  "Er": 14724,
  "Era": 4733,
  "Eran": 21618,
  "Eres": 9384,
  "Eric": 38587,
  "Erik": 42705,
  "Es": 1329,
  "Esa": 11328,
  "Esas": 39298,
  "Escena": 48861,
  "Escu": 14027,
  "Escucha": 33010,
  "Escudo": 48584,
  "Escuela": 24255,
  "EscÃº": 46202,
  "Ese": 12135,
  "Eso": 4244,
  "Esos": 34006,
  "Esp": 42459,
  "EspaÃ±a": 9155,
  "Esper": 13661,
  "Espera": 20394,
  "Espero": 18019,
  "Est": 1574,
  "Esta": 7370,
  "Estaba": 8353,
  "Estaban": 29221,
  "EstaciÃ³n": 32948,
  "Estadio": 27182,
  "Estado": 29027,
  "Estados": 17354,
  "Estamos": 18271,
  "Estas": 29150,
  "Este": 7075,
  "Esto": 8564,
  "Estos": 29356,
  "Estoy": 7284,
  "Estre": 37404,
  "Estu": 31067,
  "Estudi": 23635,
  "Estudio": 42903,
  "Estudios": 42041,
  "Estupendo": 40037,
  "EstÃ¡": 5598,
  "EstÃ¡bamos": 47909,
  "EstÃ¡is": 38023,
  "EstÃ¡n": 23672,
  "EstÃ¡s": 6928,
  "EtimologÃŃa": 19608,
  "Eu": 22202,
  "Eug": 38993,
  "Euphorbia": 39591,
  "Euro": 18994,
  "Europa": 33347,
  "Europe": 40097,
  "Ev": 25372,
  "Eva": 29447,
  "Evan": 40728,
  "Every": 33659,
  "EvoluciÃ³n": 45940,
  "Ex": 5473,
  "Exactamente": 37822,
  "Exacto": 27623,
  "Excel": 41398,
  "Existe": 45162,
  "Exp": 39337,
  "Extra": 34736,
  "F": 47,
  "FA": 4798,
  "FC": 7782,
  "FE": 29416,
  "FF": 31893,
  "FFA": 25018,
  "FI": 20813,
  "FIN": 45750,
  "FK": 32276,
  "FL": 18927,
  "FM": 26354,
  "FO": 34839,
  "FOR": 43163,
  "FP": 34493,
  "FR": 33100,
  "FS": 27665,
  "Fa": 15379,
  "Fab": 31417,
  "Facultad": 45481,
  "Fal": 24243,
  "Famil": 48921,
  "Familia": 38947,
  "Fan": 46506,
  "Fantas": 32247,
  "Far": 23048,
  "Fase": 44860,
  "Fe": 10891,
  "Fecha": 22583,
  "Feder": 35429,
  "FederaciÃ³n": 47054,
  "Federico": 44653,
  "Fel": 16171,
  "Felipe": 33773,
  "Fer": 26480,
  "Fern": 19133,
  "Fernando": 24530,
  "Ferro": 39616,
  "Festival": 27798,
  "Fi": 38298,
  "Ficus": 49466,
  "Fiesta": 44965,
  "Fil": 22010,
  "FilmografÃŃa": 42126,
  "Fin": 25030,
  "Final": 22153,
  "Finalmente": 25082,
  "Fire": 40994,
  "First": 46125,
  "Fishes": 10690,
  "Flo": 41716,
  "Flor": 18460,
  "Flora": 27486,
  "Florida": 49396,
  "Fly": 41867,
  "Fo": 17098,
  "For": 12861,
  "Ford": 47276,
  "Form": 49294,
  "Fort": 35056,
  "Fr": 43747,
  "Fra": 42775,
  "Fran": 6386,
  "Frances": 41058,
  "Francia": 20141,
  "Francis": 16408,
  "Francisco": 18701,
  "Franco": 45276,
  "Frank": 22895,
  "FranÃ§ois": 41948,
  "Fre": 26281,
  "Fred": 36587,
  "Free": 37447,
  "Frente": 32644,
  "Fri": 37262,
  "From": 40600,
  "Fu": 8927,
  "Fue": 8644,
  "Fuego": 44952,
  "Fuente": 25340,
  "Fuentes": 46658,
  "Fuer": 24193,
  "Fuera": 23407,
  "Fueron": 40687,
  "Fuerza": 45335,
  "Fui": 37807,
  "Fun": 33809,
  "FundaciÃ³n": 38315,
  "G": 48,
  "GA": 20846,
  "GB": 11951,
  "GC": 17550,
  "GE": 24836,
  "GF": 31445,
  "GI": 47688,
  "GL": 41771,
  "GM": 27170,
  "GN": 32584,
  "GO": 22334,
  "GP": 22954,
  "GR": 31810,
  "GS": 37208,
  "GT": 25609,
  "GU": 47642,
  "Ga": 21888,
  "Gab": 16450,
  "Gabriel": 22648,
  "Gal": 15925,
  "GalerÃŃa": 42468,
  "Game": 48966,
  "Gan": 15168,
  "Ganador": 31876,
  "Ganadora": 47369,
  "GanÃ³": 40038,
  "Gar": 18236,
  "Gas": 31100,
  "Ge": 12591,
  "Gen": 19169,
  "Gener": 21021,
  "General": 24441,
  "Genial": 49131,
  "Geo": 39600,
  "GeografÃŃa": 24669,
  "Geor": 34625,
  "George": 23798,
  "Ger": 14303,
  "Germain": 40918,
  "Get": 34498,
  "Gh": 45440,
  "Gi": 37709,
  "Gil": 37881,
  "Gio": 44246,
  "Gir": 25412,
  "Girl": 49756,
  "Glo": 39492,
  "Gloria": 41403,
  "Go": 13794,
  "Gob": 32312,
  "God": 31135,
  "Gol": 22272,
  "Golden": 46710,
  "Goles": 44525,
  "Gonz": 42402,
  "Good": 27021,
  "Gor": 32786,
  "Gr": 29385,
  "Gra": 5312,
  "Gracias": 6625,
  "Gran": 9976,
  "Granada": 47983,
  "Grand": 31505,
  "Grandes": 44758,
  "Gre": 15387,
  "Great": 42953,
  "Green": 36594,
  "Greg": 34061,
  "Gri": 41274,
  "Gro": 34517,
  "Gru": 45823,
  "Grupo": 14778,
  "Gu": 6475,
  "Guad": 46449,
  "Guar": 48252,
  "Guer": 45751,
  "Guerra": 30677,
  "Guillermo": 32050,
  "Gun": 48641,
  "Gusta": 47376,
  "Guy": 47177,
  "GuÃŃa": 45119,
  "GÃ©n": 30425,
  "GÃ©nero": 46085,
  "H": 49,
  "HA": 22380,
  "HC": 26898,
  "HD": 46175,
  "HF": 41539,
  "HI": 47984,
  "HN": 46246,
  "HO": 27107,
  "HR": 44753,
  "HS": 25181,
  "Ha": 4915,
  "Hab": 4130,
  "Habla": 33807,
  "Hablaba": 48033,
  "Hablar": 45097,
  "HabrÃ¡": 38293,
  "HabrÃŃa": 31025,
  "HabÃ©is": 31998,
  "HabÃŃa": 6962,
  "HabÃŃan": 26405,
  "Hace": 14807,
  "Hacia": 27878,
  "HacÃŃa": 30175,
  "Hal": 21056,
  "Hall": 15399,
  "Ham": 25129,
  "Han": 15591,
  "Hand": 48512,
  "Hans": 41751,
  "Hap": 33314,
  "Happy": 44109,
  "Har": 10396,
  "Hara": 48579,
  "Hard": 41666,
  "Harry": 22424,
  "Has": 8876,
  "Hasta": 11627,
  "Haw": 47874,
  "Hay": 6818,
  "Haz": 24841,
  "He": 4801,
  "Hea": 44656,
  "Heart": 40765,
  "Hel": 15991,
  "Helena": 37133,
  "Hell": 46277,
  "Hem": 48139,
  "Hemos": 20342,
  "Hen": 16712,
  "Henri": 46980,
  "Henry": 25542,
  "Her": 11360,
  "Here": 41339,
  "Hero": 41849,
  "Hey": 42408,
  "Hi": 35561,
  "Hice": 43372,
  "Higgins": 23400,
  "High": 30255,
  "Hija": 50076,
  "Hijo": 33022,
  "Hil": 44825,
  "Him": 49287,
  "Hip": 32047,
  "His": 49848,
  "Hist": 40154,
  "Histoire": 36525,
  "Histor": 31294,
  "Historia": 7746,
  "Historias": 40553,
  "Hit": 48491,
  "Hizo": 17119,
  "Ho": 9558,
  "Hol": 19791,
  "Hola": 9093,
  "Hom": 27653,
  "Hombre": 27845,
  "Hombres": 44766,
  "Home": 37753,
  "Homo": 44725,
  "Hon": 36575,
  "Honda": 23529,
  "Hop": 44378,
  "Hor": 23939,
  "Hora": 38194,
  "Hos": 25373,
  "Hospital": 32950,
  "Hot": 32833,
  "Hotel": 41693,
  "House": 45173,
  "How": 29766,
  "Hoy": 16294,
  "Hu": 18816,
  "Hub": 44145,
  "Hubo": 18853,
  "Hugo": 40739,
  "Hum": 19987,
  "Hun": 30185,
  "Hutch": 49209,
  "Huy": 50120,
  "Hy": 20034,
  "Hz": 13855,
  "HÃ¡bitat": 28467,
  "HÃ©": 37524,
  "HÃ©ctor": 44355,
  "I": 50,
  "IA": 5908,
  "IAA": 38737,
  "IB": 15279,
  "IC": 6301,
  "ICA": 25187,
  "ICO": 27899,
  "ID": 7007,
  "IDA": 27496,
  "IDAD": 40235,
  "IDE": 37559,
  "IDO": 40199,
  "IE": 21085,
  "IF": 18467,
  "IG": 15388,
  "II": 1080,
  "III": 2741,
  "IL": 9398,
  "ILL": 47539,
  "IM": 9211,
  "IN": 4133,
  "INA": 19675,
  "INE": 24435,
  "ING": 33257,
  "INO": 36225,
  "INT": 39708,
  "IO": 10658,
  "ION": 46093,
  "IP": 18549,
  "IR": 17009,
  "IS": 4756,
  "ISA": 34380,
  "ISBN": 24346,
  "IST": 36588,
  "ISTA": 46787,
  "IT": 10710,
  "ITA": 41200,
  "ITULO": 36917,
  "IV": 10054,
  "IX": 18830,
  "Ian": 41568,
  "Iba": 27691,
  "If": 34153,
  "Ig": 15243,
  "Iglesia": 18589,
  "Ign": 48149,
  "Igna": 49386,
  "Igual": 38477,
  "Il": 14327,
  "Ill": 29713,
  "Illinois": 42793,
  "Im": 44726,
  "Ima": 33618,
  "Imag": 30841,
  "Imp": 14543,
  "Imposible": 44389,
  "In": 2478,
  "Incl": 19796,
  "Incluso": 28070,
  "Indi": 48440,
  "India": 45313,
  "Indiana": 46895,
  "Inf": 36118,
  "Ing": 24336,
  "Ingen": 47233,
  "Inglaterra": 43522,
  "Ins": 26382,
  "Instituto": 23792,
  "Instru": 48468,
  "Int": 28393,
  "Intent": 37525,
  "IntentÃ³": 43686,
  "Inter": 18119,
  "Interna": 43542,
  "International": 44773,
  "Introdu": 32074,
  "IntroducciÃ³n": 44536,
  "Inv": 36616,
  "InÃ©s": 45974,
  "Io": 40532,
  "Ir": 25617,
  "Iron": 43508,
  "IrÃ©": 43514,
  "Is": 9495,
  "Isa": 35883,
  "Isaac": 49758,
  "Isabel": 25060,
  "Isla": 31138,
  "It": 22444,
  "Ital": 18567,
  "Italia": 21287,
  "IvÃ¡n": 47348,
  "J": 51,
  "JA": 30169,
  "JE": 43373,
  "JO": 29899,
  "JU": 33204,
  "Ja": 9075,
  "Jac": 17058,
  "Jack": 15470,
  "Jacob": 48120,
  "Jacques": 25139,
  "Jaime": 37059,
  "Jake": 40506,
  "Jam": 48222,
  "James": 17413,
  "JamÃ¡s": 27406,
  "Jan": 23816,
  "Jane": 31033,
  "Jap": 27670,
  "JapÃ³n": 37653,
  "Jar": 44205,
  "JardÃŃn": 43417,
  "Jason": 34852,
  "Javier": 31186,
  "Je": 11290,
  "Jean": 20065,
  "Jefe": 42202,
  "Jeff": 42371,
  "Jenny": 43937,
  "Jer": 24150,
  "Jes": 18690,
  "Jess": 43431,
  "JesÃºs": 24055,
  "Jet": 44716,
  "Jim": 24111,
  "Jimmy": 45284,
  "Jo": 4933,
  "Joa": 41149,
  "Joan": 45500,
  "JoaquÃŃn": 46185,
  "Joder": 23253,
  "Joe": 32769,
  "Johan": 30264,
  "John": 11004,
  "Johnny": 35247,
  "Jon": 26805,
  "Jonathan": 46848,
  "Jones": 48129,
  "Jord": 48366,
  "Jorge": 20134,
  "Jos": 7276,
  "Joseph": 32163,
  "JosÃ©": 10199,
  "Journal": 32112,
  "Ju": 6863,
  "Juan": 9850,
  "Jud": 46662,
  "Juegos": 25321,
  "Jug": 21329,
  "Jugador": 41709,
  "Jugadores": 46435,
  "Jul": 17994,
  "Julia": 29615,
  "Julio": 25999,
  "JuliÃ¡n": 44704,
  "Jun": 24108,
  "Junto": 41132,
  "Just": 17551,
  "Justo": 31361,
  "Juventud": 48841,
  "K": 52,
  "KA": 23401,
  "KO": 19530,
  "KS": 44675,
  "Ka": 15548,
  "Kal": 27864,
  "Kar": 23805,
  "Karl": 45138,
  "Kat": 36499,
  "Kate": 34469,
  "Ke": 17882,
  "Ken": 41674,
  "Kent": 50141,
  "Ker": 48037,
  "Kevin": 44840,
  "Kim": 30077,
  "King": 23826,
  "Kir": 42418,
  "Kit": 40297,
  "Ko": 25318,
  "Kon": 41843,
  "L": 53,
  "LA": 7178,
  "LAN": 48857,
  "LAS": 39701,
  "LB": 43995,
  "LC": 19609,
  "LE": 14074,
  "LI": 35430,
  "LL": 28814,
  "LM": 42799,
  "LN": 42612,
  "LO": 6379,
  "LOS": 26726,
  "LP": 17924,
  "LS": 20957,
  "LV": 48895,
  "La": 813,
  "Lab": 48245,
  "Lady": 25722,
  "Lam": 43778,
  "Lamento": 44021,
  "Lan": 33857,
  "Land": 43980,
  "Lang": 34504,
  "Langdon": 41026,
  "Lar": 19581,
  "Laren": 40880,
  "Las": 2821,
  "Last": 42369,
  "Lat": 37756,
  "Laura": 28373,
  "Law": 38402,
  "Le": 2338,
  "Lea": 24895,
  "League": 42339,
  "Lec": 46585,
  "Lee": 31850,
  "Leg": 26812,
  "Len": 38084,
  "Leo": 26358,
  "Leon": 25831,
  "Lep": 35528,
  "Les": 9240,
  "Let": 24798,
  "Lev": 18968,
  "Levant": 49318,
  "LevantÃ³": 29909,
  "Ley": 21685,
  "LeÃ³n": 29660,
  "Li": 16166,
  "Lib": 13875,
  "Liber": 29345,
  "Libertad": 42884,
  "Libre": 43507,
  "Libro": 24559,
  "Lic": 45238,
  "Life": 24170,
  "Liga": 15586,
  "Like": 50063,
  "Lil": 44971,
  "Lim": 44572,
  "Lima": 33564,
  "Lin": 20266,
  "Linux": 48488,
  "Lis": 33985,
  "Lista": 22596,
  "Little": 30126,
  "Live": 20222,
  "Ll": 29421,
  "Llam": 25430,
  "Lle": 13530,
  "Lleg": 41729,
  "Llegaron": 37938,
  "LlegÃ³": 27245,
  "Llev": 23807,
  "Llevaba": 39582,
  "LlÃ©": 46586,
  "Lo": 1847,
  "Loc": 47652,
  "Local": 48186,
  "Lola": 50067,
  "Lond": 21830,
  "London": 42362,
  "Londres": 29507,
  "Long": 31731,
  "Lor": 26475,
  "Lord": 27407,
  "Los": 1790,
  "Lost": 43142,
  "Lou": 17348,
  "Louis": 24754,
  "Love": 16662,
  "Lu": 5102,
  "Lucas": 36483,
  "Lucky": 43927,
  "Lucy": 41179,
  "LucÃŃa": 43393,
  "Luego": 11403,
  "Lugar": 30723,
  "Luis": 15902,
  "Luna": 45181,
  "Luz": 43151,
  "Ly": 27066,
  "LÃ©": 43355,
  "LÃŃ": 41122,
  "LÃŃnea": 24417,
  "M": 54,
  "MA": 10353,
  "MAN": 44988,
  "MAR": 27825,
  "MAS": 49619,
  "MB": 30662,
  "MC": 21274,
  "MD": 19184,
  "ME": 23695,
  "MG": 28757,
  "MI": 12693,
  "ML": 30464,
  "MM": 42122,
  "MO": 22207,
  "MON": 45336,
  "MP": 14601,
  "MS": 10142,
  "MT": 30708,
  "MV": 36478,
  "Ma": 4161,
  "Mac": 19002,
  "Mad": 8298,
  "Madame": 38254,
  "Madre": 23647,
  "Madrid": 11677,
  "Maestro": 48097,
  "Mag": 18235,
  "Magn": 24875,
  "Mahon": 43626,
  "Major": 45581,
  "Mal": 8480,
  "Mala": 43403,
  "Maldita": 25712,
  "Maldito": 37878,
  "Mam": 32992,
  "MamÃ¡": 19376,
  "Man": 5551,
  "Mania": 37461,
  "Mant": 45702,
  "Manual": 47755,
  "Manuel": 18319,
  "Mapa": 45242,
  "Mar": 3190,
  "Mara": 41363,
  "Marc": 40021,
  "Marcel": 47364,
  "Marco": 33179,
  "Marcos": 41232,
  "Marcus": 38220,
  "Margar": 36685,
  "Mari": 42635,
  "Maria": 34011,
  "Marie": 25252,
  "Mario": 27807,
  "Mark": 29199,
  "Mart": 39454,
  "Marta": 41629,
  "Martin": 27340,
  "MartÃŃn": 29223,
  "Marvel": 42038,
  "Mary": 20292,
  "MarÃŃa": 12112,
  "Mas": 12512,
  "Masculino": 49327,
  "Master": 43169,
  "Mat": 12776,
  "Mate": 41634,
  "Matt": 35740,
  "Mau": 38900,
  "Max": 23837,
  "May": 18380,
  "Mayor": 35351,
  "MaÃ±ana": 23938,
  "Mc": 33019,
  "Me": 1633,
  "Med": 17282,
  "Medalla": 43550,
  "Medallero": 39480,
  "Medi": 38518,
  "Media": 32780,
  "Meg": 43738,
  "Mejor": 10678,
  "Mel": 17209,
  "Mem": 35431,
  "Memor": 30181,
  "Memoria": 49881,
  "Memorias": 41069,
  "Men": 12989,
  "Menos": 36699,
  "Mer": 13893,
  "Mes": 45577,
  "Metal": 43692,
  "Metro": 29630,
  "Mi": 4254,
  "Mic": 24687,
  "Mich": 22705,
  "Michael": 18737,
  "Michel": 29982,
  "Micro": 48386,
  "Mid": 39389,
  "Mientras": 7235,
  "Mierda": 27814,
  "Miguel": 20882,
  "Mik": 43509,
  "Mike": 27687,
  "Mil": 15462,
  "Mila": 39572,
  "Mill": 39042,
  "Min": 14459,
  "Ministerio": 48676,
  "Mir": 14483,
  "Mira": 11545,
  "Mirad": 41100,
  "Mire": 34484,
  "MirÃ©": 32285,
  "MirÃ³": 15000,
  "Mis": 12168,
  "MisiÃ³n": 49539,
  "Miss": 16554,
  "Mmm": 46261,
  "Mo": 6701,
  "Mol": 44486,
  "Mom": 44334,
  "Mon": 8132,
  "Mono": 41872,
  "Mons": 49690,
  "Monte": 24838,
  "Montevideo": 40558,
  "Monumento": 43369,
  "Mor": 11634,
  "Mos": 25825,
  "Movimiento": 33984,
  "Mr": 21834,
  "Mu": 7183,
  "Mucha": 40766,
  "Muchas": 26685,
  "Mucho": 27031,
  "Muchos": 37162,
  "Muerte": 35675,
  "Mujer": 20778,
  "Mujeres": 32347,
  "Mul": 44335,
  "Mun": 18308,
  "Mundo": 48028,
  "Municipio": 31015,
  "Mur": 22795,
  "Mus": 11319,
  "Museo": 18435,
  "Music": 30107,
  "Muy": 8445,
  "My": 12330,
  "MÃ¡": 23849,
  "MÃ¡laga": 41518,
  "MÃ¡s": 9468,
  "MÃ©": 13151,
  "MÃ©xico": 17412,
  "MÃºsica": 29109,
  "MÃŃ": 31449,
  "N": 55,
  "NA": 15830,
  "NB": 18320,
  "NC": 47597,
  "NE": 23968,
  "NH": 48283,
  "NI": 46744,
  "NO": 18896,
  "NT": 31064,
  "Na": 7056,
  "Nacional": 38213,
  "Nada": 9108,
  "Nadie": 14211,
  "Naik": 37374,
  "Nan": 40179,
  "Nar": 30842,
  "Nas": 33719,
  "Natal": 32024,
  "National": 32262,
  "Naturalmente": 29781,
  "Nav": 40934,
  "Ne": 5628,
  "Neces": 14538,
  "Necesito": 26142,
  "Nefer": 37494,
  "Neil": 46162,
  "Neill": 34749,
  "Neo": 50029,
  "Net": 44760,
  "Never": 42563,
  "New": 11706,
  "Ni": 8188,
  "Nic": 36039,
  "Nich": 37246,
  "Nicholas": 42763,
  "Nick": 29471,
  "Nico": 27989,
  "Nicol": 42583,
  "Nicole": 44057,
  "NicolÃ¡s": 46086,
  "Night": 35914,
  "Nik": 40252,
  "Ningun": 22783,
  "Ninguna": 38450,
  "Ninguno": 33625,
  "NingÃºn": 45198,
  "No": 775,
  "Nob": 39493,
  "Noche": 40749,
  "Nombre": 36453,
  "Nominado": 46562,
  "Non": 48928,
  "Nor": 20765,
  "Norte": 30470,
  "North": 35664,
  "Nos": 8253,
  "Nosotros": 23669,
  "Not": 49469,
  "Nota": 23152,
  "Notas": 16839,
  "Nov": 48737,
  "Nuestra": 23535,
  "Nuestro": 28460,
  "Nueva": 14479,
  "Nuevo": 26113,
  "Nunca": 9618,
  "NÂº": 42131,
  "NÃºmero": 48341,
  "O": 56,
  "OB": 17428,
  "OC": 15641,
  "OE": 9461,
  "OH": 37487,
  "OK": 35393,
  "OL": 9824,
  "OM": 6622,
  "ON": 3952,
  "OO": 39283,
  "OR": 4604,
  "OS": 4095,
  "OT": 49613,
  "Ob": 13947,
  "Obra": 42393,
  "Obras": 27149,
  "Observ": 44006,
  "Ocho": 49781,
  "Odi": 48241,
  "Oeste": 37613,
  "Of": 33521,
  "Off": 49256,
  "Oh": 4472,
  "Ohio": 43619,
  "Oiga": 46322,
  "OjalÃ¡": 25188,
  "Ok": 39007,
  "Ol": 14885,
  "Old": 43039,
  "Oli": 34905,
  "Olivia": 42908,
  "On": 12685,
  "Once": 42221,
  "One": 19548,
  "Op": 46062,
  "Open": 46904,
  "Opera": 48967,
  "OperaciÃ³n": 33633,
  "Or": 7776,
  "Orden": 30705,
  "Organiz": 48339,
  "Ori": 30111,
  "Orig": 46386,
  "Oro": 30845,
  "Os": 11192,
  "Otra": 16627,
  "Otras": 36999,
  "Otro": 21421,
  "Otros": 24532,
  "Our": 49390,
  "Out": 29407,
  "Over": 40337,
  "Ox": 33784,
  "Oye": 21405,
  "OyÃ³": 38533,
  "P": 57,
  "PA": 9060,
  "PAR": 40729,
  "PC": 13178,
  "PD": 16074,
  "PE": 15493,
  "PER": 47081,
  "PF": 39163,
  "PG": 11690,
  "PH": 38474,
  "PI": 13762,
  "PJ": 30578,
  "PL": 25796,
  "PM": 25155,
  "PN": 12902,
  "PO": 22593,
  "PP": 9849,
  "PR": 16894,
  "PRI": 40217,
  "PRO": 36925,
  "PS": 8064,
  "PSOE": 22144,
  "PU": 49279,
  "PV": 45072,
  "Pa": 5151,
  "Pablo": 29113,
  "Pac": 42522,
  "Pad": 39444,
  "Padre": 23448,
  "Pal": 10697,
  "Pala": 45585,
  "Palacio": 33328,
  "PalmarÃ©s": 20495,
  "Pam": 41059,
  "Pan": 21201,
  "Pap": 18436,
  "PapÃ¡": 24223,
  "Par": 3881,
  "Para": 4540,
  "Parece": 16392,
  "ParecÃŃa": 25303,
  "Paris": 45508,
  "Parque": 25786,
  "Parte": 39814,
  "Partido": 12526,
  "Partidos": 30623,
  "ParÃŃs": 22055,
  "Pas": 9166,
  "Pasa": 31909,
  "Pasaron": 35335,
  "Pase": 48056,
  "Paso": 37860,
  "PasÃ³": 32152,
  "Pat": 19430,
  "Patri": 38446,
  "Patrick": 48070,
  "Paul": 15346,
  "PaÃŃs": 28995,
  "PaÃŃses": 45522,
  "Pe": 6638,
  "Pedro": 18148,
  "Pel": 20995,
  "PelÃŃcula": 40080,
  "Pen": 35543,
  "Pens": 11610,
  "Pensaba": 39419,
  "PensÃ©": 28237,
  "PensÃ³": 35683,
  "Per": 5177,
  "Perdona": 31637,
  "Perdone": 49587,
  "PerdÃ³n": 24270,
  "Perfecto": 36608,
  "Perman": 31734,
  "Pero": 1883,
  "Pers": 23892,
  "Persona": 37342,
  "PerÃº": 30430,
  "Pese": 42587,
  "Pete": 43259,
  "Peter": 19383,
  "Ph": 11889,
  "Phil": 35882,
  "Philip": 34028,
  "Pho": 37104,
  "Phone": 40855,
  "Phy": 41168,
  "Pi": 32945,
  "Pic": 41349,
  "Pie": 33142,
  "Pien": 22007,
  "Piensa": 40851,
  "Pienso": 47222,
  "Pierre": 20994,
  "Pin": 28272,
  "Pinus": 47047,
  "Pira": 48173,
  "Pl": 47092,
  "Pla": 10378,
  "Plan": 22662,
  "Plata": 44151,
  "Play": 31102,
  "Plaza": 27193,
  "Ple": 43199,
  "Po": 3821,
  "Pob": 28999,
  "PoblaciÃ³n": 38913,
  "Pobre": 21202,
  "Poco": 19196,
  "Pod": 26783,
  "Podemos": 22076,
  "PodrÃŃa": 14706,
  "PodrÃŃamos": 43992,
  "PodrÃŃas": 38209,
  "PodÃŃa": 30653,
  "PoesÃŃa": 43462,
  "Pol": 11890,
  "Poly": 43415,
  "Pon": 23795,
  "Ponte": 45615,
  "Pop": 36848,
  "Por": 1423,
  "Porque": 8348,
  "Port": 37409,
  "Portu": 40834,
  "Portugal": 47235,
  "Pos": 15542,
  "PosiciÃ³n": 32395,
  "Power": 43342,
  "Pr": 16019,
  "Pra": 46463,
  "Pre": 5643,
  "Precisamente": 45118,
  "Prefiero": 48575,
  "Pregun": 26433,
  "PreguntÃ³": 45770,
  "Premio": 16202,
  "Premios": 22711,
  "Prepar": 43008,
  "Pres": 12552,
  "Presente": 39765,
  "Presidente": 38096,
  "Pri": 28918,
  "Prim": 8577,
  "Primer": 24778,
  "Primera": 15329,
  "Primero": 26777,
  "Prin": 18457,
  "Princip": 30976,
  "Pro": 5088,
  "Probablemente": 32251,
  "ProducciÃ³n": 45133,
  "Profes": 42442,
  "Programa": 41271,
  "Prom": 40924,
  "Pronto": 27537,
  "Pros": 43280,
  "Provincia": 33161,
  "Proyecto": 42077,
  "PrÃŃncipe": 47243,
  "Pts": 42698,
  "Pu": 21414,
  "Pub": 18810,
  "Pue": 5493,
  "Puede": 11558,
  "Puedes": 16012,
  "Puedo": 12273,
  "Puente": 39315,
  "Puerto": 28037,
  "Pues": 4956,
  "Puesto": 43600,
  "Pul": 45029,
  "Puntos": 45254,
  "Py": 43713,
  "PÃ¡g": 43323,
  "Q": 58,
  "QL": 42841,
  "QU": 11365,
  "QUE": 39773,
  "Qu": 780,
  "Que": 4539,
  "Queen": 37837,
  "Quer": 9319,
  "Quercus": 42429,
  "Querida": 36686,
  "Querido": 34937,
  "QuerÃ©is": 43613,
  "QuerÃŃa": 24442,
  "Quien": 39173,
  "Quiere": 17222,
  "Quieres": 9320,
  "Quiero": 11368,
  "Quin": 36581,
  "Quis": 41820,
  "Quisiera": 48329,
  "QuizÃ¡": 13512,
  "QuizÃ¡s": 32221,
  "QuiÃ©n": 4710,
  "QuiÃ©nes": 32508,
  "QuÃ©": 1244,
  "QuÃ©date": 45799,
  "R": 59,
  "RA": 4217,
  "RAC": 22151,
  "RAL": 46933,
  "RAM": 37670,
  "RC": 11410,
  "RE": 7158,
  "RI": 7649,
  "RIS": 47956,
  "RM": 35976,
  "RN": 41704,
  "RO": 7357,
  "ROM": 49849,
  "ROS": 50030,
  "RP": 33340,
  "RS": 30282,
  "RT": 36485,
  "Ra": 6907,
  "Rachel": 37933,
  "Racing": 49169,
  "Radio": 21257,
  "Rafa": 26455,
  "Rafael": 30660,
  "Ral": 36861,
  "Ralph": 42136,
  "Ram": 24344,
  "RamÃ³n": 33461,
  "Ran": 26989,
  "Rap": 41976,
  "Ras": 40795,
  "Raw": 46934,
  "Ray": 25440,
  "RaÃºl": 44930,
  "Re": 1853,
  "Real": 16126,
  "Realmente": 33435,
  "Reb": 25658,
  "Rec": 11339,
  "Recep": 50119,
  "Reci": 33794,
  "Reco": 42374,
  "Recon": 41611,
  "Recor": 34389,
  "Record": 26061,
  "Recuerda": 41191,
  "Recuerdas": 34424,
  "Recuerdo": 34653,
  "Red": 20927,
  "Referencias": 3455,
  "Reg": 11066,
  "RegiÃ³n": 40237,
  "Regres": 33336,
  "Reina": 44513,
  "Reino": 20696,
  "Rel": 41877,
  "Rem": 27596,
  "Remix": 49024,
  "Ren": 25971,
  "Rena": 41197,
  "Rep": 16568,
  "Reparto": 45528,
  "RepÃºblica": 27143,
  "Res": 7090,
  "Resul": 22051,
  "Resultado": 20273,
  "Resultados": 33581,
  "Ret": 12986,
  "Retirado": 46947,
  "Retrato": 32898,
  "Rev": 29942,
  "Revista": 24945,
  "Rey": 31846,
  "Rh": 40804,
  "Ric": 27350,
  "Ricardo": 31625,
  "Rich": 21217,
  "Richard": 25651,
  "Rick": 44584,
  "Rio": 39323,
  "River": 40449,
  "Ro": 8046,
  "Rob": 10302,
  "Robert": 20230,
  "Roberto": 32069,
  "Roc": 36296,
  "Rock": 21351,
  "Rod": 31169,
  "Rodrigo": 49713,
  "Roger": 40538,
  "Rol": 20472,
  "Roland": 45769,
  "Rolling": 37556,
  "Rom": 20527,
  "Roma": 29945,
  "Ron": 28709,
  "Ros": 12187,
  "Rosa": 29545,
  "Rosario": 39386,
  "Rose": 30627,
  "Roy": 21581,
  "Royal": 35985,
  "Ru": 27900,
  "Rub": 30457,
  "Rum": 44958,
  "Rusia": 44919,
  "Ruta": 33377,
  "Ruth": 46587,
  "Ryan": 39689,
  "RÃ¡": 39473,
  "RÃŃo": 24377,
  "S": 60,
  "SA": 12010,
  "SC": 18514,
  "SD": 21579,
  "SE": 20631,
  "SF": 21126,
  "SI": 16569,
  "SL": 35205,
  "SM": 28637,
  "SN": 19795,
  "SO": 21484,
  "SON": 37120,
  "SP": 28679,
  "SR": 41027,
  "SS": 7903,
  "ST": 13126,
  "STOM": 25264,
  "SU": 37287,
  "SV": 42012,
  "Sa": 7580,
  "Sab": 10210,
  "Sabe": 20326,
  "Sabes": 10080,
  "SabÃ©is": 48814,
  "SabÃŃa": 20441,
  "Sac": 21959,
  "SacÃ³": 38277,
  "Saint": 37945,
  "Sal": 5679,
  "Sala": 37964,
  "Salieron": 47353,
  "SaliÃ³": 26613,
  "SalÃŃ": 50154,
  "Sam": 15029,
  "Samuel": 48198,
  "San": 4132,
  "Sant": 34131,
  "Santa": 12697,
  "Santiago": 18243,
  "Santo": 29203,
  "Sar": 23610,
  "Sara": 20557,
  "Sarah": 34129,
  "Say": 46497,
  "Sch": 18058,
  "Sco": 47490,
  "Scott": 43855,
  "Se": 1391,
  "Sea": 32186,
  "Sean": 31631,
  "Sebas": 33368,
  "Sec": 16555,
  "Secre": 40096,
  "Seg": 20360,
  "Segu": 10535,
  "Segun": 15123,
  "Segunda": 20581,
  "Segundo": 33002,
  "Seguramente": 38890,
  "Seguro": 19532,
  "SegÃºn": 22405,
  "Seis": 38146,
  "Sel": 37038,
  "SelecciÃ³n": 34317,
  "Sem": 24899,
  "Sen": 27643,
  "Senci": 39775,
  "SentÃŃ": 43345,
  "Sep": 37549,
  "Ser": 6418,
  "Sergio": 35831,
  "Serie": 25328,
  "Series": 43222,
  "Servi": 35566,
  "SerÃ¡": 15331,
  "SerÃŃa": 18864,
  "Sevilla": 28945,
  "Sex": 32158,
  "SeÃ±": 6994,
  "SeÃ±alÃ³": 38017,
  "SeÃ±or": 10072,
  "SeÃ±ora": 23585,
  "SeÃ±orita": 33349,
  "Sh": 8304,
  "Sha": 21905,
  "Shan": 35553,
  "She": 21290,
  "Sher": 49288,
  "Shin": 42461,
  "Sho": 44736,
  "Show": 42529,
  "Si": 2925,
  "Siempre": 12064,
  "Siento": 27169,
  "Siete": 39152,
  "Sig": 25413,
  "Sign": 36413,
  "Sigo": 46152,
  "Sigue": 29360,
  "SiguiÃ³": 37034,
  "Sil": 13932,
  "Silencio": 28886,
  "Sim": 21919,
  "Simon": 28316,
  "SimÃ³n": 37114,
  "Sin": 4215,
  "Sing": 39366,
  "Sino": 46116,
  "Sinonimia": 20816,
  "SintiÃ³": 34060,
  "Sir": 24394,
  "Sistema": 36552,
  "SiÃ©n": 35456,
  "SiÃ©ntate": 47744,
  "Sk": 32793,
  "Sky": 44247,
  "Smith": 37759,
  "So": 5583,
  "Sobre": 13944,
  "Soci": 20610,
  "Sociedad": 32501,
  "SofÃŃa": 45582,
  "Sois": 40780,
  "Sol": 11952,
  "Solo": 11379,
  "Som": 35461,
  "Some": 36815,
  "Somos": 27904,
  "Son": 6747,
  "Song": 38573,
  "SonriÃ³": 22460,
  "Sophie": 38622,
  "Sor": 25954,
  "Sos": 37061,
  "South": 30876,
  "Soy": 9807,
  "Sp": 50182,
  "Space": 30568,
  "Spe": 40020,
  "Spi": 29874,
  "Spider": 45828,
  "Sport": 30353,
  "Sr": 46745,
  "St": 20449,
  "Sta": 10295,
  "Stan": 45737,
  "Star": 11715,
  "Station": 14232,
  "Ste": 12408,
  "Steph": 35147,
  "Stephen": 48009,
  "Steve": 40628,
  "Str": 44626,
  "Stra": 35963,
  "Stran": 49634,
  "Stre": 32280,
  "Street": 47185,
  "Stu": 27342,
  "Su": 2744,
  "Sub": 16011,
  "Sud": 39893,
  "Sue": 34982,
  "Suiza": 40938,
  "Sum": 30091,
  "Summer": 44692,
  "Sun": 29680,
  "Super": 12813,
  "Supongo": 14214,
  "Sur": 18854,
  "Sus": 7781,
  "Susan": 41875,
  "SuspirÃ³": 38618,
  "SuÃ©l": 45840,
  "Sw": 36099,
  "Swe": 32876,
  "Sweet": 42542,
  "Sy": 24665,
  "Syl": 41293,
  "SÃ£o": 42333,
  "SÃ©": 13288,
  "SÃ³lo": 10043,
  "SÃŃ": 1918,
  "T": 61,
  "TA": 3956,
  "TAL": 19822,
  "TAN": 20632,
  "TB": 41543,
  "TC": 9848,
  "TE": 7439,
  "TER": 19421,
  "TH": 29019,
  "TI": 14158,
  "TIM": 43981,
  "TL": 23096,
  "TM": 17061,
  "TML": 43102,
  "TO": 8110,
  "TOR": 26263,
  "TOTAL": 34814,
  "TP": 24706,
  "TR": 17467,
  "TRA": 29744,
  "TS": 9529,
  "TT": 39840,
  "TU": 8198,
  "TULO": 11491,
  "TV": 6405,
  "TVE": 36261,
  "Ta": 9909,
  "Tab": 36562,
  "Take": 41410,
  "Tal": 9136,
  "Tales": 45543,
  "Tam": 46862,
  "TambiÃ©n": 10264,
  "Tampoco": 23620,
  "Tan": 12812,
  "Tanto": 28191,
  "Tar": 19859,
  "TaxonomÃŃa": 40520,
  "Te": 2365,
  "Team": 26446,
  "Teatro": 21817,
  "Tec": 44146,
  "Tel": 33411,
  "Tele": 23385,
  "Tem": 38120,
  "Temp": 13381,
  "Temporada": 24246,
  "Temporadas": 32166,
  "Ten": 3820,
  "TendrÃŃa": 37996,
  "Tenemos": 16336,
  "Tengo": 8407,
  "TenÃ©is": 43625,
  "TenÃŃa": 11852,
  "TeorÃŃa": 45915,
  "Ter": 9219,
  "Tercer": 50194,
  "Tercera": 32377,
  "Teresa": 43822,
  "Termin": 28086,
  "Tex": 25545,
  "Texas": 42401,
  "Th": 8544,
  "That": 40856,
  "The": 1511,
  "This": 28469,
  "Thomas": 23117,
  "Thor": 49087,
  "Three": 45727,
  "Ti": 25399,
  "Tiempo": 31977,
  "Tiene": 12023,
  "Tienen": 44289,
  "Tienes": 9395,
  "Tierra": 31742,
  "Tig": 38107,
  "Tim": 26487,
  "Time": 29145,
  "Tin": 38874,
  "Tipo": 30622,
  "To": 2617,
  "Toda": 11625,
  "Todas": 23510,
  "TodavÃŃa": 14769,
  "Todo": 7268,
  "Todos": 9345,
  "Tok": 45060,
  "Tol": 46005,
  "Tom": 10240,
  "Toma": 28904,
  "Tommy": 49867,
  "TomÃ¡s": 40613,
  "TomÃ³": 34680,
  "Ton": 30768,
  "Tony": 36097,
  "Top": 22483,
  "Tor": 13225,
  "Torneo": 24158,
  "Torre": 30964,
  "Total": 11124,
  "Tour": 29686,
  "Tr": 21263,
  "Tra": 7838,
  "Traba": 27171,
  "TraducciÃ³n": 34859,
  "Tran": 20459,
  "Tranquila": 43446,
  "Tranquilo": 45245,
  "Trans": 20959,
  "Tras": 11859,
  "Tratado": 36160,
  "Trayectoria": 46926,
  "Tre": 19472,
  "Tres": 15160,
  "Tri": 18406,
  "Tro": 19357,
  "Tru": 32286,
  "Tu": 7880,
  "Tube": 15502,
  "Tunes": 27736,
  "Tur": 23129,
  "Tus": 37050,
  "Tuve": 42141,
  "Tuvo": 40726,
  "Tw": 46323,
  "Two": 37450,
  "Ty": 26767,
  "TÃº": 6533,
  "TÃŃo": 44356,
  "TÃŃtulo": 23850,
  "U": 62,
  "UA": 23618,
  "UB": 35447,
  "UC": 10831,
  "UCN": 28049,
  "UD": 18598,
  "UE": 14888,
  "UEL": 44579,
  "UER": 30918,
  "UG": 19995,
  "UI": 29885,
  "UK": 28119,
  "UL": 15629,
  "UM": 17511,
  "UN": 8498,
  "UNA": 44877,
  "UP": 21012,
  "UR": 11685,
  "URA": 35034,
  "US": 6843,
  "USA": 29592,
  "UT": 15923,
  "UTC": 42384,
  "UV": 28829,
  "Ul": 27994,
  "Ulti": 47851,
  "Un": 2243,
  "Una": 3329,
  "Unas": 39507,
  "Under": 35238,
  "Unidad": 49050,
  "Uniforme": 42811,
  "Univers": 13684,
  "Universidad": 17214,
  "UniÃ³n": 19946,
  "Uno": 15173,
  "Unos": 23666,
  "Up": 34476,
  "Ur": 22357,
  "Uruguay": 37071,
  "Usted": 12125,
  "V": 63,
  "VA": 15136,
  "VD": 8772,
  "VE": 31660,
  "VEN": 42719,
  "VI": 12774,
  "VID": 29509,
  "VII": 19344,
  "VIII": 21478,
  "VO": 32442,
  "Va": 15563,
  "Val": 9485,
  "Vale": 14455,
  "Valencia": 27086,
  "Valle": 38714,
  "Vamos": 7446,
  "Van": 22399,
  "Var": 28096,
  "Vas": 17066,
  "Vaya": 11035,
  "Ve": 9561,
  "Veamos": 49630,
  "Veinte": 49337,
  "Velo": 43991,
  "Ven": 7168,
  "Vene": 45114,
  "Venezuela": 29814,
  "Venga": 21108,
  "Veo": 28320,
  "Ver": 8153,
  "Verdad": 30254,
  "VersiÃ³n": 35725,
  "Ves": 24555,
  "Vete": 26634,
  "Vi": 16968,
  "Via": 25362,
  "Viaje": 45571,
  "Vic": 14856,
  "Vicente": 50104,
  "Victor": 47028,
  "Victoria": 30415,
  "Vida": 23367,
  "Video": 37997,
  "Vie": 32575,
  "Vig": 45752,
  "Vik": 48356,
  "Villa": 20317,
  "Vin": 19828,
  "Vio": 20090,
  "Vir": 15653,
  "Virgen": 31624,
  "Virgin": 33880,
  "Virginia": 39078,
  "Vis": 32571,
  "Vista": 28286,
  "Viv": 27706,
  "Viva": 27165,
  "Vive": 49280,
  "Vo": 17233,
  "Vol": 8646,
  "Volver": 27990,
  "VolviÃ³": 17408,
  "VolvÃŃ": 39937,
  "Vos": 41463,
  "Votos": 38595,
  "Voy": 13202,
  "Voz": 45956,
  "Vuelve": 34079,
  "VÃ¡monos": 49722,
  "VÃ©ase": 11629,
  "VÃŃ": 26987,
  "VÃŃctor": 33255,
  "W": 64,
  "WA": 22021,
  "WC": 37362,
  "WE": 12908,
  "WF": 28345,
  "WS": 47563,
  "WV": 39785,
  "Wa": 30924,
  "Wal": 19003,
  "Walter": 42351,
  "War": 21589,
  "Washington": 40400,
  "Way": 32332,
  "Wayne": 45271,
  "We": 15254,
  "Web": 42887,
  "Wel": 47113,
  "West": 25247,
  "Wh": 50077,
  "What": 23622,
  "When": 32443,
  "Where": 45771,
  "White": 34248,
  "Who": 34444,
  "Wil": 24494,
  "Wild": 37420,
  "Will": 14968,
  "William": 21333,
  "Win": 35154,
  "Wo": 45285,
  "Work": 44162,
  "World": 24456,
  "X": 65,
  "XI": 44177,
  "XII": 48730,
  "XT": 31678,
  "XX": 12884,
  "XXX": 35148,
  "Y": 66,
  "YA": 40136,
  "YO": 48064,
  "Ya": 3264,
  "Yama": 29495,
  "Yamaha": 31770,
  "Yo": 2792,
  "You": 17895,
  "Young": 39434,
  "Yu": 47709,
  "Z": 67,
  "ZA": 22967,
  "Za": 34089,
  "Zara": 36268,
  "Zaragoza": 44097,
  "Zo": 29819,
  "Zona": 30040,
  "[": 68,
  "\\": 69,
  "]": 70,
  "]\".": 47811,
  "],": 11670,
  "].": 5575,
  "^": 71,
  "_": 72,
  "__": 14028,
  "____": 32632,
  "`": 73,
  "a": 74,
  "aa": 21193,
  "ab": 303,
  "aba": 382,
  "abad": 32260,
  "abada": 33606,
  "abado": 19696,
  "abajo": 24018,
  "abajos": 45273,
  "abal": 10484,
  "aballo": 49514,
  "abama": 23231,
  "abamba": 28786,
  "aban": 577,
  "abando": 25293,
  "abar": 14534,
  "abas": 4621,
  "abasco": 23883,
  "abase": 22103,
  "abat": 26720,
  "abe": 3350,
  "abeau": 49151,
  "abel": 3512,
  "abela": 24965,
  "abell": 9804,
  "abella": 31514,
  "abelle": 46179,
  "abellones": 40596,
  "abellÃ³n": 12603,
  "aber": 40601,
  "abert": 46628,
  "abes": 5226,
  "abetes": 37141,
  "abeth": 7879,
  "abezas": 33264,
  "abi": 19988,
  "abia": 13590,
  "abik": 46341,
  "abil": 5806,
  "abilidad": 3368,
  "abilidades": 16713,
  "abilis": 46568,
  "abilitaciÃ³n": 46558,
  "abilonia": 28558,
  "ablanca": 23691,
  "able": 717,
  "ablemente": 2685,
  "ables": 1952,
  "ablo": 2918,
  "ablos": 9776,
  "abo": 7113,
  "abol": 20398,
  "abor": 3036,
  "aboraciÃ³n": 5495,
  "abos": 34305,
  "abozo": 36544,
  "abra": 18902,
  "abras": 27973,
  "abre": 29564,
  "abreviado": 44984,
  "abria": 11516,
  "abril": 41139,
  "abro": 14830,
  "abros": 40840,
  "abu": 18134,
  "abuena": 36264,
  "abul": 17758,
  "abulario": 26702,
  "abus": 49504,
  "aby": 21147,
  "abÃ©": 21313,
  "abÃ³": 13515,
  "ac": 417,
  "aca": 3636,
  "acaf": 22847,
  "acaibo": 26486,
  "acal": 29521,
  "acar": 13919,
  "acarita": 32333,
  "acarÃŃas": 47504,
  "acas": 6820,
  "acaso": 35546,
  "acate": 43682,
  "acciones": 23015,
  "acciÃ³n": 20047,
  "ace": 2333,
  "acea": 38684,
  "aceae": 11762,
  "acen": 12233,
  "acentista": 23500,
  "acep": 36111,
  "aceptÃ³": 49573,
  "acer": 6500,
  "acero": 40191,
  "aces": 5521,
  "aceta": 30991,
  "acetas": 32687,
  "acete": 13969,
  "acey": 13830,
  "ach": 12009,
  "acia": 12647,
  "aciones": 2348,
  "aciÃ³n": 660,
  "ack": 2186,
  "acker": 50138,
  "aclarÃ³": 37988,
  "aco": 3966,
  "acoa": 45596,
  "acol": 19501,
  "acon": 16302,
  "aconse": 48082,
  "acos": 13824,
  "acre": 13792,
  "acredi": 39125,
  "acruz": 11769,
  "act": 21132,
  "actamente": 28330,
  "acter": 2093,
  "acto": 3619,
  "actor": 37263,
  "actual": 20909,
  "actualmente": 29748,
  "acy": 29745,
  "acÃ¡": 21979,
  "acÃ¡n": 16553,
  "acÃŃa": 7422,
  "acÃŃan": 27300,
  "ad": 286,
  "ada": 379,
  "adable": 5907,
  "adada": 49882,
  "adado": 42543,
  "adajo": 16343,
  "adajoz": 16535,
  "adamente": 2219,
  "adap": 47284,
  "adar": 23322,
  "adas": 584,
  "adavia": 20278,
  "ade": 14685,
  "adecu": 28267,
  "ader": 8996,
  "adernos": 36440,
  "adero": 48626,
  "aderos": 48357,
  "adi": 10385,
  "adia": 29878,
  "adie": 1716,
  "adier": 25830,
  "adilla": 8391,
  "adillas": 19886,
  "adillo": 22558,
  "adillos": 40839,
  "adin": 21759,
  "ading": 27198,
  "adino": 31204,
  "adio": 1695,
  "adir": 49072,
  "adis": 45125,
  "adita": 43201,
  "adiza": 47922,
  "adizo": 19229,
  "adizos": 41136,
  "adme": 20485,
  "admitiÃ³": 20782,
  "adna": 33834,
  "ado": 333,
  "adoc": 39796,
  "adon": 37389,
  "adona": 48038,
  "ador": 557,
  "adora": 2147,
  "adoras": 6037,
  "adores": 1053,
  "ados": 457,
  "adow": 22064,
  "adows": 37772,
  "adra": 27227,
  "adre": 834,
  "adres": 2999,
  "adrid": 49791,
  "adro": 32140,
  "ads": 26302,
  "adu": 3473,
  "adua": 28584,
  "aducciÃ³n": 16762,
  "aducto": 47646,
  "adur": 42932,
  "adura": 4846,
  "aduras": 14612,
  "adurÃŃa": 49374,
  "advirtiÃ³": 33977,
  "ady": 6040,
  "adÃ¡": 3539,
  "adÃ¡ver": 6294,
  "adÃ©m": 5973,
  "adÃŃa": 7762,
  "adÃŃas": 38509,
  "adÃŃsimo": 47666,
  "ae": 7774,
  "af": 6517,
  "afirmÃ³": 14297,
  "afr": 42190,
  "ag": 1287,
  "aga": 12808,
  "agas": 18995,
  "ager": 9076,
  "ages": 39595,
  "agi": 42918,
  "agn": 9254,
  "agonal": 47824,
  "agosto": 45659,
  "agregÃ³": 30779,
  "agu": 26953,
  "agua": 34960,
  "ague": 5098,
  "aguez": 43474,
  "agÃ¼": 22934,
  "agÃ¼e": 40831,
  "ah": 6238,
  "ahora": 20195,
  "ahu": 24038,
  "ai": 19578,
  "aire": 47776,
  "aj": 4872,
  "ajada": 9628,
  "aje": 11295,
  "ajes": 35538,
  "ak": 6222,
  "aks": 44232,
  "al": 293,
  "ala": 929,
  "alacio": 3456,
  "alaciones": 37332,
  "alajara": 9757,
  "alam": 47630,
  "alan": 22393,
  "aland": 28923,
  "alao": 43482,
  "alapa": 31148,
  "alar": 13624,
  "alas": 45661,
  "alax": 10139,
  "ald": 3785,
  "alda": 35799,
  "alde": 38711,
  "aldi": 22527,
  "aldo": 12836,
  "ale": 1913,
  "alea": 48922,
  "aleda": 49785,
  "alem": 34920,
  "ales": 466,
  "alesa": 41313,
  "aley": 45203,
  "aleÃ³n": 33458,
  "algo": 32273,
  "algunos": 48040,
  "ali": 12594,
  "alia": 9578,
  "alias": 29479,
  "aliciÃ³n": 10216,
  "alidad": 1014,
  "alidades": 33975,
  "alina": 27246,
  "alis": 22506,
  "ality": 42049,
  "aliz": 809,
  "aliza": 6307,
  "alizaba": 28072,
  "alizaciones": 30092,
  "alizaciÃ³n": 4330,
  "alizada": 5641,
  "alizadas": 12887,
  "alizado": 4492,
  "alizador": 29760,
  "alizados": 11162,
  "alizan": 25504,
  "alizando": 16978,
  "alizar": 5014,
  "alizaron": 23405,
  "alizarse": 33462,
  "alizas": 35821,
  "alizÃ³": 5991,
  "all": 790,
  "alla": 2714,
  "allada": 47018,
  "allado": 5801,
  "alladolid": 9392,
  "allas": 20157,
  "alle": 36234,
  "allen": 9997,
  "aller": 5092,
  "allero": 21419,
  "alles": 21320,
  "alli": 24145,
  "allistas": 46045,
  "allo": 17183,
  "allones": 21648,
  "allos": 20442,
  "ally": 7095,
  "allÃ³": 8905,
  "allÃ³n": 10204,
  "almente": 698,
  "almirante": 37026,
  "alo": 2336,
  "aloa": 26470,
  "alog": 36305,
  "alogÃŃa": 20572,
  "alos": 42720,
  "als": 15849,
  "alse": 50136,
  "alt": 29099,
  "alta": 14663,
  "alth": 22970,
  "alto": 21423,
  "alu": 4997,
  "alupe": 14267,
  "alus": 33720,
  "aly": 40082,
  "alÃ³": 12610,
  "alÃŃ": 8551,
  "alÃŃmpicos": 20244,
  "am": 323,
  "ama": 1331,
  "amaciones": 22935,
  "amado": 31279,
  "aman": 13285,
  "amanca": 46610,
  "amanga": 28775,
  "amante": 13915,
  "amantes": 19318,
  "amar": 7898,
  "amarca": 7241,
  "amarina": 48155,
  "amarra": 39105,
  "amas": 6214,
  "amb": 2887,
  "amba": 10178,
  "ambas": 45560,
  "ambi": 550,
  "ambique": 28503,
  "ambiÃ©n": 589,
  "amble": 5725,
  "amblea": 6429,
  "ambleas": 33561,
  "ambo": 20520,
  "ambos": 39693,
  "ambre": 5847,
  "ambres": 22517,
  "ambri": 18357,
  "ambu": 36543,
  "ambuco": 48940,
  "ambul": 15248,
  "ame": 2002,
  "ameda": 26706,
  "amel": 38014,
  "amela": 21719,
  "amele": 40487,
  "amelo": 26516,
  "amelos": 40495,
  "amen": 17493,
  "ament": 25211,
  "amental": 12426,
  "amentales": 20769,
  "amente": 503,
  "amento": 1580,
  "amentos": 7703,
  "amer": 35699,
  "americ": 2913,
  "americana": 6612,
  "americanas": 27373,
  "americano": 6725,
  "americanos": 6911,
  "ames": 3227,
  "ami": 4879,
  "amia": 27330,
  "amiento": 1010,
  "amientos": 3035,
  "amil": 1012,
  "amilia": 7004,
  "amilitar": 34126,
  "amillo": 39226,
  "amilton": 14902,
  "amin": 5199,
  "amina": 19094,
  "aminas": 36050,
  "aming": 38383,
  "amio": 41698,
  "amis": 41918,
  "amiÃ¡n": 29537,
  "amo": 4479,
  "amon": 32091,
  "amor": 4441,
  "amora": 8953,
  "amorfos": 30498,
  "amos": 815,
  "amose": 32614,
  "amoto": 24080,
  "amount": 36691,
  "amp": 4771,
  "ampa": 16018,
  "ampar": 19134,
  "ampista": 22685,
  "ampo": 2720,
  "ampoco": 2922,
  "ams": 46303,
  "amu": 32799,
  "amuno": 50192,
  "amura": 33986,
  "amus": 30195,
  "amy": 37129,
  "amÃ¡": 3826,
  "amÃ¡n": 42280,
  "amÃ¡s": 3340,
  "amÃ©": 48367,
  "amÃ©rica": 5105,
  "amÃ³n": 16419,
  "amÃŃn": 21622,
  "an": 277,
  "ana": 544,
  "anada": 24360,
  "anadas": 44670,
  "anal": 16591,
  "anamente": 42495,
  "anas": 1994,
  "anato": 22713,
  "anca": 6218,
  "ancagua": 40461,
  "ancas": 41075,
  "ance": 3420,
  "ances": 13188,
  "ancha": 30598,
  "anci": 4231,
  "ancia": 1177,
  "anciaciÃ³n": 20990,
  "ancial": 36031,
  "ancias": 3765,
  "ancio": 11988,
  "anciÃ³": 48615,
  "anco": 30646,
  "and": 879,
  "anda": 4066,
  "andal": 12732,
  "andalias": 29802,
  "andante": 14579,
  "andar": 17918,
  "andarte": 29510,
  "andas": 45807,
  "ande": 48799,
  "ander": 4078,
  "andia": 46311,
  "andina": 30247,
  "andinavia": 48408,
  "ando": 414,
  "andon": 23406,
  "andos": 45115,
  "andr": 15466,
  "andra": 7029,
  "andre": 44139,
  "andri": 41427,
  "andro": 4118,
  "andrÃŃa": 20217,
  "ands": 34705,
  "andy": 11649,
  "andÃ©s": 15648,
  "andÃº": 49520,
  "ane": 2664,
  "anera": 44832,
  "anes": 5510,
  "aney": 44660,
  "ang": 1171,
  "anga": 35850,
  "angas": 36327,
  "ange": 17062,
  "angel": 8598,
  "anger": 16133,
  "ango": 17881,
  "angre": 28344,
  "angu": 44243,
  "ani": 5789,
  "ania": 5993,
  "anidad": 47965,
  "anie": 16172,
  "anim": 16919,
  "animidad": 29724,
  "anismo": 19981,
  "anista": 15134,
  "anistas": 43886,
  "ank": 35108,
  "ann": 5802,
  "anna": 8881,
  "annah": 20673,
  "anne": 26292,
  "annon": 25282,
  "ano": 506,
  "anoche": 48124,
  "anor": 18728,
  "anos": 980,
  "anov": 33668,
  "anova": 18253,
  "ans": 2700,
  "ansas": 10395,
  "anse": 47739,
  "ansen": 25024,
  "ansk": 34822,
  "anski": 48749,
  "ant": 438,
  "anta": 5918,
  "antada": 45617,
  "antado": 10184,
  "antal": 23658,
  "antar": 7938,
  "antarum": 38856,
  "antas": 1862,
  "ante": 511,
  "anteriormente": 39016,
  "antes": 582,
  "anteÃ³n": 24074,
  "anth": 13410,
  "antha": 20466,
  "anthus": 27137,
  "anti": 7286,
  "anticismo": 24770,
  "antil": 9507,
  "antina": 33736,
  "antino": 8061,
  "anto": 1700,
  "antom": 40875,
  "anton": 27010,
  "antos": 2715,
  "ants": 11446,
  "antÃ¡n": 16222,
  "antÃ³": 8085,
  "antÃŃa": 41894,
  "antÃŃn": 48610,
  "anu": 39244,
  "anum": 33167,
  "anunciÃ³": 19013,
  "anus": 29069,
  "any": 19257,
  "anz": 849,
  "anza": 1945,
  "anzas": 4902,
  "anzer": 29725,
  "anzos": 46688,
  "anzÃ³": 14930,
  "anÃ¡": 11559,
  "anÃ¡polis": 42624,
  "anÃ©s": 36695,
  "anÃŃa": 5812,
  "ao": 29080,
  "ap": 993,
  "apan": 37435,
  "apar": 11193,
  "apas": 28053,
  "aphne": 32020,
  "apia": 15709,
  "apo": 46875,
  "apones": 6330,
  "apro": 14789,
  "apropi": 41462,
  "apuntÃ³": 32156,
  "aquel": 39103,
  "aquÃŃ": 48438,
  "ar": 274,
  "ara": 531,
  "aragua": 12656,
  "aragÃ¼": 35588,
  "aragÃ¼ense": 42042,
  "aran": 2221,
  "aranda": 45580,
  "aranÃŃ": 25434,
  "aras": 9342,
  "arat": 49851,
  "arata": 42356,
  "aray": 45272,
  "araÃ³n": 15333,
  "arca": 2866,
  "arcado": 36325,
  "arcal": 28306,
  "arcas": 15382,
  "arch": 9663,
  "arco": 45175,
  "ard": 823,
  "arda": 27044,
  "ardas": 29552,
  "arde": 35988,
  "ardi": 17159,
  "ardier": 47793,
  "ardin": 44924,
  "ardina": 39921,
  "ardo": 2376,
  "ardos": 43952,
  "ardot": 47761,
  "ards": 24960,
  "ardÃ³": 43788,
  "ardÃŃa": 18130,
  "ardÃŃn": 31991,
  "are": 2779,
  "aredo": 32890,
  "arela": 17542,
  "aremos": 12540,
  "arena": 39976,
  "ares": 1833,
  "aret": 37740,
  "argo": 923,
  "ari": 2879,
  "aria": 1491,
  "ariado": 45544,
  "arial": 17297,
  "ariales": 27146,
  "ariamente": 9931,
  "arias": 3457,
  "arina": 31295,
  "ario": 725,
  "arios": 1445,
  "aris": 25706,
  "arist": 18135,
  "arium": 38515,
  "arius": 20184,
  "ariÃ±o": 26282,
  "ark": 17515,
  "arl": 17036,
  "arla": 2201,
  "arlas": 21027,
  "arle": 2836,
  "arles": 13039,
  "arlo": 1617,
  "arlos": 8778,
  "arlotte": 11489,
  "arly": 47703,
  "arm": 16456,
  "arma": 33101,
  "arme": 2199,
  "armÃ³nica": 31404,
  "arn": 44738,
  "arnos": 9132,
  "aro": 3252,
  "aron": 602,
  "arona": 46229,
  "aros": 42035,
  "arote": 18908,
  "arquÃŃa": 8948,
  "arquÃŃas": 41063,
  "arr": 47484,
  "arra": 10892,
  "arrama": 46156,
  "arro": 1272,
  "arroja": 33393,
  "arrollo": 40389,
  "arrones": 49942,
  "arrow": 34514,
  "ars": 9657,
  "arse": 744,
  "art": 2772,
  "artal": 46866,
  "arte": 3411,
  "arteto": 35439,
  "arth": 31568,
  "artney": 31670,
  "arto": 20006,
  "arts": 49658,
  "artÃ©n": 40543,
  "aru": 27442,
  "arum": 47123,
  "ary": 6712,
  "arÃ¡": 1967,
  "arÃ¡n": 8851,
  "arÃ¡s": 21697,
  "arÃ©": 3016,
  "arÃŃa": 1030,
  "arÃŃamos": 23843,
  "arÃŃan": 8207,
  "arÃŃas": 43908,
  "as": 278,
  "asa": 3753,
  "asaki": 23081,
  "asca": 41153,
  "asco": 43269,
  "ase": 928,
  "asegu": 19587,
  "asegurÃ³": 21705,
  "asen": 11253,
  "ases": 38430,
  "ash": 3558,
  "asha": 46759,
  "ashi": 28432,
  "ashington": 5981,
  "ashion": 41832,
  "asi": 18322,
  "asia": 13464,
  "asintiÃ³": 21365,
  "asis": 24696,
  "asiÃ³n": 6299,
  "aso": 4888,
  "ason": 8721,
  "ass": 39602,
  "ast": 5246,
  "asta": 616,
  "astas": 17753,
  "aste": 6058,
  "asteis": 45062,
  "asterio": 7402,
  "astres": 26854,
  "asuna": 30725,
  "asy": 48588,
  "asÃŃ": 24148,
  "at": 441,
  "ata": 10211,
  "atada": 42969,
  "atado": 37704,
  "atados": 48870,
  "atal": 1246,
  "atales": 13358,
  "atalla": 2849,
  "atallas": 12990,
  "atan": 37577,
  "atar": 9935,
  "atario": 36435,
  "atarios": 37041,
  "atas": 5818,
  "atasha": 29477,
  "atch": 17660,
  "ate": 2641,
  "aten": 22134,
  "atened": 38019,
  "ater": 14836,
  "ates": 5929,
  "ath": 4056,
  "atha": 28727,
  "athan": 8754,
  "ather": 14128,
  "athy": 45389,
  "atic": 37036,
  "atina": 41943,
  "ating": 37130,
  "ation": 39449,
  "atl": 19786,
  "atlÃ¡n": 23652,
  "atlÃ³n": 33208,
  "ato": 5664,
  "aton": 28153,
  "ator": 2245,
  "atorce": 11413,
  "atore": 30514,
  "atoria": 9962,
  "atorias": 15216,
  "atorio": 3889,
  "atorios": 13071,
  "atory": 34267,
  "atos": 3289,
  "atra": 17781,
  "atre": 11555,
  "atro": 1086,
  "atrocin": 11539,
  "ats": 11320,
  "atshe": 38771,
  "atshepsut": 39652,
  "atsu": 21625,
  "att": 15997,
  "atta": 47973,
  "atti": 28100,
  "attle": 15610,
  "atz": 29441,
  "atÃ³": 2975,
  "atÃ³n": 15362,
  "atÃŃa": 12895,
  "au": 2067,
  "augu": 4633,
  "aunque": 12078,
  "autor": 28653,
  "aux": 17661,
  "av": 1077,
  "aval": 13481,
  "ave": 4513,
  "avedra": 25537,
  "avent": 34199,
  "avera": 40816,
  "aves": 23431,
  "avi": 18945,
  "avia": 37668,
  "avier": 5128,
  "aviera": 14910,
  "aviones": 28410,
  "avor": 1877,
  "avos": 49925,
  "avy": 16963,
  "ax": 12948,
  "axaca": 16796,
  "ay": 507,
  "aya": 2566,
  "ayama": 45526,
  "ayan": 48687,
  "ayaquil": 17142,
  "ayas": 9763,
  "ayashi": 48415,
  "aye": 28823,
  "ayer": 45407,
  "ayo": 5390,
  "ayor": 32881,
  "ayos": 35670,
  "ays": 44868,
  "az": 11485,
  "azul": 49348,
  "aÃ©": 29538,
  "aÃ±a": 44508,
  "aÃ±ad": 8161,
  "aÃ±adiÃ³": 8609,
  "aÃ±o": 28154,
  "aÃ±os": 12095,
  "b": 75,
  "ba": 634,
  "bable": 20908,
  "bablemente": 10904,
  "bach": 12802,
  "baciones": 39911,
  "baciÃ³n": 7301,
  "back": 14331,
  "bad": 39054,
  "bada": 47335,
  "bado": 30953,
  "bago": 30147,
  "bah": 38064,
  "bajo": 11458,
  "bal": 3152,
  "bala": 45870,
  "balbuce": 34861,
  "balbuceÃ³": 40571,
  "ball": 5996,
  "bamba": 44537,
  "bamos": 9832,
  "ban": 2246,
  "band": 40004,
  "banda": 46826,
  "bane": 29862,
  "bank": 32084,
  "bano": 11188,
  "bao": 10928,
  "bar": 2140,
  "bara": 8622,
  "bard": 27978,
  "bas": 2264,
  "base": 37968,
  "basket": 43219,
  "bastien": 36598,
  "bat": 10833,
  "bata": 15637,
  "batalla": 46484,
  "bate": 20028,
  "baterÃŃa": 39515,
  "bath": 47675,
  "bati": 43635,
  "bato": 21327,
  "baum": 32685,
  "bay": 39829,
  "be": 2200,
  "bea": 43469,
  "bec": 11978,
  "beck": 27865,
  "beda": 49439,
  "bee": 42513,
  "bek": 26199,
  "bel": 3263,
  "bell": 12169,
  "bella": 34871,
  "belo": 46392,
  "ben": 11727,
  "bendas": 47093,
  "ber": 1100,
  "bera": 50121,
  "berg": 4117,
  "berger": 27856,
  "berland": 40131,
  "bero": 49437,
  "berry": 29086,
  "bers": 31424,
  "bert": 6506,
  "berto": 8960,
  "bery": 47036,
  "bes": 12751,
  "bet": 32561,
  "beta": 33216,
  "beth": 23864,
  "bey": 28707,
  "bi": 446,
  "bia": 4515,
  "bial": 42127,
  "bian": 32916,
  "bias": 15296,
  "bible": 34495,
  "bica": 45731,
  "bico": 43012,
  "bid": 22689,
  "bida": 5165,
  "bidas": 10716,
  "bide": 39885,
  "bido": 1428,
  "bidos": 12299,
  "bie": 13650,
  "bien": 36563,
  "bies": 42296,
  "biese": 50151,
  "biidae": 42524,
  "bil": 3989,
  "bila": 43871,
  "bile": 19319,
  "bili": 11693,
  "biliaria": 33866,
  "biliario": 16809,
  "biliarios": 38924,
  "bilidad": 17998,
  "billos": 24852,
  "bimos": 22740,
  "bin": 20259,
  "bins": 44900,
  "bio": 1737,
  "biologÃŃa": 45944,
  "bios": 2633,
  "bir": 9109,
  "bird": 37531,
  "bis": 17583,
  "bit": 19114,
  "bita": 4151,
  "bitas": 28361,
  "biter": 39678,
  "bito": 5591,
  "bitro": 17578,
  "bitros": 33826,
  "bium": 49032,
  "bius": 37596,
  "biÃ³": 1495,
  "bl": 31542,
  "bla": 5370,
  "blan": 19840,
  "blanc": 49720,
  "blanco": 46249,
  "blas": 10773,
  "blast": 20444,
  "ble": 1002,
  "bledon": 30595,
  "bles": 3573,
  "blo": 7899,
  "blos": 19317,
  "bo": 1362,
  "boa": 9811,
  "board": 7582,
  "boc": 10655,
  "body": 39661,
  "bol": 1088,
  "bola": 32625,
  "boldt": 33486,
  "bole": 27539,
  "boleda": 37261,
  "boli": 37793,
  "bomb": 49485,
  "bon": 12874,
  "bona": 28730,
  "book": 20043,
  "bor": 2101,
  "bora": 35130,
  "borg": 19106,
  "born": 20905,
  "borne": 37166,
  "boro": 11863,
  "borough": 24695,
  "bos": 6606,
  "bosa": 45829,
  "bot": 12905,
  "bour": 12262,
  "bourg": 35977,
  "bourne": 15511,
  "bow": 28864,
  "box": 14131,
  "boy": 14840,
  "boys": 44852,
  "boz": 13367,
  "br": 1840,
  "bra": 3694,
  "braba": 34188,
  "brada": 14198,
  "brado": 48586,
  "brados": 20525,
  "bral": 32550,
  "bramÃ³": 50097,
  "bran": 24850,
  "brand": 31365,
  "brandt": 46231,
  "bras": 7530,
  "bre": 422,
  "brea": 47452,
  "break": 48019,
  "brecht": 43285,
  "bregat": 38091,
  "bres": 14824,
  "bri": 20900,
  "brica": 23178,
  "bridge": 29580,
  "bro": 7803,
  "brome": 32558,
  "bromeÃ³": 35144,
  "bronce": 43122,
  "brook": 40801,
  "bru": 28948,
  "bruck": 43154,
  "brÃŃ": 33252,
  "bs": 16794,
  "bu": 2163,
  "buce": 20807,
  "buch": 40865,
  "buen": 32728,
  "buena": 28390,
  "bul": 24598,
  "bull": 43200,
  "bulo": 8850,
  "bulos": 29990,
  "bum": 1769,
  "bur": 2452,
  "burg": 6624,
  "burger": 45832,
  "burgh": 20213,
  "burgo": 4653,
  "burn": 19956,
  "buros": 47307,
  "bury": 11294,
  "bus": 6817,
  "buses": 14528,
  "by": 3324,
  "bye": 44224,
  "bÃ¡n": 39535,
  "bÃ©": 30560,
  "bÃ³": 15497,
  "bÃ³n": 12941,
  "bÃºs": 11887,
  "bÃ¼": 39903,
  "bÃŃ": 15088,
  "bÃŃa": 16843,
  "bÃŃo": 47483,
  "bÃŃtero": 34963,
  "c": 76,
  "ca": 434,
  "cab": 12340,
  "caba": 2900,
  "caban": 6335,
  "cabel": 42185,
  "cabi": 36668,
  "cable": 34906,
  "cac": 38129,
  "caci": 26258,
  "cacielos": 27206,
  "caciones": 27098,
  "caciÃ³n": 2334,
  "cad": 15753,
  "cada": 3071,
  "cadamente": 34572,
  "cadas": 5931,
  "cade": 49897,
  "cadem": 3444,
  "cademia": 15769,
  "cadia": 34244,
  "cado": 1451,
  "cador": 6711,
  "cadora": 33981,
  "cadores": 10508,
  "cados": 4128,
  "cal": 1291,
  "cala": 17367,
  "calcul": 43077,
  "calde": 34662,
  "cale": 24827,
  "cales": 12859,
  "calientes": 31581,
  "calip": 43705,
  "calipsis": 29548,
  "calle": 41127,
  "calo": 30001,
  "calyp": 42889,
  "cam": 3696,
  "cama": 29440,
  "cambi": 10149,
  "cambio": 11466,
  "came": 45473,
  "camente": 7160,
  "camento": 29448,
  "camentos": 20079,
  "camiento": 13377,
  "caminos": 44797,
  "camos": 17458,
  "campe": 42847,
  "campeÃ³n": 10486,
  "campista": 19071,
  "campo": 49838,
  "can": 1286,
  "cana": 16359,
  "canal": 40330,
  "canas": 48495,
  "cando": 2864,
  "canes": 14593,
  "cano": 11813,
  "canos": 21626,
  "cant": 15159,
  "cantado": 45103,
  "cante": 13439,
  "cantes": 20406,
  "cantil": 46136,
  "canto": 31936,
  "cantÃ³n": 34046,
  "canz": 40261,
  "canÃŃas": 35706,
  "cap": 25085,
  "cape": 39593,
  "capital": 31235,
  "capo": 47548,
  "car": 712,
  "cara": 5658,
  "caras": 20599,
  "carburos": 49198,
  "card": 30540,
  "cardo": 33402,
  "carga": 21742,
  "caria": 22913,
  "cario": 18538,
  "carios": 46336,
  "carlo": 22820,
  "carme": 47814,
  "caro": 29729,
  "caron": 5138,
  "carpus": 47285,
  "carril": 6494,
  "carriles": 16610,
  "carse": 5015,
  "cas": 878,
  "casa": 26349,
  "case": 22975,
  "cash": 33287,
  "casi": 31199,
  "caso": 5657,
  "cast": 29995,
  "caster": 25869,
  "casting": 39344,
  "castle": 28683,
  "cat": 21678,
  "cata": 44227,
  "cate": 18107,
  "cati": 35336,
  "causto": 28790,
  "caut": 50185,
  "cay": 36771,
  "cayo": 46499,
  "cc": 15831,
  "cca": 40635,
  "cci": 20729,
  "ccio": 33021,
  "cciones": 2933,
  "cciÃ³n": 707,
  "cco": 45454,
  "ce": 476,
  "cea": 27291,
  "ceae": 10654,
  "ced": 12681,
  "ceda": 37314,
  "cede": 36780,
  "cedente": 31458,
  "cedentes": 10600,
  "cedes": 37647,
  "cedido": 18291,
  "cediÃ³": 19642,
  "cedo": 29620,
  "cedor": 24499,
  "cega": 40309,
  "cejo": 27517,
  "cel": 1341,
  "cela": 15593,
  "celaciÃ³n": 34636,
  "celado": 47926,
  "celes": 33951,
  "cell": 26052,
  "cella": 43144,
  "celli": 45434,
  "celo": 9210,
  "celona": 2670,
  "cen": 1083,
  "cena": 15260,
  "cenas": 10346,
  "cencia": 12953,
  "cencias": 27673,
  "cendiÃ³": 38840,
  "cene": 40046,
  "ceno": 16158,
  "cenos": 40719,
  "cens": 23823,
  "censo": 14492,
  "cent": 2865,
  "centa": 11986,
  "centaje": 13482,
  "cente": 13298,
  "centes": 20541,
  "centr": 40763,
  "centri": 23263,
  "centro": 33875,
  "ceo": 23814,
  "cep": 1418,
  "cepciÃ³n": 3355,
  "ceps": 39614,
  "ceptible": 16977,
  "cepticismo": 34008,
  "cepto": 3828,
  "cer": 940,
  "cera": 3051,
  "ceras": 35396,
  "cerca": 44117,
  "ceres": 13671,
  "cern": 31385,
  "cero": 4900,
  "ceros": 11526,
  "cerse": 25327,
  "cerÃŃa": 14722,
  "ces": 502,
  "cesa": 2993,
  "cesano": 36726,
  "cesis": 7702,
  "cesiÃ³n": 10146,
  "ceso": 1944,
  "cesor": 17602,
  "cesora": 45664,
  "cesores": 27638,
  "cesos": 27996,
  "cess": 21874,
  "cester": 47203,
  "ceta": 41678,
  "cey": 30173,
  "cfort": 24858,
  "ch": 358,
  "cha": 645,
  "chaba": 4755,
  "chaban": 29169,
  "chable": 39996,
  "chad": 40693,
  "chada": 5090,
  "chadas": 14676,
  "chado": 3661,
  "chados": 14068,
  "chae": 40668,
  "chaft": 37302,
  "chal": 28920,
  "cham": 35306,
  "chame": 29886,
  "chan": 8233,
  "chando": 4820,
  "chang": 38027,
  "change": 44690,
  "char": 1830,
  "chara": 29277,
  "chard": 40086,
  "charme": 46549,
  "charon": 28638,
  "charse": 22035,
  "chart": 32781,
  "chas": 1309,
  "chate": 47224,
  "chb": 42144,
  "che": 829,
  "chea": 23161,
  "chel": 7877,
  "chelo": 35554,
  "chem": 27320,
  "chen": 6513,
  "cheng": 49628,
  "chenko": 27821,
  "cher": 5049,
  "chera": 16385,
  "cheras": 23273,
  "chero": 14692,
  "cheros": 31743,
  "ches": 2468,
  "chester": 9289,
  "chestra": 26009,
  "chet": 16516,
  "chete": 38028,
  "chev": 39058,
  "chevi": 22503,
  "chez": 5517,
  "chi": 1599,
  "chia": 23839,
  "chich": 22701,
  "chichte": 39362,
  "chid": 42789,
  "chigan": 18984,
  "chil": 32369,
  "chila": 17246,
  "chill": 12069,
  "chilla": 42863,
  "chillerato": 22723,
  "chillÃ³": 35376,
  "chim": 26451,
  "chin": 18907,
  "china": 26913,
  "ching": 47840,
  "chini": 45535,
  "chino": 21929,
  "chio": 30251,
  "chira": 26078,
  "chis": 22445,
  "chit": 49931,
  "chita": 27295,
  "chito": 34110,
  "chivo": 2448,
  "chman": 49506,
  "chn": 43452,
  "chner": 23113,
  "cho": 526,
  "chon": 36386,
  "chones": 22535,
  "chool": 46129,
  "chor": 13340,
  "chorros": 34410,
  "chos": 1024,
  "choso": 14883,
  "chov": 30461,
  "chs": 22080,
  "cht": 8216,
  "chtenstein": 46069,
  "chu": 7619,
  "chua": 30341,
  "chuca": 23177,
  "chuk": 45932,
  "chum": 43104,
  "chur": 42876,
  "chus": 8726,
  "chusetts": 10461,
  "chwitz": 40071,
  "chy": 21514,
  "chÃ¡ndose": 38641,
  "chÃ©": 13073,
  "chÃ³": 2340,
  "chÃ³n": 11980,
  "chÃº": 46426,
  "chÃŃn": 39909,
  "ci": 283,
  "cia": 410,
  "ciaba": 42909,
  "ciable": 38961,
  "ciaciones": 8511,
  "ciaciÃ³n": 3481,
  "ciada": 36431,
  "ciado": 8979,
  "ciados": 40437,
  "cial": 1284,
  "ciales": 3445,
  "cialidad": 36385,
  "cialmente": 10864,
  "cian": 31510,
  "ciana": 28262,
  "ciando": 49892,
  "ciano": 10409,
  "cianos": 31203,
  "ciar": 6504,
  "ciares": 33810,
  "cias": 1005,
  "cible": 13364,
  "cibles": 42469,
  "cica": 41092,
  "cico": 20998,
  "cid": 39671,
  "cida": 2766,
  "cidad": 1823,
  "cidades": 9570,
  "cidae": 34022,
  "cidamente": 41433,
  "cidas": 5785,
  "ciden": 2793,
  "cident": 48875,
  "cidental": 4058,
  "cidentales": 12127,
  "cidente": 3902,
  "cidentes": 11011,
  "cido": 1441,
  "cidos": 4162,
  "cie": 17089,
  "ciedad": 28657,
  "cien": 3114,
  "cience": 37394,
  "ciencia": 9527,
  "cienda": 8615,
  "ciendas": 31095,
  "ciende": 13342,
  "cienden": 26707,
  "ciendo": 1909,
  "ciense": 49654,
  "cient": 26108,
  "cientas": 16920,
  "ciente": 2538,
  "cientemente": 26362,
  "cientes": 10155,
  "cientos": 6361,
  "cier": 42411,
  "ciera": 16815,
  "cieran": 45512,
  "cieron": 6822,
  "cierto": 12417,
  "cies": 49620,
  "cif": 15345,
  "cifer": 48318,
  "cific": 18682,
  "cifix": 44152,
  "cifixiÃ³n": 48856,
  "cifr": 42444,
  "cigal": 41812,
  "cigalpa": 45845,
  "cil": 1283,
  "cila": 46972,
  "ciles": 8557,
  "cili": 17628,
  "ciliaciÃ³n": 24547,
  "cilio": 17220,
  "cill": 28255,
  "cilla": 10701,
  "cillas": 35536,
  "cille": 49215,
  "ciller": 20233,
  "cillerÃŃa": 41686,
  "cillo": 13277,
  "cillos": 19288,
  "cima": 13842,
  "cimiento": 2119,
  "cimientos": 5700,
  "cimo": 12263,
  "cimos": 25758,
  "cin": 1866,
  "cina": 2496,
  "cinaciones": 46131,
  "cinaciÃ³n": 23728,
  "cinas": 14779,
  "cinco": 10572,
  "cine": 19422,
  "cing": 6464,
  "cini": 23815,
  "cinnati": 29757,
  "cino": 14970,
  "cinos": 45001,
  "cinta": 30198,
  "cinto": 17018,
  "cio": 781,
  "ciocho": 13539,
  "cion": 419,
  "ciona": 13040,
  "cionaba": 30057,
  "cionada": 9979,
  "cionadas": 31142,
  "cionado": 3262,
  "cionados": 14097,
  "cional": 739,
  "cionales": 2130,
  "cionalmente": 14574,
  "cionamiento": 17778,
  "cionan": 37982,
  "cionando": 27682,
  "cionar": 4041,
  "cionaria": 43634,
  "cionario": 10033,
  "cionarios": 29246,
  "ciones": 494,
  "cionismo": 32789,
  "cionista": 14581,
  "cionistas": 20839,
  "cions": 41795,
  "cionÃ³": 9554,
  "ciopel": 47818,
  "cios": 1519,
  "ciosa": 12912,
  "ciosamente": 31106,
  "ciosas": 27997,
  "cioso": 10627,
  "ciosos": 22349,
  "cip": 750,
  "cipaciÃ³n": 29370,
  "cipe": 3460,
  "cipes": 14517,
  "cipi": 31780,
  "cipiente": 17197,
  "cipiÃ³n": 34683,
  "ciplina": 47712,
  "cir": 2543,
  "cirÃ¡": 30630,
  "cirÃŃa": 23230,
  "cis": 1485,
  "cisa": 36090,
  "cisamente": 20880,
  "cisiÃ³n": 22288,
  "cismo": 9621,
  "ciso": 21260,
  "cisos": 48160,
  "cista": 14829,
  "cistas": 20793,
  "cita": 9165,
  "citamente": 25369,
  "citas": 22936,
  "cito": 1904,
  "citos": 7594,
  "citur": 38478,
  "ciudad": 28398,
  "cius": 39653,
  "ciÃ©": 19427,
  "ciÃ©ndose": 14733,
  "ciÃ³": 1241,
  "ciÃ³n": 343,
  "ck": 1326,
  "cke": 30241,
  "cken": 43666,
  "cker": 13571,
  "cki": 47521,
  "ckland": 32738,
  "cks": 13413,
  "cky": 19996,
  "cl": 621,
  "cla": 4305,
  "clado": 41047,
  "clair": 32059,
  "clam": 2407,
  "clama": 21895,
  "clamÃ³": 3643,
  "clar": 11793,
  "clas": 13434,
  "clase": 40023,
  "clave": 36088,
  "cle": 2795,
  "clear": 27058,
  "cles": 24191,
  "cliffe": 45913,
  "clip": 13807,
  "clips": 47401,
  "clipse": 28126,
  "clismo": 21744,
  "clo": 5705,
  "clope": 7825,
  "clopedia": 8462,
  "clopÃ©": 43768,
  "clos": 47312,
  "club": 39440,
  "clus": 37578,
  "clÃ¡sico": 24758,
  "cm": 36495,
  "co": 435,
  "coa": 48943,
  "cock": 21925,
  "coco": 44908,
  "cocÃ³": 47720,
  "codi": 37746,
  "coe": 36559,
  "cog": 27775,
  "col": 3302,
  "cola": 6027,
  "colas": 13362,
  "colate": 13645,
  "cole": 25458,
  "coles": 14416,
  "coli": 37260,
  "colm": 25454,
  "coln": 14453,
  "colo": 12964,
  "colomb": 34862,
  "color": 30474,
  "colÃŃa": 23053,
  "com": 2287,
  "comb": 25286,
  "combe": 42673,
  "come": 28355,
  "comentÃ³": 9671,
  "comenzÃ³": 29577,
  "comer": 44467,
  "como": 4829,
  "compaÃ±": 25098,
  "comple": 36057,
  "compren": 39183,
  "comun": 21743,
  "comunidad": 25091,
  "con": 545,
  "cona": 32042,
  "conada": 49067,
  "concel": 38290,
  "concl": 23491,
  "concluyÃ³": 26969,
  "condado": 18754,
  "cones": 10540,
  "conf": 24100,
  "confes": 27297,
  "confesÃ³": 30350,
  "confirmÃ³": 40406,
  "coni": 30485,
  "conia": 45683,
  "cono": 25111,
  "conoci": 11041,
  "conocida": 36290,
  "conocido": 22012,
  "cons": 17682,
  "consciente": 36913,
  "consin": 19904,
  "consul": 41484,
  "contes": 19102,
  "contestÃ©": 28421,
  "contestÃ³": 4748,
  "conti": 42206,
  "contin": 48458,
  "continu": 32951,
  "continuÃ³": 12024,
  "contra": 38480,
  "control": 39458,
  "convino": 34923,
  "cop": 26215,
  "copa": 10132,
  "cope": 33007,
  "copia": 36554,
  "copio": 15158,
  "copios": 39137,
  "cor": 1697,
  "cora": 45716,
  "cord": 19367,
  "cordia": 20649,
  "core": 11623,
  "corpor": 30822,
  "corromana": 39271,
  "cort": 20675,
  "corto": 39109,
  "cos": 914,
  "cosa": 13139,
  "cosas": 22928,
  "coso": 17673,
  "cosos": 35535,
  "cot": 28331,
  "cota": 21367,
  "cotas": 38745,
  "cote": 49950,
  "cott": 22764,
  "court": 20151,
  "couver": 20305,
  "covia": 30823,
  "cr": 25080,
  "cra": 3483,
  "cracia": 7491,
  "craft": 25924,
  "cran": 7010,
  "cre": 1213,
  "cri": 1343,
  "crib": 9717,
  "cribe": 24393,
  "cribir": 27027,
  "cribiÃ³": 21558,
  "crim": 14515,
  "crip": 8809,
  "cripciones": 17742,
  "cripciÃ³n": 4354,
  "cript": 33974,
  "crist": 33341,
  "crita": 16534,
  "critas": 32101,
  "critic": 39204,
  "crito": 7307,
  "critos": 12947,
  "cro": 8619,
  "croft": 41749,
  "cron": 18906,
  "cross": 42304,
  "cru": 25543,
  "cruz": 34721,
  "crÃ¡": 5606,
  "crÃŃ": 38108,
  "cs": 30031,
  "ct": 11456,
  "cta": 2546,
  "ctas": 24769,
  "cti": 4234,
  "ction": 8706,
  "ctions": 23709,
  "ctiva": 15522,
  "ctivas": 33793,
  "ctividad": 47321,
  "ctivo": 18085,
  "ctivos": 27608,
  "cto": 1607,
  "cton": 25702,
  "ctor": 870,
  "ctora": 9681,
  "ctores": 4063,
  "ctos": 3709,
  "ctu": 1138,
  "ctubre": 1811,
  "ctur": 7394,
  "ctura": 3655,
  "cturas": 27425,
  "cture": 29587,
  "ctus": 34394,
  "cu": 378,
  "cua": 29605,
  "cual": 37809,
  "cuando": 21891,
  "cuar": 29353,
  "cuas": 46166,
  "cuatro": 45341,
  "cub": 1596,
  "cucho": 25738,
  "cudiÃ³": 35187,
  "cue": 29600,
  "cuela": 19441,
  "cuenca": 44064,
  "cuencia": 2941,
  "cuencias": 30805,
  "cuent": 1060,
  "cuenta": 5612,
  "cuentra": 49510,
  "cuentro": 16776,
  "cuentros": 34688,
  "cuer": 8958,
  "cuerda": 18928,
  "cuerdas": 24551,
  "cuerdo": 9974,
  "cuerdos": 24970,
  "cuito": 49703,
  "cul": 1145,
  "cula": 6723,
  "culaciones": 35119,
  "culaciÃ³n": 18246,
  "culan": 48723,
  "cular": 3936,
  "culares": 13535,
  "culas": 13250,
  "cules": 17309,
  "culino": 18295,
  "cull": 44501,
  "cullÃ³": 25560,
  "culo": 2584,
  "culos": 3544,
  "culp": 47661,
  "cultad": 5959,
  "cultura": 20145,
  "cultural": 40370,
  "culus": 46646,
  "cum": 22507,
  "cumb": 16096,
  "cun": 22717,
  "cur": 957,
  "cura": 6185,
  "cure": 32195,
  "curi": 34436,
  "curidad": 33045,
  "curio": 16888,
  "curo": 21964,
  "curre": 37606,
  "curriÃ³": 40123,
  "curru": 18075,
  "curs": 19664,
  "cursal": 36374,
  "cursales": 49668,
  "curso": 3602,
  "cursor": 29609,
  "cursos": 49649,
  "cury": 30786,
  "cus": 5468,
  "cusa": 12083,
  "cuse": 41604,
  "cusiÃ³n": 11628,
  "cuta": 22472,
  "cuy": 42648,
  "cuyo": 40156,
  "cuÃ¡l": 32320,
  "cuÃ¡n": 26309,
  "cuÃ¡ndo": 43387,
  "cuÃ¡nto": 43193,
  "cy": 3686,
  "cz": 29643,
  "czy": 43757,
  "cÃ¡": 25234,
  "cÃ¡n": 5265,
  "cÃ¡ndole": 25159,
  "cÃ¡ndose": 16840,
  "cÃ¡ngel": 25740,
  "cÃ¡ntara": 28947,
  "cÃ¡r": 39990,
  "cÃ©": 6881,
  "cÃ©n": 9898,
  "cÃ©s": 2672,
  "cÃ³": 1294,
  "cÃ³mo": 5206,
  "cÃ³n": 4086,
  "cÃ³pica": 42579,
  "cÃº": 6600,
  "cÃºl": 41417,
  "cÃºn": 44274,
  "cÃŃ": 7499,
  "cÃŃa": 1327,
  "cÃŃan": 6802,
  "cÃŃas": 13908,
  "cÃŃn": 41778,
  "d": 77,
  "da": 360,
  "daba": 12575,
  "daban": 42764,
  "dac": 42808,
  "dad": 394,
  "dada": 13226,
  "dadas": 10003,
  "dadera": 35307,
  "dades": 1324,
  "dado": 1473,
  "dador": 11030,
  "dadora": 41297,
  "dadores": 18890,
  "dados": 2678,
  "dadura": 29107,
  "dae": 34701,
  "dah": 47090,
  "daje": 11006,
  "dak": 42311,
  "dal": 1726,
  "dale": 12899,
  "dalena": 11494,
  "dalidades": 28772,
  "dalla": 3786,
  "dallas": 9965,
  "dalo": 25900,
  "dalus": 30333,
  "dam": 7555,
  "dame": 47406,
  "damente": 2885,
  "damos": 34024,
  "dan": 4027,
  "dana": 47377,
  "dance": 43448,
  "dando": 44410,
  "dano": 17604,
  "danos": 41300,
  "dap": 4304,
  "dar": 3106,
  "dara": 41744,
  "dard": 47581,
  "dares": 21425,
  "darme": 47252,
  "daron": 30101,
  "darse": 22423,
  "das": 593,
  "dase": 29730,
  "dat": 44027,
  "date": 15531,
  "dato": 24886,
  "day": 13707,
  "daz": 31441,
  "daÃ±a": 42824,
  "dd": 14118,
  "de": 266,
  "dea": 5449,
  "deaba": 27565,
  "deada": 35217,
  "deado": 29807,
  "deando": 21054,
  "dear": 17654,
  "deas": 11407,
  "deau": 43584,
  "deb": 44786,
  "deburgo": 34505,
  "dec": 27934,
  "decer": 15779,
  "deci": 34621,
  "decido": 38085,
  "decir": 26644,
  "declar": 18518,
  "declarÃ³": 19717,
  "decÃŃa": 13705,
  "ded": 17953,
  "dedor": 18973,
  "dedores": 30861,
  "dee": 36089,
  "deen": 32383,
  "def": 27437,
  "defin": 41603,
  "dek": 42795,
  "del": 1586,
  "dela": 7998,
  "dele": 15741,
  "deleine": 31408,
  "deles": 48697,
  "delfia": 18412,
  "delia": 39799,
  "dell": 7265,
  "della": 32719,
  "delli": 46471,
  "dellÃŃn": 12784,
  "delo": 12211,
  "delphia": 21804,
  "dem": 984,
  "dema": 44913,
  "demar": 38416,
  "deme": 38791,
  "demia": 15723,
  "demias": 47064,
  "demo": 20873,
  "demoiselle": 32578,
  "demos": 3214,
  "demÃ¡s": 1243,
  "demÃ³crata": 33135,
  "den": 465,
  "dena": 3840,
  "denal": 9161,
  "denales": 26988,
  "denas": 8684,
  "denburg": 42755,
  "dence": 21337,
  "dencia": 1986,
  "dencial": 39643,
  "denciales": 49697,
  "dencias": 8402,
  "denes": 4675,
  "deno": 42452,
  "dens": 28323,
  "dense": 30046,
  "dent": 22884,
  "dental": 34577,
  "dente": 1826,
  "dentemente": 22838,
  "dentes": 4750,
  "dentro": 41357,
  "deo": 2045,
  "deon": 28254,
  "deos": 7285,
  "depen": 2430,
  "der": 510,
  "dera": 1209,
  "deraciones": 22376,
  "deraciÃ³n": 4172,
  "derando": 45573,
  "deras": 4697,
  "dere": 13755,
  "derecha": 34287,
  "deres": 4711,
  "deri": 37545,
  "deria": 49165,
  "derick": 38534,
  "derland": 37312,
  "dern": 25913,
  "dero": 2139,
  "deros": 5144,
  "ders": 7027,
  "derse": 10579,
  "derson": 9103,
  "derÃŃa": 6175,
  "derÃŃas": 26671,
  "des": 538,
  "desa": 5393,
  "desas": 50010,
  "desde": 13555,
  "dese": 28519,
  "deses": 23410,
  "desh": 27534,
  "desma": 35616,
  "despuÃ©s": 27987,
  "dest": 8857,
  "deste": 10991,
  "det": 26067,
  "dete": 25718,
  "detes": 28793,
  "dette": 29560,
  "deus": 34359,
  "dev": 37211,
  "devil": 42425,
  "dex": 19285,
  "dez": 1836,
  "deza": 13911,
  "dezco": 18048,
  "deÃ±a": 25783,
  "deÃ³": 10802,
  "df": 34738,
  "dge": 36171,
  "di": 305,
  "dia": 1067,
  "dial": 1787,
  "diales": 10768,
  "dialmente": 28612,
  "dian": 38798,
  "diana": 23272,
  "diando": 28769,
  "diano": 28364,
  "diar": 19852,
  "dias": 5060,
  "diat": 4649,
  "diatamente": 4806,
  "dible": 14556,
  "dibles": 38490,
  "dic": 18353,
  "dica": 4135,
  "dical": 44185,
  "dicamente": 20938,
  "dicas": 11275,
  "dice": 4511,
  "dices": 16060,
  "dicho": 50122,
  "dici": 24480,
  "diciembre": 47345,
  "diciones": 3616,
  "diciÃ³n": 2553,
  "dico": 2431,
  "dicos": 4526,
  "did": 47736,
  "dida": 1507,
  "didad": 14964,
  "didades": 34914,
  "didae": 48249,
  "didamente": 20517,
  "didas": 4485,
  "didato": 39038,
  "dido": 968,
  "didos": 3622,
  "die": 6709,
  "diendo": 2254,
  "diente": 2345,
  "dientes": 4160,
  "dier": 24439,
  "diera": 6577,
  "dieran": 17186,
  "dieron": 3000,
  "dies": 17756,
  "diese": 18446,
  "diesen": 47515,
  "dif": 25297,
  "difusiÃ³n": 34815,
  "dig": 14133,
  "diga": 35513,
  "digo": 4953,
  "digos": 16675,
  "dii": 48047,
  "dije": 6914,
  "dijo": 962,
  "dil": 20020,
  "dill": 6982,
  "dilla": 9916,
  "dillas": 26704,
  "dillera": 11909,
  "dillo": 26865,
  "dim": 35631,
  "dimensional": 39560,
  "dimiento": 5122,
  "dimientos": 12416,
  "dimos": 13928,
  "din": 5590,
  "dina": 26809,
  "ding": 20735,
  "dinÃ¡mica": 30887,
  "dio": 1308,
  "diola": 47538,
  "dios": 2590,
  "diosa": 29350,
  "dioso": 24686,
  "diosos": 45147,
  "dir": 1910,
  "director": 28604,
  "dirig": 45475,
  "dirse": 7896,
  "dirÃŃa": 28881,
  "dis": 4448,
  "disco": 46215,
  "dish": 26757,
  "dismo": 12103,
  "dist": 15014,
  "dista": 15757,
  "distas": 19781,
  "diste": 32248,
  "distrito": 34173,
  "dit": 29333,
  "dita": 6678,
  "ditas": 18939,
  "dition": 42412,
  "ditions": 29412,
  "dito": 4809,
  "ditos": 6824,
  "dium": 17694,
  "divers": 14653,
  "diz": 6992,
  "dizi": 48668,
  "diÃ©ndole": 21987,
  "diÃ©ndome": 44291,
  "diÃ©ndose": 11815,
  "diÃ³": 828,
  "diÃ³cesis": 20668,
  "diÃ³s": 9733,
  "dl": 46029,
  "dle": 9908,
  "dles": 42287,
  "dn": 37012,
  "dney": 10852,
  "do": 301,
  "dob": 16714,
  "doble": 34241,
  "doc": 31336,
  "dock": 44700,
  "doeste": 22658,
  "dog": 40519,
  "dol": 5585,
  "dola": 44520,
  "dole": 23908,
  "dolfo": 8367,
  "dom": 11299,
  "domen": 23989,
  "domin": 10310,
  "domina": 36947,
  "domo": 15500,
  "don": 2009,
  "dona": 12557,
  "donado": 19605,
  "donald": 16170,
  "donde": 17107,
  "done": 29213,
  "dones": 8613,
  "donesia": 14478,
  "dong": 43579,
  "doni": 50152,
  "donos": 11105,
  "dor": 1159,
  "dora": 13653,
  "doras": 25989,
  "dore": 20130,
  "dores": 4535,
  "dorf": 14355,
  "dorff": 46829,
  "doro": 10128,
  "dorra": 24249,
  "dos": 442,
  "dosa": 15986,
  "dosas": 21531,
  "dose": 1021,
  "dosis": 47217,
  "doso": 13222,
  "dosos": 30546,
  "doto": 34477,
  "dou": 25423,
  "douard": 32917,
  "dov": 26977,
  "dow": 37143,
  "down": 22125,
  "dows": 11325,
  "dox": 32778,
  "dr": 706,
  "dra": 2405,
  "drada": 34125,
  "drado": 43231,
  "dral": 24591,
  "dras": 6064,
  "dre": 10432,
  "dremos": 11308,
  "dren": 16531,
  "dri": 4816,
  "dric": 35405,
  "drich": 13080,
  "drick": 28329,
  "drico": 42561,
  "dro": 5392,
  "drom": 39674,
  "drome": 15948,
  "dromo": 14410,
  "dron": 41889,
  "dros": 43689,
  "dry": 27803,
  "drÃ¡": 6532,
  "drÃ¡n": 16565,
  "drÃ¡s": 17791,
  "drÃ¡ul": 22842,
  "drÃ©": 12196,
  "drÃ³": 14006,
  "drÃŃ": 5247,
  "drÃŃa": 1316,
  "drÃŃan": 14942,
  "drÃŃas": 19476,
  "drÃŃguez": 5315,
  "ds": 7163,
  "dt": 21839,
  "du": 535,
  "ducciÃ³n": 5450,
  "ducto": 23663,
  "ductor": 33031,
  "ductos": 49187,
  "dud": 49519,
  "duino": 42427,
  "duk": 43983,
  "dul": 6738,
  "dula": 12222,
  "dulaciÃ³n": 44084,
  "dulas": 30335,
  "dulidad": 22864,
  "dulo": 14019,
  "dulos": 24625,
  "dum": 6437,
  "dumbre": 9364,
  "dumentaria": 29575,
  "dun": 49822,
  "duque": 25792,
  "dur": 39466,
  "dura": 10542,
  "durante": 48187,
  "duras": 15404,
  "dure": 14274,
  "dus": 24473,
  "dust": 2805,
  "dwich": 32096,
  "dy": 3970,
  "dz": 48246,
  "dÃ¡": 35780,
  "dÃ¡n": 29943,
  "dÃ©": 11562,
  "dÃ©is": 41492,
  "dÃ©n": 22925,
  "dÃ©r": 24267,
  "dÃ©ric": 36372,
  "dÃ©s": 16808,
  "dÃ³": 3662,
  "dÃ³n": 4517,
  "dÃ³nde": 18679,
  "dÃ³s": 19064,
  "dÃ³Ã±ez": 36498,
  "dÃŃ": 2609,
  "dÃŃa": 838,
  "dÃŃan": 2477,
  "dÃŃas": 18053,
  "dÃŃb": 11557,
  "dÃŃsimo": 40109,
  "e": 78,
  "ePub": 23771,
  "ea": 898,
  "eaba": 20075,
  "eado": 25723,
  "eae": 10356,
  "eal": 35919,
  "eamente": 9577,
  "eando": 28668,
  "ear": 7709,
  "eas": 2827,
  "eau": 12183,
  "eaux": 47171,
  "eb": 842,
  "eball": 48739,
  "ebas": 19682,
  "ebe": 17216,
  "eber": 25741,
  "eberg": 34387,
  "ebio": 27553,
  "ebo": 10955,
  "ebook": 15544,
  "ebra": 9758,
  "ebre": 29815,
  "ebrero": 2076,
  "ebres": 40876,
  "ebro": 33455,
  "ec": 397,
  "eca": 3780,
  "ecas": 12037,
  "ecaxa": 34710,
  "ecciÃ³n": 32652,
  "ece": 1750,
  "ecedor": 33364,
  "ecemos": 29608,
  "ecen": 4100,
  "ecencia": 49042,
  "ecer": 2432,
  "ecera": 41718,
  "ecerse": 25233,
  "ecerÃŃa": 15579,
  "eces": 782,
  "ecesiÃ³n": 49417,
  "ech": 24535,
  "eci": 799,
  "ecida": 20829,
  "ecidas": 45837,
  "ecido": 2718,
  "ecidos": 28048,
  "eciendo": 11905,
  "eciente": 29718,
  "eciera": 27974,
  "ecieron": 5781,
  "ecillos": 49233,
  "ecimiento": 23971,
  "eciras": 31739,
  "ecito": 45593,
  "eciÃ³": 1691,
  "eck": 5849,
  "ecker": 48809,
  "eco": 6389,
  "econ": 22223,
  "ecos": 12324,
  "ector": 13260,
  "ecÃ©": 13550,
  "ecÃŃ": 27232,
  "ecÃŃa": 2706,
  "ecÃŃan": 5295,
  "ed": 900,
  "eda": 5216,
  "edad": 2153,
  "edades": 10563,
  "edas": 44774,
  "edd": 50187,
  "ede": 6449,
  "edi": 5897,
  "edia": 14985,
  "ediciÃ³n": 38978,
  "ediencia": 21498,
  "edings": 46361,
  "edo": 28447,
  "edonia": 15359,
  "edor": 5456,
  "edora": 18422,
  "edores": 10915,
  "edro": 2556,
  "eds": 8183,
  "edy": 9614,
  "ee": 9346,
  "ef": 6603,
  "eg": 862,
  "ega": 50206,
  "egada": 43531,
  "egado": 31747,
  "egal": 21985,
  "egan": 35609,
  "egas": 8345,
  "eger": 36472,
  "egil": 31823,
  "egildo": 49817,
  "ego": 22813,
  "egr": 10769,
  "egre": 47077,
  "egro": 6563,
  "egu": 16475,
  "egÃ³": 32966,
  "eh": 10451,
  "ei": 21262,
  "eira": 13092,
  "eiro": 33222,
  "ej": 26268,
  "eja": 44327,
  "ejo": 12659,
  "ejos": 23318,
  "ek": 5301,
  "eks": 44538,
  "ekw": 21526,
  "ekwondo": 21941,
  "el": 385,
  "ela": 8098,
  "elamente": 25185,
  "eland": 11975,
  "elas": 2908,
  "eld": 26855,
  "elda": 43143,
  "ele": 14444,
  "elecciones": 42048,
  "eler": 6097,
  "eles": 6752,
  "elf": 25002,
  "eli": 17047,
  "elia": 8422,
  "elieu": 48905,
  "elin": 34164,
  "elina": 39305,
  "eling": 36153,
  "elio": 48631,
  "elisco": 48904,
  "ell": 1248,
  "ella": 4727,
  "ellan": 47400,
  "ellas": 39367,
  "elle": 6460,
  "eller": 14921,
  "elles": 27363,
  "elli": 8717,
  "ello": 3571,
  "ellos": 10063,
  "ellow": 25532,
  "ells": 23240,
  "elly": 9613,
  "ellÃ¡n": 26814,
  "ellÃ³": 48860,
  "ellÃ³n": 30758,
  "elmo": 37716,
  "elo": 20552,
  "elos": 5619,
  "els": 12492,
  "elsier": 24819,
  "elson": 8911,
  "elt": 20010,
  "ely": 28406,
  "elÃ©ctr": 22228,
  "elÃ©ctrica": 32220,
  "em": 497,
  "ema": 7354,
  "eman": 16286,
  "emann": 41103,
  "emas": 5478,
  "emasiado": 22780,
  "ember": 20910,
  "embre": 1163,
  "eme": 5127,
  "emen": 2947,
  "emenino": 46155,
  "ement": 5775,
  "emente": 3801,
  "ementerio": 7925,
  "emento": 18401,
  "emer": 36555,
  "emes": 26342,
  "emi": 32535,
  "emia": 21252,
  "emin": 8926,
  "emon": 31459,
  "emor": 7737,
  "emos": 1036,
  "emp": 3631,
  "empezÃ³": 23280,
  "ems": 41624,
  "emu": 49444,
  "emy": 17277,
  "emÃŃas": 48278,
  "en": 275,
  "ena": 682,
  "enada": 31192,
  "enado": 45660,
  "enaje": 6936,
  "enajes": 39343,
  "enan": 35278,
  "enario": 5059,
  "enas": 1891,
  "enau": 49647,
  "enberg": 34192,
  "enc": 33308,
  "enca": 24176,
  "ence": 6923,
  "enci": 579,
  "encia": 598,
  "enciada": 22949,
  "enciado": 9632,
  "encial": 7223,
  "enciales": 31709,
  "encias": 756,
  "encio": 9952,
  "enciÃ³": 16028,
  "enco": 6808,
  "encos": 35896,
  "end": 3345,
  "enda": 4301,
  "endario": 12377,
  "endas": 7535,
  "ende": 16189,
  "ender": 49415,
  "endes": 49290,
  "endi": 15501,
  "endio": 47022,
  "endo": 529,
  "endof": 791,
  "endoftext": 794,
  "endos": 42340,
  "endoza": 8661,
  "ends": 23748,
  "endy": 27658,
  "ene": 1285,
  "eneas": 31326,
  "enen": 12945,
  "ener": 846,
  "enero": 45356,
  "enes": 7795,
  "enetr": 33998,
  "eney": 48216,
  "eng": 10427,
  "enga": 40914,
  "engo": 21127,
  "eni": 31543,
  "enia": 13709,
  "enio": 9107,
  "enix": 16730,
  "enko": 21975,
  "enn": 2410,
  "enna": 29376,
  "enne": 16947,
  "enner": 16581,
  "ennes": 18132,
  "ennis": 18920,
  "enny": 7167,
  "eno": 1388,
  "enoglio": 49694,
  "enografÃŃa": 20330,
  "enos": 5843,
  "enque": 40629,
  "ens": 505,
  "ensa": 1432,
  "ensamente": 31136,
  "ensas": 13107,
  "ense": 4359,
  "ensen": 18458,
  "enses": 12074,
  "ensible": 12623,
  "ensibles": 32348,
  "ensidad": 28782,
  "ension": 49166,
  "ensiones": 6586,
  "ensis": 7777,
  "ensiva": 21310,
  "ensivo": 20629,
  "ensiÃ³n": 2799,
  "ensk": 48542,
  "enso": 1723,
  "enson": 21386,
  "ensor": 8123,
  "ensores": 18150,
  "ensos": 11497,
  "enstein": 17240,
  "ent": 374,
  "enta": 672,
  "entaba": 16766,
  "entaciÃ³n": 2722,
  "entada": 15799,
  "entadas": 35043,
  "entado": 4227,
  "entados": 15811,
  "ental": 2535,
  "entales": 5447,
  "entalmente": 42893,
  "entamente": 4389,
  "entan": 7098,
  "entando": 27480,
  "entar": 3144,
  "entaria": 20828,
  "entarias": 19443,
  "entario": 24414,
  "entarios": 26769,
  "entas": 3898,
  "ente": 368,
  "entecos": 47817,
  "entel": 37066,
  "entemente": 4007,
  "enten": 17331,
  "entendido": 33327,
  "enter": 20015,
  "entes": 761,
  "enth": 36184,
  "enthal": 41157,
  "enti": 5963,
  "entice": 15828,
  "entido": 32121,
  "entimiento": 10763,
  "entin": 29002,
  "entina": 23153,
  "entino": 19450,
  "entir": 19272,
  "entistas": 38253,
  "ento": 608,
  "enton": 19846,
  "entonces": 35539,
  "entos": 985,
  "entosa": 27975,
  "entoso": 45405,
  "entre": 14048,
  "entro": 6315,
  "ents": 21458,
  "entu": 16973,
  "enty": 48839,
  "entz": 40240,
  "entÃ©": 47017,
  "entÃ³": 3093,
  "entÃ³n": 45462,
  "entÃŃ": 20395,
  "entÃŃa": 16876,
  "enz": 1360,
  "enza": 7222,
  "enze": 47001,
  "enzie": 26625,
  "enzo": 7054,
  "enzuela": 29709,
  "enzÃ³": 9704,
  "eo": 726,
  "eografÃŃa": 17610,
  "eople": 21272,
  "eos": 5998,
  "eot": 23114,
  "ep": 1250,
  "eph": 24078,
  "eppe": 17268,
  "epres": 9169,
  "epresidente": 11405,
  "eps": 31854,
  "equi": 39437,
  "er": 270,
  "era": 437,
  "eraciones": 30436,
  "eraciÃ³n": 1917,
  "erado": 39186,
  "erador": 4404,
  "eradores": 27515,
  "eral": 6453,
  "erales": 13995,
  "eran": 3577,
  "erario": 45672,
  "eras": 1779,
  "erati": 43363,
  "erato": 19875,
  "eratriz": 16641,
  "erba": 13936,
  "erbaiy": 17141,
  "erbaiyÃ¡n": 18299,
  "erde": 24228,
  "erdo": 1471,
  "ere": 3388,
  "erense": 44619,
  "eres": 8963,
  "erg": 7812,
  "eri": 18803,
  "eria": 5213,
  "eric": 1688,
  "erical": 46282,
  "ericor": 18727,
  "ericordia": 23245,
  "eridad": 29727,
  "erie": 11350,
  "erin": 9291,
  "ering": 25140,
  "erio": 1850,
  "erios": 36311,
  "ermo": 18206,
  "ern": 1056,
  "erna": 15013,
  "ernaciÃ³n": 15636,
  "ernador": 11524,
  "erne": 35583,
  "erner": 19982,
  "ernet": 49261,
  "ero": 393,
  "eroe": 46780,
  "erog": 38626,
  "eroglÃŃ": 41940,
  "eron": 951,
  "eronÃ¡": 24025,
  "eronÃ¡utica": 34734,
  "erop": 4200,
  "eropuerto": 4502,
  "eropuertos": 27006,
  "eros": 822,
  "erous": 48223,
  "eroy": 38205,
  "erra": 8000,
  "errat": 27153,
  "erre": 31081,
  "erro": 2650,
  "erroga": 49097,
  "ers": 2136,
  "erse": 2357,
  "erset": 44659,
  "ersey": 6668,
  "ert": 2459,
  "erta": 8984,
  "ertamen": 49717,
  "erte": 3314,
  "erto": 3372,
  "ertos": 7937,
  "erv": 1131,
  "erva": 2447,
  "ervaciÃ³n": 5645,
  "ervas": 37201,
  "erve": 43156,
  "ervi": 3775,
  "erville": 45105,
  "ervo": 35138,
  "ervos": 37485,
  "ery": 30051,
  "erÃ³": 48298,
  "erÃ³g": 36891,
  "erÃ³n": 28480,
  "erÃŃa": 1003,
  "erÃŃas": 9492,
  "es": 280,
  "esa": 2237,
  "esar": 45154,
  "esas": 9604,
  "esca": 30582,
  "escal": 48527,
  "esco": 20587,
  "escol": 43423,
  "escri": 49782,
  "escu": 25115,
  "ese": 1618,
  "esen": 6304,
  "eses": 13594,
  "esh": 21736,
  "esha": 49071,
  "esi": 29628,
  "esia": 39290,
  "esio": 34136,
  "esis": 11998,
  "esiÃ³n": 4210,
  "eso": 3818,
  "eson": 45317,
  "esos": 12352,
  "esp": 20392,
  "espa": 21971,
  "espacio": 41810,
  "espal": 25044,
  "espaldas": 25745,
  "espaÃ±ol": 36577,
  "espe": 33740,
  "especi": 27969,
  "especialmente": 31248,
  "especies": 44198,
  "esper": 4320,
  "espetÃ³": 41697,
  "espierre": 34299,
  "ess": 4648,
  "essa": 20413,
  "est": 1348,
  "esta": 4608,
  "estaba": 37083,
  "estable": 43932,
  "estaciÃ³n": 39164,
  "estad": 9705,
  "estado": 32903,
  "estados": 49056,
  "estal": 23198,
  "estan": 24365,
  "estas": 19072,
  "estatal": 47732,
  "este": 1816,
  "estelar": 45992,
  "ester": 12100,
  "estern": 27741,
  "estes": 21587,
  "esti": 964,
  "estia": 9653,
  "estial": 24419,
  "estias": 15689,
  "estima": 45667,
  "estina": 48287,
  "estino": 31245,
  "estion": 30331,
  "estiv": 3572,
  "estival": 3863,
  "estivales": 17916,
  "estiÃ³n": 3317,
  "esto": 14904,
  "estos": 46912,
  "estr": 5130,
  "estra": 3318,
  "estramiento": 47291,
  "estran": 9708,
  "estre": 12200,
  "estres": 15955,
  "estro": 3758,
  "estros": 23827,
  "estru": 12798,
  "estructura": 14675,
  "estrÃŃa": 16498,
  "estu": 35348,
  "estÃ¡": 31759,
  "estÃ¡n": 44926,
  "estÃ¡s": 33698,
  "estÃŃa": 28142,
  "esu": 13314,
  "esÃŃ": 35420,
  "esÃŃa": 5120,
  "esÃŃas": 32331,
  "et": 766,
  "eta": 1569,
  "etales": 17547,
  "etan": 48145,
  "etana": 35089,
  "etano": 18415,
  "etas": 4634,
  "ete": 12930,
  "eth": 3988,
  "ethe": 23359,
  "ething": 38864,
  "etic": 34345,
  "eto": 19291,
  "etos": 36895,
  "ets": 7606,
  "etsk": 40130,
  "etsu": 41956,
  "ett": 8010,
  "etta": 12195,
  "ette": 7891,
  "etti": 12128,
  "etto": 31485,
  "etts": 10073,
  "ety": 9548,
  "etz": 29256,
  "etÃ³n": 43164,
  "etÃŃ": 45677,
  "etÃŃa": 32231,
  "etÃŃan": 49324,
  "eu": 34907,
  "euro": 28532,
  "eus": 18240,
  "ev": 2540,
  "eva": 49210,
  "eval": 9667,
  "evales": 21284,
  "evelt": 23942,
  "evit": 11087,
  "eviÄĩ": 44989,
  "evo": 43146,
  "ex": 1520,
  "excepto": 35903,
  "exclam": 25828,
  "exclamÃ©": 37723,
  "exclamÃ³": 4538,
  "exiÃ³n": 33854,
  "exo": 9369,
  "explicÃ³": 12550,
  "expres": 34187,
  "expresÃ³": 48565,
  "exual": 39729,
  "exuales": 39396,
  "ey": 5954,
  "eyra": 42592,
  "ez": 468,
  "eza": 933,
  "ezas": 5651,
  "ezca": 10339,
  "ezcan": 25438,
  "ezco": 18663,
  "eze": 37183,
  "ezer": 49951,
  "ezo": 23679,
  "ezuela": 26472,
  "ezÃ³": 9233,
  "eÃ±a": 19123,
  "eÃ±o": 12878,
  "eÃ±os": 28642,
  "eÃ³": 16639,
  "f": 79,
  "fa": 2001,
  "fabe": 33868,
  "fac": 3954,
  "facciÃ³n": 19201,
  "face": 24579,
  "faces": 47648,
  "facio": 41639,
  "facta": 45641,
  "facto": 19842,
  "factor": 39119,
  "factos": 22862,
  "fado": 49995,
  "fag": 22072,
  "fagasta": 24924,
  "fago": 29513,
  "fagos": 35316,
  "fair": 34803,
  "fal": 6461,
  "falia": 39892,
  "fall": 45193,
  "falle": 26364,
  "falo": 31405,
  "famil": 36460,
  "familia": 12645,
  "fan": 12226,
  "fano": 14123,
  "fanÃŃa": 37870,
  "far": 8798,
  "fard": 50191,
  "fare": 41868,
  "fas": 5750,
  "fasis": 18444,
  "fast": 31362,
  "fat": 44953,
  "fato": 19573,
  "fax": 49282,
  "faz": 19371,
  "fe": 1525,
  "feat": 44894,
  "febrero": 48941,
  "fec": 998,
  "fect": 27888,
  "fectivamente": 30423,
  "fecto": 9202,
  "fectos": 14289,
  "fectura": 13981,
  "fel": 10547,
  "feld": 15543,
  "feller": 46547,
  "fen": 21160,
  "feo": 10703,
  "feos": 35078,
  "fer": 541,
  "fera": 7505,
  "feras": 18481,
  "ference": 18360,
  "ferencia": 3941,
  "ferencias": 844,
  "ferente": 13618,
  "ferentes": 31918,
  "fes": 3653,
  "fet": 19662,
  "feta": 30743,
  "fete": 30348,
  "ff": 1884,
  "ffa": 18432,
  "ffe": 18982,
  "ffen": 24337,
  "ffer": 13955,
  "ffi": 39730,
  "ffield": 31284,
  "ffin": 31566,
  "fford": 29110,
  "ffs": 15044,
  "ffy": 20052,
  "fi": 3806,
  "fia": 8442,
  "fibios": 28649,
  "fic": 1430,
  "fica": 3574,
  "ficaciones": 9081,
  "ficaciÃ³n": 4805,
  "ficada": 20983,
  "ficado": 13848,
  "ficamente": 10914,
  "ficar": 14880,
  "ficas": 41995,
  "fice": 14171,
  "ficencia": 37854,
  "fici": 869,
  "ficial": 8006,
  "ficiales": 15967,
  "ficialmente": 33522,
  "ficie": 24701,
  "ficiencia": 12441,
  "ficiente": 2878,
  "ficientes": 9718,
  "ficio": 2355,
  "ficios": 3917,
  "fico": 25127,
  "ficos": 33122,
  "ficul": 4931,
  "fiel": 49244,
  "field": 6295,
  "fiero": 26795,
  "fig": 49760,
  "fijo": 35691,
  "fil": 3937,
  "file": 44308,
  "filia": 24523,
  "film": 37099,
  "filme": 40392,
  "filo": 37457,
  "filos": 34670,
  "fin": 9314,
  "fina": 24341,
  "fines": 32064,
  "fino": 30340,
  "fio": 33640,
  "fique": 43519,
  "fire": 37231,
  "firiÃ³": 33449,
  "fis": 27099,
  "fish": 46485,
  "fismo": 29466,
  "fix": 20172,
  "fl": 44801,
  "fle": 13811,
  "flex": 26207,
  "flix": 32701,
  "flo": 44737,
  "flor": 31110,
  "flores": 30527,
  "flu": 28482,
  "fly": 33163,
  "fman": 15644,
  "fo": 2166,
  "fobia": 30990,
  "fogo": 42920,
  "fol": 12157,
  "folia": 36646,
  "folio": 37728,
  "folk": 31972,
  "fologÃŃa": 12970,
  "fon": 3039,
  "fondo": 31164,
  "fonista": 47883,
  "fono": 4131,
  "fonos": 15595,
  "fons": 27924,
  "fonso": 4655,
  "fonÃŃa": 14328,
  "foot": 40159,
  "foque": 49512,
  "for": 758,
  "foras": 33894,
  "ford": 3882,
  "fore": 32044,
  "form": 2043,
  "forma": 1558,
  "formaciÃ³n": 2362,
  "formas": 14749,
  "forme": 12491,
  "formes": 15670,
  "formÃ³": 33582,
  "foro": 15266,
  "foros": 35426,
  "fort": 12631,
  "forte": 46521,
  "fortun": 9846,
  "fortunadamente": 23912,
  "fos": 6966,
  "four": 37914,
  "fox": 38957,
  "fr": 1514,
  "fra": 13998,
  "fradÃŃa": 17430,
  "fradÃŃas": 39427,
  "fran": 15132,
  "franca": 36338,
  "fre": 3995,
  "fred": 18175,
  "fredo": 24646,
  "fren": 19824,
  "frenia": 45403,
  "frente": 42872,
  "fres": 33743,
  "frey": 40257,
  "fri": 12415,
  "frica": 3682,
  "fried": 24443,
  "fro": 33687,
  "fron": 34174,
  "fru": 25544,
  "fs": 24001,
  "ft": 3397,
  "ftware": 9099,
  "fu": 9769,
  "fue": 18309,
  "fuegos": 41255,
  "fuente": 40627,
  "fuer": 24985,
  "fuera": 41736,
  "fuerte": 33412,
  "fuertes": 40985,
  "ful": 14177,
  "fullÃ³": 43639,
  "fun": 9883,
  "fundador": 32354,
  "fur": 37969,
  "furt": 22279,
  "fus": 22118,
  "futbolista": 17968,
  "fuÃ±Ã³": 48938,
  "fy": 43668,
  "fÃ¡": 33012,
  "fÃ¡n": 43396,
  "fÃ©": 3919,
  "fÃ³": 26813,
  "fÃ³n": 16382,
  "fÃ³nica": 15639,
  "fÃ³nico": 29092,
  "fÃŃ": 49723,
  "fÃŃa": 4079,
  "fÃŃn": 15383,
  "fÃŃsica": 33200,
  "fÃŃsico": 40565,
  "g": 80,
  "ga": 554,
  "gaard": 39235,
  "gaba": 5124,
  "gaban": 9650,
  "gable": 37785,
  "gaciones": 6538,
  "gaciÃ³n": 2231,
  "gad": 23530,
  "gada": 3009,
  "gadas": 6617,
  "gadero": 40388,
  "gado": 1500,
  "gador": 14280,
  "gadores": 17541,
  "gados": 5106,
  "gadura": 25170,
  "gae": 27549,
  "gai": 37363,
  "gain": 47592,
  "gal": 3459,
  "gala": 29028,
  "gale": 50007,
  "gales": 34961,
  "gam": 12541,
  "game": 35181,
  "gamente": 26839,
  "gamiento": 48752,
  "gamo": 42430,
  "gamos": 8866,
  "gan": 905,
  "gana": 20119,
  "gancia": 18373,
  "ganda": 11897,
  "gando": 5198,
  "ganes": 48089,
  "gang": 20068,
  "ganistÃ¡n": 18666,
  "ganiz": 1686,
  "gano": 7502,
  "ganos": 10573,
  "ganta": 6714,
  "gantas": 49743,
  "gante": 10931,
  "gantes": 19126,
  "ganza": 9193,
  "gar": 546,
  "gara": 8820,
  "garas": 48528,
  "garay": 48923,
  "gard": 23163,
  "gari": 42005,
  "gario": 49986,
  "garme": 25801,
  "garo": 10737,
  "garon": 6216,
  "garos": 22771,
  "garse": 6391,
  "gart": 16546,
  "garte": 23426,
  "gary": 37977,
  "garÃ¡": 46629,
  "garÃŃa": 29048,
  "gas": 1493,
  "gasa": 30297,
  "gascar": 22200,
  "gase": 23933,
  "gat": 20791,
  "gata": 10862,
  "gate": 15110,
  "gato": 32427,
  "gau": 47924,
  "gawa": 19762,
  "gaz": 8484,
  "gazine": 16827,
  "ge": 937,
  "gebra": 24845,
  "ged": 44556,
  "geh": 42187,
  "gel": 1767,
  "gela": 13356,
  "gelaciÃ³n": 42275,
  "gelio": 34939,
  "gelo": 13452,
  "gem": 20026,
  "gement": 26168,
  "gen": 883,
  "gena": 13656,
  "genas": 7732,
  "gencia": 5861,
  "gencias": 20353,
  "gency": 39830,
  "gend": 11626,
  "genda": 19911,
  "gene": 33387,
  "gener": 19897,
  "generaciÃ³n": 35866,
  "generalmente": 46503,
  "genes": 3132,
  "genheim": 46201,
  "genia": 40225,
  "geno": 6870,
  "genos": 21611,
  "gens": 34450,
  "gent": 1463,
  "gente": 10711,
  "gentes": 18788,
  "gentina": 1871,
  "gentinas": 20691,
  "gentino": 4654,
  "gentinos": 13499,
  "gento": 9637,
  "geo": 14017,
  "ger": 1694,
  "gerald": 40340,
  "gers": 12971,
  "ges": 5438,
  "get": 16386,
  "gether": 39944,
  "gg": 14312,
  "gger": 37622,
  "ggi": 46176,
  "ggio": 33372,
  "gh": 10276,
  "gi": 5337,
  "gia": 3885,
  "gica": 5586,
  "gicamente": 30712,
  "gicas": 23437,
  "gico": 12632,
  "gicos": 20620,
  "gido": 4425,
  "gie": 9101,
  "gil": 15386,
  "giles": 47533,
  "gim": 33041,
  "gimen": 6275,
  "gimiÃ³": 39096,
  "gin": 4927,
  "gina": 44761,
  "ging": 46267,
  "gio": 4024,
  "gios": 22419,
  "gip": 4629,
  "gir": 26647,
  "girl": 41582,
  "gis": 22195,
  "giÃ³": 2629,
  "gl": 9403,
  "gla": 24005,
  "gle": 10468,
  "gles": 28009,
  "gli": 22110,
  "glia": 31904,
  "glio": 29829,
  "glish": 21265,
  "glo": 33778,
  "glob": 47852,
  "glomer": 36775,
  "glu": 48526,
  "gn": 1965,
  "gna": 25662,
  "gne": 17621,
  "gni": 18459,
  "gno": 36214,
  "go": 413,
  "gob": 19323,
  "gobernador": 34074,
  "gobierno": 43296,
  "goga": 27511,
  "gol": 7927,
  "gola": 18127,
  "goles": 29124,
  "golpes": 42883,
  "gomery": 27405,
  "gon": 6373,
  "gonal": 24963,
  "gones": 42353,
  "goneta": 22581,
  "gono": 35511,
  "gonz": 12885,
  "gor": 7692,
  "gora": 36017,
  "gorit": 17974,
  "gorod": 36213,
  "gos": 817,
  "gosa": 22779,
  "goso": 22400,
  "gosta": 29196,
  "gosto": 1880,
  "got": 20794,
  "gote": 38229,
  "gotÃ¡": 9299,
  "govia": 14306,
  "govina": 28491,
  "gow": 23986,
  "goya": 44116,
  "goza": 7002,
  "goÃ±a": 18990,
  "gr": 771,
  "gra": 642,
  "graci": 32256,
  "gracia": 43058,
  "graciadamente": 41432,
  "graciÃ³n": 9749,
  "grad": 19409,
  "grada": 9397,
  "gradas": 28326,
  "grade": 30618,
  "grado": 5465,
  "grados": 16874,
  "graf": 963,
  "grafa": 30667,
  "grafo": 7614,
  "grafos": 15823,
  "grafÃŃa": 1082,
  "grafÃŃas": 7071,
  "gram": 14550,
  "grama": 6015,
  "gramas": 14113,
  "gramos": 36438,
  "gran": 14125,
  "grande": 44749,
  "graph": 11132,
  "graphic": 23375,
  "graphie": 39833,
  "graphy": 20037,
  "grario": 46522,
  "grave": 25019,
  "gre": 3543,
  "gregaciÃ³n": 13843,
  "gren": 26784,
  "gres": 2151,
  "greso": 3552,
  "gri": 4136,
  "grim": 21535,
  "grima": 14702,
  "grita": 50219,
  "gritÃ©": 43953,
  "gritÃ³": 6038,
  "gro": 4181,
  "gros": 42424,
  "ground": 26567,
  "gru": 12421,
  "grupo": 26159,
  "grupos": 47895,
  "gruÃ±Ã³": 20475,
  "grÃ¡": 36714,
  "grÃ¡f": 2210,
  "grÃ¡fica": 3732,
  "grÃ¡ficamente": 48949,
  "grÃ¡ficas": 11009,
  "grÃ¡fico": 5855,
  "grÃ¡ficos": 9313,
  "grÃ¡n": 44768,
  "grÃ³": 15054,
  "grÃŃa": 4443,
  "gs": 9496,
  "gt": 45753,
  "gu": 423,
  "gua": 926,
  "guage": 31555,
  "gual": 27624,
  "guar": 6544,
  "guara": 42150,
  "guard": 18818,
  "guardia": 11449,
  "guardo": 45652,
  "guares": 38357,
  "guas": 4564,
  "guay": 3239,
  "guaya": 19011,
  "guchi": 35036,
  "gue": 2465,
  "guen": 14758,
  "guer": 11373,
  "guera": 9297,
  "gueras": 24462,
  "guerite": 42169,
  "guero": 24804,
  "gueros": 41483,
  "guerra": 16830,
  "gues": 5878,
  "guesa": 23194,
  "guesas": 29494,
  "gueses": 15074,
  "guesia": 39404,
  "guez": 4643,
  "gui": 10362,
  "guien": 2127,
  "guila": 11937,
  "guilas": 19502,
  "guin": 16646,
  "guitarra": 37550,
  "guitas": 47519,
  "guito": 45096,
  "gul": 25493,
  "gula": 26224,
  "gular": 3170,
  "gulares": 12523,
  "gulle": 45246,
  "gullo": 42980,
  "gulo": 7348,
  "gulos": 14560,
  "gum": 45223,
  "gumento": 44907,
  "gun": 498,
  "guna": 7460,
  "gunas": 15344,
  "guncia": 43590,
  "gunos": 20772,
  "guo": 11198,
  "gur": 24401,
  "gura": 14435,
  "guren": 45140,
  "guro": 50065,
  "gus": 15699,
  "gust": 2806,
  "gusta": 19716,
  "gusto": 7922,
  "guy": 43975,
  "guÃ¡n": 46210,
  "guÃ©": 6121,
  "guÃ©s": 28280,
  "guÃŃa": 28645,
  "guÃŃn": 14951,
  "gy": 9024,
  "gÃ¡": 45123,
  "gÃ¡is": 25950,
  "gÃ¡n": 37196,
  "gÃ¡ndole": 29774,
  "gÃ¡ndose": 23203,
  "gÃ©": 35816,
  "gÃ©n": 7747,
  "gÃ©nero": 26050,
  "gÃ©nesis": 45858,
  "gÃ©s": 41878,
  "gÃ³": 2312,
  "gÃ³n": 13808,
  "gÃºn": 1025,
  "gÃ¼": 4040,
  "gÃ¼e": 31068,
  "gÃ¼edad": 11538,
  "gÃ¼edades": 32546,
  "gÃ¼enza": 8992,
  "gÃ¼ismo": 31124,
  "gÃŃa": 1212,
  "h": 81,
  "ha": 1367,
  "hab": 8822,
  "habÃŃa": 20336,
  "hacer": 26277,
  "hacia": 37064,
  "had": 19185,
  "hael": 37074,
  "hague": 19935,
  "hai": 17873,
  "hail": 24227,
  "hak": 30864,
  "hal": 5928,
  "hala": 49413,
  "hall": 31074,
  "halt": 45513,
  "ham": 2598,
  "hama": 24582,
  "hammad": 25196,
  "hammer": 39962,
  "hampton": 25817,
  "han": 2516,
  "hana": 39931,
  "hand": 41745,
  "hang": 43281,
  "hani": 45876,
  "hanna": 39359,
  "hao": 39842,
  "har": 6347,
  "hara": 11331,
  "hard": 10640,
  "hardt": 31005,
  "hart": 22843,
  "has": 15854,
  "hashi": 37992,
  "hasta": 18470,
  "hat": 6076,
  "hattan": 17466,
  "hauer": 39426,
  "haus": 15261,
  "hausen": 24385,
  "haven": 49946,
  "haw": 15730,
  "hawk": 42308,
  "hay": 21939,
  "he": 603,
  "hea": 42649,
  "head": 16789,
  "hed": 22956,
  "hee": 29455,
  "heed": 40928,
  "hei": 43390,
  "heim": 8795,
  "heimer": 27819,
  "heit": 46836,
  "hel": 7297,
  "helm": 16882,
  "hem": 9430,
  "hemia": 16966,
  "hen": 6065,
  "henes": 28085,
  "her": 2273,
  "here": 15360,
  "heriff": 21432,
  "herine": 12029,
  "hermosa": 45484,
  "herÃ¡n": 36060,
  "hesa": 45951,
  "het": 40573,
  "hey": 39926,
  "hh": 25833,
  "hi": 1605,
  "hia": 24287,
  "hib": 7885,
  "hibi": 6417,
  "hibiciÃ³n": 10326,
  "hibido": 46831,
  "hid": 26994,
  "hija": 41983,
  "hijo": 27918,
  "hil": 19055,
  "hila": 15411,
  "hiladelphia": 22119,
  "hill": 29674,
  "him": 22048,
  "hima": 37861,
  "hin": 18709,
  "hip": 28831,
  "hir": 28397,
  "hira": 30318,
  "hire": 49355,
  "hiro": 20428,
  "his": 7522,
  "hisky": 16029,
  "hist": 33058,
  "historia": 27102,
  "hit": 32330,
  "hite": 8087,
  "hizo": 34252,
  "hl": 9869,
  "hlen": 33918,
  "hler": 37040,
  "hm": 24531,
  "hman": 25292,
  "hn": 1699,
  "hne": 22368,
  "hner": 49841,
  "ho": 1468,
  "hoe": 36531,
  "hof": 29187,
  "hoff": 33622,
  "hol": 6830,
  "hold": 44699,
  "holm": 36074,
  "hom": 25799,
  "hombre": 24592,
  "hombres": 36490,
  "hon": 12254,
  "hoo": 37779,
  "hood": 38230,
  "hop": 18626,
  "hor": 9339,
  "hora": 2268,
  "horabuena": 49254,
  "horn": 35742,
  "hos": 21495,
  "hotep": 40959,
  "hou": 15906,
  "house": 14818,
  "hout": 27391,
  "hov": 42151,
  "hoven": 18000,
  "how": 6162,
  "hower": 36894,
  "hoy": 17910,
  "hr": 7554,
  "hra": 45413,
  "hre": 45516,
  "hrmacht": 37781,
  "hrunnisa": 40879,
  "hs": 44284,
  "ht": 6931,
  "hton": 38013,
  "hu": 2932,
  "hua": 7715,
  "huac": 33424,
  "huacÃ¡n": 45766,
  "huahua": 18929,
  "huana": 38637,
  "huano": 47553,
  "huatl": 27724,
  "hue": 15534,
  "huel": 31868,
  "huela": 32441,
  "hui": 34355,
  "hum": 8704,
  "hun": 32359,
  "hurst": 43748,
  "hus": 30804,
  "hy": 7094,
  "hyth": 34313,
  "hythm": 39453,
  "hÃ¡": 49550,
  "hÃ¡i": 26518,
  "hÃ©": 34322,
  "hÃºn": 28187,
  "hÃŃ": 18301,
  "hÃŃa": 7096,
  "i": 82,
  "ia": 390,
  "iaba": 25144,
  "iaceae": 36154,
  "iaciones": 14763,
  "iaciÃ³n": 4897,
  "iad": 42570,
  "iada": 6637,
  "iadas": 10383,
  "iado": 1615,
  "iados": 4456,
  "iae": 40748,
  "iah": 38499,
  "ial": 1354,
  "iales": 3660,
  "iam": 2859,
  "iamente": 7756,
  "iamonte": 39209,
  "ian": 1328,
  "iana": 2241,
  "ianas": 9549,
  "iando": 37425,
  "iane": 26371,
  "iani": 22966,
  "iano": 1885,
  "ianos": 4281,
  "ians": 22924,
  "iant": 46800,
  "iante": 38269,
  "ianza": 3200,
  "iao": 24657,
  "iar": 2621,
  "iares": 6986,
  "ias": 865,
  "iat": 13767,
  "iata": 28635,
  "iato": 40362,
  "ib": 501,
  "iba": 11408,
  "ibal": 29843,
  "ibar": 24284,
  "ibe": 6833,
  "ibel": 27220,
  "iber": 7371,
  "ibern": 34854,
  "iberto": 46781,
  "ibes": 35411,
  "ibia": 30675,
  "ibil": 23171,
  "ibilidad": 6755,
  "ibio": 22848,
  "ible": 1078,
  "iblemente": 14637,
  "ibles": 4171,
  "iblio": 2058,
  "ibo": 15601,
  "ibol": 17329,
  "ibre": 21282,
  "ibu": 47192,
  "ibur": 50083,
  "ibus": 23044,
  "ibust": 38377,
  "ic": 311,
  "ica": 415,
  "icaciones": 9222,
  "icaciÃ³n": 1504,
  "icada": 34109,
  "icado": 27981,
  "icae": 48403,
  "ical": 2013,
  "icales": 4657,
  "icali": 44875,
  "icam": 32794,
  "icamente": 2655,
  "ican": 19224,
  "icana": 8243,
  "icano": 9248,
  "icanos": 25225,
  "icar": 16566,
  "icas": 745,
  "icasso": 23735,
  "icciones": 13010,
  "icciÃ³n": 4909,
  "ice": 1947,
  "icen": 28802,
  "icent": 26237,
  "icentenario": 29046,
  "icero": 18602,
  "icerÃŃa": 29641,
  "ices": 4328,
  "icester": 33339,
  "ich": 910,
  "icha": 2479,
  "ichael": 4137,
  "ichas": 37247,
  "iche": 13183,
  "iches": 36927,
  "ichi": 13435,
  "icho": 9725,
  "ichos": 21518,
  "icht": 24925,
  "ici": 482,
  "icia": 1919,
  "iciado": 37900,
  "icial": 11323,
  "iciales": 23057,
  "icialista": 29053,
  "icias": 9454,
  "icidad": 4377,
  "icide": 47729,
  "icidio": 41874,
  "iciembre": 27729,
  "icienta": 45373,
  "icina": 38935,
  "icio": 3182,
  "icion": 7741,
  "icionado": 15119,
  "icionar": 40913,
  "iciones": 2763,
  "icios": 6651,
  "iciosa": 24882,
  "icioso": 22854,
  "icip": 1266,
  "icipio": 12229,
  "icismo": 13602,
  "icista": 35361,
  "iciÃ³": 35591,
  "iciÃ³n": 989,
  "ick": 1786,
  "icken": 43610,
  "icket": 33026,
  "icks": 15718,
  "icky": 24366,
  "icle": 28543,
  "icles": 33362,
  "ico": 462,
  "icol": 18981,
  "icola": 44973,
  "icolor": 31440,
  "icom": 22642,
  "icon": 19496,
  "icos": 678,
  "icosis": 45601,
  "ics": 5523,
  "icto": 31014,
  "ictos": 50229,
  "icul": 5147,
  "icular": 18621,
  "iculares": 32953,
  "icultura": 7051,
  "icum": 29535,
  "icus": 14200,
  "icy": 37170,
  "icz": 21805,
  "icÃ©": 29758,
  "icÃ³": 21790,
  "icÃ³n": 36293,
  "icÃ³p": 12602,
  "icÃŃa": 2963,
  "id": 943,
  "ida": 518,
  "idaceae": 45588,
  "idaciÃ³n": 14208,
  "idad": 490,
  "idada": 34742,
  "idade": 40254,
  "idades": 1281,
  "idado": 14310,
  "idados": 41276,
  "idae": 6208,
  "idal": 7819,
  "idalgo": 12810,
  "idamente": 11773,
  "idan": 15227,
  "idar": 11064,
  "idaridad": 18269,
  "idas": 2135,
  "iday": 32737,
  "ide": 2601,
  "idea": 18778,
  "ideae": 44624,
  "idel": 12460,
  "idelberg": 35674,
  "iden": 955,
  "idencia": 4452,
  "identa": 36015,
  "idente": 1755,
  "identes": 26229,
  "ideon": 27992,
  "ideportivo": 26826,
  "ider": 18980,
  "ides": 4774,
  "idez": 8176,
  "idge": 34422,
  "idi": 5005,
  "idler": 49201,
  "ido": 534,
  "idor": 6981,
  "idora": 23854,
  "idores": 7136,
  "idos": 1402,
  "idra": 43247,
  "ids": 24408,
  "idth": 21940,
  "idurÃŃa": 14369,
  "idÃ³": 48005,
  "idÃ³n": 32207,
  "idÃŃan": 49361,
  "ie": 401,
  "ieblas": 17816,
  "iebre": 10942,
  "iebres": 38406,
  "ied": 18887,
  "iedad": 2838,
  "iedades": 10164,
  "iedo": 32401,
  "iedra": 48699,
  "ief": 29391,
  "ieg": 49896,
  "iega": 23576,
  "iego": 7490,
  "iel": 1768,
  "iela": 16797,
  "ield": 4892,
  "iele": 31767,
  "iella": 41481,
  "ielo": 2501,
  "ielos": 17368,
  "iemb": 7108,
  "iembre": 1949,
  "iembro": 30665,
  "iembros": 45514,
  "iemos": 46851,
  "iemp": 625,
  "iempo": 8527,
  "iempre": 1121,
  "ien": 354,
  "iena": 7016,
  "ience": 43065,
  "iencia": 3027,
  "iencias": 4350,
  "ienda": 6680,
  "iendas": 8681,
  "iendo": 810,
  "iene": 2088,
  "ienen": 10056,
  "ienes": 4796,
  "ienna": 31092,
  "ienne": 35958,
  "iens": 21876,
  "iense": 8022,
  "ienses": 19117,
  "iensis": 26378,
  "ient": 36149,
  "ienta": 5816,
  "iental": 25764,
  "ientan": 49416,
  "ientas": 7904,
  "iente": 971,
  "ienten": 44138,
  "ientes": 1718,
  "iento": 567,
  "ientos": 1226,
  "ientras": 877,
  "ier": 406,
  "iera": 832,
  "ieran": 2990,
  "ieras": 8763,
  "ierda": 8630,
  "iere": 3582,
  "ieren": 8867,
  "ieres": 6766,
  "ieri": 17462,
  "ierna": 14508,
  "iernes": 8279,
  "ierno": 1333,
  "iernos": 8730,
  "iero": 1692,
  "ieron": 1102,
  "ieros": 12499,
  "ierra": 1347,
  "ierras": 4114,
  "ierre": 6610,
  "ierro": 10162,
  "ierry": 37407,
  "iers": 12071,
  "ierta": 1886,
  "iertamente": 12844,
  "iertan": 38976,
  "iertas": 6454,
  "ierte": 5448,
  "ierten": 15498,
  "ierto": 1366,
  "iertos": 3222,
  "ierÃŃa": 7723,
  "ies": 1492,
  "iese": 11444,
  "iesen": 26694,
  "iesta": 9426,
  "iestas": 15651,
  "iesto": 13670,
  "iet": 28476,
  "ieta": 10925,
  "iete": 2966,
  "ietta": 39106,
  "ieu": 20861,
  "iev": 10507,
  "ieve": 30619,
  "ieves": 45918,
  "ievna": 43776,
  "iew": 14107,
  "iewicz": 42437,
  "ieza": 5379,
  "iezo": 36595,
  "if": 649,
  "ifa": 9538,
  "ifas": 25798,
  "ifato": 41302,
  "ife": 4826,
  "ifer": 12440,
  "ifera": 33009,
  "iferaciÃ³n": 37730,
  "iferia": 30327,
  "ifes": 25404,
  "ifestÃ³": 33189,
  "iff": 8657,
  "iffe": 36163,
  "ifford": 33157,
  "ifi": 43984,
  "ific": 1497,
  "ifica": 2420,
  "ificaba": 40382,
  "ificaciones": 12397,
  "ificaciÃ³n": 2881,
  "ificada": 14668,
  "ificadas": 33305,
  "ificado": 7864,
  "ificador": 32930,
  "ificadores": 48304,
  "ificados": 18627,
  "ifican": 42471,
  "ificando": 38726,
  "ificar": 9504,
  "ificaron": 43843,
  "ification": 46762,
  "ificÃ³": 19643,
  "ifiesto": 39330,
  "ifinal": 15079,
  "ifinales": 10513,
  "ifique": 43491,
  "ifo": 46135,
  "ifol": 43490,
  "ifolia": 27271,
  "iforme": 15187,
  "iformes": 20387,
  "iforn": 3708,
  "ifornia": 3853,
  "ifos": 47705,
  "ift": 10930,
  "ifu": 31773,
  "ifuentes": 44470,
  "ig": 386,
  "iga": 1543,
  "igail": 33676,
  "igan": 9011,
  "igar": 7180,
  "igas": 6087,
  "igata": 49479,
  "ige": 15006,
  "igen": 18710,
  "iger": 12747,
  "igg": 14299,
  "iggins": 17717,
  "igh": 2367,
  "ight": 3635,
  "ights": 14764,
  "ighty": 47932,
  "igi": 14007,
  "igio": 47541,
  "igiÃ³": 37182,
  "iglesia": 40385,
  "iglia": 39673,
  "igma": 14707,
  "igmas": 50080,
  "ign": 1701,
  "igna": 9819,
  "ignaciÃ³n": 9486,
  "igne": 21457,
  "igno": 19560,
  "ignon": 34179,
  "ignos": 47299,
  "igny": 29667,
  "igo": 1265,
  "igos": 2285,
  "igra": 16746,
  "igrafÃŃa": 31011,
  "igu": 931,
  "igua": 26023,
  "igual": 14474,
  "iguales": 43340,
  "igue": 5318,
  "iguel": 3168,
  "iguen": 26873,
  "iguera": 28622,
  "iguero": 37084,
  "igues": 46250,
  "iguiendo": 16331,
  "iguiente": 32788,
  "iguieron": 25698,
  "iguilla": 25258,
  "iguiÃ³": 6392,
  "igura": 34915,
  "igÃ³n": 18152,
  "igÃ¼": 17946,
  "igÃ¼e": 39813,
  "ih": 28750,
  "ii": 6829,
  "ij": 5112,
  "ija": 13156,
  "ijas": 33145,
  "iji": 22894,
  "ijing": 31561,
  "ijo": 6036,
  "ijote": 22082,
  "ijÃ³n": 15469,
  "ik": 1350,
  "ika": 7258,
  "ikawa": 36095,
  "ike": 5252,
  "ikh": 41845,
  "iki": 10668,
  "iko": 8892,
  "ikon": 46520,
  "ikos": 33197,
  "ikov": 27371,
  "iku": 37659,
  "il": 361,
  "ila": 2830,
  "ilaciÃ³n": 30186,
  "ilado": 19637,
  "ilados": 26032,
  "ilan": 9512,
  "ilandia": 14388,
  "ilar": 3300,
  "ilares": 35331,
  "ilas": 7261,
  "ilater": 23615,
  "ild": 8056,
  "ilda": 30927,
  "ilding": 29238,
  "ildo": 14743,
  "ile": 1322,
  "ilea": 21153,
  "ileen": 45855,
  "ileo": 26677,
  "iler": 20135,
  "iles": 3219,
  "iley": 9013,
  "ili": 11421,
  "ilia": 28890,
  "ilidad": 1604,
  "ilidades": 4863,
  "ilio": 6572,
  "ilios": 30656,
  "ilip": 17230,
  "ilis": 31869,
  "ill": 768,
  "illa": 932,
  "illada": 45087,
  "illado": 15683,
  "illan": 48710,
  "illand": 42809,
  "illar": 25614,
  "illas": 2730,
  "illaume": 33032,
  "ille": 4325,
  "iller": 3924,
  "illermo": 5889,
  "illero": 33629,
  "illes": 27589,
  "illi": 36429,
  "illium": 39656,
  "illo": 1630,
  "illon": 18029,
  "illones": 28836,
  "illos": 4481,
  "illot": 33516,
  "illus": 30125,
  "illy": 12927,
  "illÃ³": 43481,
  "illÃ³n": 41163,
  "ilo": 1370,
  "ilon": 37392,
  "ilor": 33604,
  "ilos": 6957,
  "iloto": 13978,
  "ilov": 48915,
  "iloÃ©": 39299,
  "ils": 19212,
  "ilus": 42667,
  "ilvania": 12760,
  "ily": 17474,
  "ilÃ¡n": 26084,
  "ilÃ³": 3630,
  "im": 496,
  "ima": 1416,
  "imado": 45923,
  "imagin": 46150,
  "imal": 11584,
  "imamente": 40796,
  "iman": 23536,
  "imar": 14146,
  "imard": 39033,
  "imas": 6545,
  "imato": 43729,
  "imb": 17929,
  "imba": 47162,
  "imbab": 31595,
  "imbra": 50215,
  "ime": 2893,
  "imen": 4749,
  "imenea": 12910,
  "iment": 43106,
  "imer": 27941,
  "imes": 50035,
  "imi": 19369,
  "imia": 9971,
  "imiento": 3433,
  "imientos": 11959,
  "imil": 49585,
  "imir": 18114,
  "imiro": 32817,
  "imismo": 6281,
  "immer": 24479,
  "imnas": 8378,
  "imnasia": 11868,
  "imnasio": 19113,
  "imo": 1731,
  "imon": 13937,
  "imori": 44609,
  "imos": 2905,
  "imp": 11556,
  "ims": 33989,
  "imÃ¡n": 27449,
  "in": 291,
  "ina": 514,
  "inaba": 5697,
  "inaciones": 8375,
  "inaciÃ³n": 2092,
  "inada": 4680,
  "inadas": 10589,
  "inado": 2261,
  "inados": 6120,
  "inae": 19618,
  "inaje": 12431,
  "inal": 1800,
  "inald": 49706,
  "inaldo": 33071,
  "inales": 7055,
  "inalmente": 12466,
  "inam": 30426,
  "inamente": 13702,
  "inan": 19143,
  "inando": 6970,
  "inar": 2121,
  "inares": 34311,
  "inaria": 22521,
  "inariamente": 21276,
  "inarias": 14842,
  "inario": 12383,
  "inarios": 44683,
  "inary": 43186,
  "inas": 1407,
  "inastÃŃa": 9238,
  "inastÃŃas": 45953,
  "inata": 16486,
  "ination": 38717,
  "inato": 5661,
  "inc": 27079,
  "incha": 45382,
  "inci": 37955,
  "incl": 13263,
  "inclu": 42907,
  "incluso": 38134,
  "incluyendo": 25377,
  "ind": 3486,
  "inda": 9888,
  "inde": 49399,
  "indhoven": 43803,
  "indi": 11643,
  "indica": 44022,
  "indicÃ³": 27907,
  "indo": 21334,
  "indrada": 48039,
  "indust": 43982,
  "indy": 37608,
  "indÃŃo": 49441,
  "ine": 944,
  "inea": 10770,
  "inel": 39097,
  "inela": 24894,
  "inelas": 27976,
  "inen": 24420,
  "inense": 21576,
  "ineo": 44767,
  "ineos": 22308,
  "iner": 7807,
  "inero": 16224,
  "ineros": 24861,
  "ines": 2945,
  "ineses": 45801,
  "inesia": 44820,
  "iness": 20593,
  "inete": 8020,
  "inetes": 14301,
  "inf": 26614,
  "informÃ³": 38367,
  "ing": 640,
  "inga": 22696,
  "inge": 24492,
  "ingen": 14536,
  "inger": 9389,
  "ingham": 10623,
  "ingle": 26739,
  "inglÃ©s": 26291,
  "ingo": 21802,
  "ingos": 15930,
  "ingrado": 28783,
  "ings": 5353,
  "ington": 3884,
  "ingue": 16824,
  "ingun": 1905,
  "ingway": 47480,
  "ingÃºn": 2388,
  "ingÃ¼": 8213,
  "ingÃ¼e": 28844,
  "inho": 24143,
  "ini": 2381,
  "inia": 22930,
  "inidad": 9420,
  "inio": 16488,
  "inismo": 44059,
  "inista": 22953,
  "ink": 15662,
  "inn": 15943,
  "ino": 551,
  "inocer": 40401,
  "inoco": 35268,
  "inois": 12104,
  "inor": 23176,
  "inos": 1575,
  "inosa": 16780,
  "inosas": 36102,
  "inoso": 15791,
  "inosos": 33692,
  "inov": 37147,
  "inquiriÃ³": 16216,
  "ins": 2571,
  "insistiÃ³": 14150,
  "insk": 38980,
  "inski": 25561,
  "insky": 32830,
  "inson": 25287,
  "inst": 20661,
  "instein": 18384,
  "instream": 42450,
  "int": 3271,
  "inta": 3104,
  "intana": 18024,
  "inte": 7999,
  "intelig": 44499,
  "inten": 28751,
  "intendente": 40019,
  "intendo": 14334,
  "inter": 4459,
  "interos": 39384,
  "interpre": 25134,
  "interrump": 18590,
  "interrumpiÃ³": 28263,
  "intervino": 17899,
  "inti": 37623,
  "intiÃ³": 4497,
  "into": 5784,
  "ints": 30888,
  "inu": 12320,
  "inus": 16097,
  "inv": 32170,
  "inz": 23913,
  "inÃ©": 33190,
  "inÃ©s": 38109,
  "inÃ³": 2876,
  "io": 381,
  "iografÃŃa": 15035,
  "iol": 40280,
  "iola": 43024,
  "iologÃŃa": 37802,
  "ion": 887,
  "iona": 13561,
  "ionada": 31113,
  "ionado": 7921,
  "ionados": 31600,
  "ional": 2282,
  "ionale": 36169,
  "ionales": 5313,
  "ionalmente": 38468,
  "ionar": 13124,
  "ionaria": 44812,
  "ionario": 26160,
  "ionarios": 28038,
  "ione": 12607,
  "ioneros": 41083,
  "iones": 1122,
  "ioni": 26620,
  "ionismo": 42357,
  "ionista": 22362,
  "ionistas": 36252,
  "ions": 24077,
  "ionÃ³": 10857,
  "ior": 776,
  "iora": 41752,
  "iore": 49232,
  "iores": 2228,
  "ios": 558,
  "iosa": 6049,
  "iosamente": 18519,
  "iosas": 13901,
  "iosco": 42896,
  "ioso": 5020,
  "iosos": 11045,
  "iot": 30872,
  "ioterapia": 47622,
  "ioux": 43113,
  "ip": 1202,
  "ipa": 20707,
  "ipe": 3834,
  "ipedia": 19738,
  "iper": 49123,
  "ipes": 29056,
  "ipi": 27788,
  "iplo": 39683,
  "ipo": 13772,
  "ips": 9526,
  "ipsis": 28062,
  "ipzig": 18900,
  "ipÃº": 17451,
  "ipÃºzcoa": 23450,
  "ique": 6189,
  "iques": 29101,
  "ir": 392,
  "ira": 1784,
  "iras": 16529,
  "ird": 17125,
  "ire": 1188,
  "iremos": 20859,
  "ires": 2656,
  "iri": 8491,
  "iria": 41169,
  "irie": 49871,
  "irion": 49022,
  "irla": 42894,
  "irle": 49541,
  "irlo": 25660,
  "irm": 1916,
  "irma": 4688,
  "irman": 17931,
  "irmar": 10314,
  "irme": 24254,
  "irmingham": 22778,
  "irmÃ³": 5310,
  "irnal": 40710,
  "iro": 2484,
  "iron": 48681,
  "iros": 17452,
  "irre": 12826,
  "irro": 16602,
  "irs": 23799,
  "irse": 2847,
  "irst": 39017,
  "iru": 33304,
  "irus": 49405,
  "irut": 38491,
  "irvana": 48086,
  "iry": 49179,
  "irÃ¡": 7399,
  "irÃ¡mi": 15528,
  "irÃ¡n": 47660,
  "irÃ©": 22574,
  "irÃ³": 3188,
  "irÃ³s": 34271,
  "irÃŃa": 6409,
  "is": 348,
  "isa": 2073,
  "isaje": 38793,
  "isan": 41807,
  "isario": 28942,
  "isas": 24002,
  "isca": 23678,
  "iscal": 13502,
  "isch": 31654,
  "ische": 25135,
  "ischen": 37831,
  "ischer": 37919,
  "isco": 6334,
  "iscopal": 19536,
  "iscos": 21241,
  "iscu": 36012,
  "ise": 3421,
  "isela": 36087,
  "iselle": 23587,
  "isen": 19959,
  "iseo": 19477,
  "iser": 19375,
  "iserie": 19705,
  "ises": 15527,
  "iseta": 39068,
  "isetas": 36334,
  "isey": 46098,
  "iseÃ³": 43943,
  "isfer": 21674,
  "isferio": 23694,
  "ish": 2647,
  "isha": 26464,
  "ished": 44233,
  "ishes": 4757,
  "ishi": 18687,
  "isi": 21858,
  "isia": 49008,
  "isio": 25353,
  "ision": 15418,
  "isiones": 25818,
  "isis": 4344,
  "isisipi": 32665,
  "isiÃ³n": 1690,
  "isk": 41108,
  "isla": 4761,
  "islao": 27780,
  "islav": 34631,
  "ism": 14969,
  "isma": 29281,
  "ismo": 1231,
  "ismos": 6016,
  "iso": 1344,
  "isodio": 26766,
  "ison": 6716,
  "isos": 13587,
  "isource": 42590,
  "isp": 4890,
  "ispado": 20879,
  "ispo": 4213,
  "ispos": 14222,
  "iss": 3466,
  "issa": 12407,
  "issan": 32340,
  "issance": 34851,
  "isse": 17728,
  "issen": 49807,
  "issi": 31007,
  "issippi": 39939,
  "isson": 41364,
  "ist": 405,
  "ista": 622,
  "istades": 24651,
  "istan": 28887,
  "istas": 1296,
  "iste": 1059,
  "isteis": 50226,
  "istem": 47486,
  "istema": 6884,
  "istemas": 15984,
  "isten": 8151,
  "istencia": 10527,
  "istente": 14263,
  "istentes": 28891,
  "ister": 4051,
  "isterio": 3811,
  "isters": 42979,
  "istes": 21295,
  "istic": 20076,
  "isticio": 38582,
  "istir": 27048,
  "istiÃ³": 8409,
  "isto": 1523,
  "istoceno": 46240,
  "istoire": 22741,
  "istola": 7963,
  "iston": 44885,
  "istor": 20565,
  "istoria": 6695,
  "istos": 27634,
  "istra": 20408,
  "istro": 2868,
  "istros": 10408,
  "istry": 40099,
  "ists": 38854,
  "istÃ¡n": 7498,
  "istÃŃa": 15996,
  "isÃ©s": 21491,
  "isÃ³": 50177,
  "it": 409,
  "ita": 808,
  "itaba": 3402,
  "itaban": 14346,
  "itable": 42955,
  "itaciones": 7187,
  "itaciÃ³n": 2191,
  "itada": 5061,
  "itadas": 13161,
  "itado": 2973,
  "itador": 37987,
  "itados": 5665,
  "itage": 34826,
  "ital": 1140,
  "itales": 6224,
  "itama": 47451,
  "itamente": 11827,
  "itamos": 24113,
  "itan": 4208,
  "itana": 15904,
  "itancia": 35990,
  "itando": 6895,
  "itanes": 17410,
  "itania": 23546,
  "itanic": 36315,
  "itano": 21997,
  "itanos": 22682,
  "itante": 4794,
  "itantes": 8366,
  "itanÃŃa": 33704,
  "itar": 902,
  "itara": 30088,
  "itaria": 5769,
  "itarias": 13090,
  "itario": 3944,
  "itarios": 9039,
  "itarismo": 41654,
  "itaron": 13546,
  "itarra": 13447,
  "itarse": 16023,
  "itas": 2523,
  "itat": 32755,
  "itch": 7653,
  "ite": 3307,
  "iteatro": 34318,
  "ited": 21372,
  "iten": 16663,
  "iter": 14714,
  "ites": 7603,
  "ith": 3939,
  "itha": 46146,
  "iti": 7954,
  "itia": 30364,
  "ities": 35748,
  "itim": 23134,
  "iting": 44833,
  "ition": 48566,
  "itis": 24290,
  "itiva": 15549,
  "itivo": 21067,
  "itivos": 44069,
  "itlin": 29921,
  "itmo": 41203,
  "ito": 1112,
  "itologÃŃa": 33663,
  "iton": 43867,
  "itor": 2995,
  "itora": 23409,
  "itoral": 17774,
  "itores": 11119,
  "itoria": 32862,
  "itorio": 7374,
  "itorios": 25553,
  "itos": 2110,
  "itra": 20919,
  "itre": 22323,
  "itres": 39558,
  "itri": 10243,
  "itro": 9177,
  "itroÃ«n": 28259,
  "its": 5757,
  "itsch": 32783,
  "itsu": 28600,
  "itt": 9867,
  "itta": 29263,
  "itte": 29216,
  "itter": 11921,
  "ittle": 10496,
  "itu": 798,
  "itud": 3294,
  "itudes": 17949,
  "itura": 45165,
  "itus": 44188,
  "ity": 2152,
  "itz": 5257,
  "itzer": 28838,
  "itÃ¡n": 2980,
  "itÃ¡ndose": 31792,
  "itÃ©": 4611,
  "itÃ©s": 26768,
  "itÃ³": 2923,
  "itÃ³ria": 40327,
  "itÃł": 44802,
  "itÃŃ": 18711,
  "iu": 765,
  "iuda": 8178,
  "iudad": 852,
  "iudadela": 23984,
  "iudades": 3810,
  "ium": 5481,
  "iura": 28348,
  "ius": 5477,
  "iuseppe": 18157,
  "iv": 623,
  "iva": 2580,
  "ival": 19527,
  "ivamente": 5482,
  "ivan": 21145,
  "ivar": 22845,
  "ivas": 5745,
  "ive": 6472,
  "ivel": 2176,
  "iven": 45755,
  "iver": 25880,
  "ivers": 2049,
  "iversario": 11189,
  "ives": 23705,
  "ivi": 6124,
  "ivia": 5445,
  "iviana": 42662,
  "ividad": 18716,
  "ivil": 2491,
  "iving": 35394,
  "ivio": 9370,
  "ivo": 3384,
  "ivos": 4243,
  "iw": 14044,
  "iwÃ¡n": 17930,
  "ix": 3116,
  "ixa": 29747,
  "iy": 7701,
  "iya": 20731,
  "iyi": 37512,
  "iyÅ«": 25943,
  "iz": 439,
  "iza": 2548,
  "izaba": 15315,
  "izaban": 30951,
  "izabeth": 9123,
  "izaciones": 16395,
  "izaciÃ³n": 3282,
  "izada": 4865,
  "izadas": 13921,
  "izado": 4601,
  "izador": 26317,
  "izadora": 46080,
  "izadores": 32868,
  "izados": 9382,
  "izales": 48301,
  "izan": 14429,
  "izando": 16835,
  "izante": 29363,
  "izar": 4875,
  "izaron": 22258,
  "izarse": 27041,
  "izas": 9471,
  "izca": 12013,
  "izcon": 20488,
  "ize": 11761,
  "izer": 38621,
  "izo": 1128,
  "izos": 11797,
  "izquierda": 42257,
  "izu": 28138,
  "izz": 25689,
  "izÃ¡": 2756,
  "izÃ¡s": 5863,
  "izÃ³": 5253,
  "iÃ¡": 41031,
  "iÃ¡n": 7035,
  "iÃ¨re": 37635,
  "iÃ©": 39862,
  "iÃ©n": 1545,
  "iÃ©ndo": 7358,
  "iÃ©ndola": 22523,
  "iÃ©ndole": 18593,
  "iÃ©ndolo": 23852,
  "iÃ©ndolos": 47734,
  "iÃ©ndome": 24621,
  "iÃ©ndose": 4981,
  "iÃ©ramos": 38007,
  "iÃ±o": 37309,
  "iÃ³": 691,
  "iÃ³dor": 37386,
  "iÃ³n": 475,
  "iÄĩ": 21497,
  "j": 83,
  "ja": 656,
  "jaba": 4316,
  "jaban": 10870,
  "jable": 44920,
  "jac": 49289,
  "jad": 29775,
  "jada": 3416,
  "jadas": 9325,
  "jadeÃ³": 49854,
  "jado": 3007,
  "jados": 11285,
  "jal": 6385,
  "jala": 34952,
  "jales": 15332,
  "jalÃ¡": 13729,
  "jama": 24707,
  "jamos": 31969,
  "jan": 6989,
  "jana": 24210,
  "jando": 7973,
  "jano": 12325,
  "janos": 39853,
  "jante": 13971,
  "jantes": 38979,
  "jar": 1421,
  "jara": 7797,
  "jardo": 39158,
  "jares": 28619,
  "jarme": 32367,
  "jaro": 37322,
  "jaron": 11589,
  "jaros": 38494,
  "jarros": 43622,
  "jarse": 11765,
  "jarÃŃa": 32071,
  "jas": 1268,
  "jate": 18848,
  "jay": 37655,
  "je": 548,
  "jean": 33116,
  "jec": 13467,
  "ject": 17202,
  "jed": 13155,
  "jeda": 31309,
  "jedrez": 13835,
  "jefe": 39879,
  "jemos": 48214,
  "jemp": 37884,
  "jen": 26665,
  "jer": 753,
  "jera": 5821,
  "jeran": 28424,
  "jeras": 11048,
  "jero": 3336,
  "jeron": 5513,
  "jeros": 3546,
  "jerÃŃa": 16151,
  "jes": 1565,
  "jese": 22532,
  "jestad": 12423,
  "jet": 37657,
  "jeta": 33136,
  "jetivo": 21935,
  "jevo": 34100,
  "ji": 6368,
  "jiang": 40497,
  "jica": 48242,
  "jico": 49540,
  "jidad": 15406,
  "jido": 36277,
  "jil": 46940,
  "jilla": 27573,
  "jillas": 49830,
  "jillo": 15157,
  "jima": 31806,
  "jimo": 36896,
  "jin": 17377,
  "jismo": 34856,
  "jistÃ¡n": 27971,
  "jita": 20595,
  "jitas": 48696,
  "jito": 38701,
  "jk": 47862,
  "jn": 44391,
  "jo": 431,
  "jol": 23921,
  "jon": 21226,
  "jona": 41201,
  "jones": 12334,
  "jor": 2698,
  "jord": 34535,
  "jos": 686,
  "josa": 21836,
  "joso": 27298,
  "jou": 30471,
  "jov": 28227,
  "joy": 28370,
  "js": 45109,
  "ju": 4279,
  "juana": 24257,
  "juato": 24557,
  "jub": 45680,
  "judi": 10632,
  "juego": 40607,
  "juegos": 36680,
  "juez": 34645,
  "jug": 13744,
  "jugador": 18795,
  "julio": 42660,
  "jun": 17244,
  "junio": 37408,
  "junta": 35701,
  "junto": 10258,
  "juntos": 45017,
  "juria": 27382,
  "just": 38922,
  "juy": 25948,
  "jÃ¡": 17280,
  "jÃ¡n": 21570,
  "jÃ¡ndose": 29817,
  "jÃ©": 13652,
  "jÃ©r": 2042,
  "jÃ©rcito": 2217,
  "jÃ©rcitos": 11085,
  "jÃ³": 1776,
  "jÃ³n": 6775,
  "jÃ¶": 37744,
  "jÃ¶r": 48596,
  "jÃº": 43013,
  "jÃŃa": 26069,
  "jÅį": 40511,
  "k": 84,
  "ka": 1658,
  "kai": 18871,
  "kal": 27001,
  "kam": 41426,
  "kan": 13779,
  "kar": 10123,
  "kara": 25724,
  "karta": 48852,
  "kas": 13876,
  "kashi": 50204,
  "kat": 26506,
  "kata": 32172,
  "kawa": 27792,
  "ke": 1521,
  "kee": 18067,
  "kees": 43295,
  "kel": 14511,
  "keley": 21051,
  "kelo": 36935,
  "kelodeon": 37571,
  "ken": 9012,
  "kens": 47444,
  "ker": 3108,
  "kers": 14220,
  "kes": 7658,
  "kespe": 16070,
  "kespeare": 16397,
  "ket": 8675,
  "keting": 29903,
  "key": 8121,
  "kg": 38557,
  "kh": 10370,
  "kha": 46576,
  "ki": 1908,
  "kia": 24117,
  "kie": 34569,
  "kil": 47269,
  "kin": 5419,
  "kina": 28313,
  "king": 7064,
  "kins": 8824,
  "kinson": 25503,
  "kir": 25283,
  "kis": 22703,
  "kk": 19843,
  "kka": 26468,
  "kle": 42627,
  "km": 6321,
  "ko": 2006,
  "koff": 36681,
  "kok": 28225,
  "kol": 31307,
  "kom": 35606,
  "kon": 23676,
  "kor": 24776,
  "kos": 18941,
  "kota": 15516,
  "kov": 6809,
  "kova": 33549,
  "kovic": 34216,
  "koviÄĩ": 36760,
  "kovski": 49420,
  "kovÃ¡": 39210,
  "kowski": 32814,
  "kra": 21149,
  "kre": 48587,
  "ks": 3632,
  "kt": 18272,
  "ktor": 45153,
  "ku": 5115,
  "kul": 49053,
  "kun": 27875,
  "kur": 45286,
  "kura": 38073,
  "kus": 21857,
  "ky": 3379,
  "kÃ¡n": 22624,
  "kÃ³": 33753,
  "kÃ¶": 49219,
  "kÃŃn": 13380,
  "l": 85,
  "la": 334,
  "lab": 12768,
  "laba": 7618,
  "laban": 13063,
  "labas": 35825,
  "labrada": 49800,
  "lac": 14342,
  "lace": 8265,
  "laces": 1055,
  "lach": 41009,
  "laciones": 4029,
  "laciÃ³n": 889,
  "lack": 12428,
  "lad": 2882,
  "lada": 4554,
  "ladamente": 45212,
  "ladas": 10937,
  "lade": 40231,
  "ladi": 34564,
  "lado": 2644,
  "lador": 16162,
  "ladores": 13912,
  "lados": 7080,
  "ladÃ©s": 39191,
  "lag": 6522,
  "laga": 8642,
  "lage": 38369,
  "lago": 10772,
  "lagos": 24416,
  "lagro": 13029,
  "lagros": 15294,
  "lah": 13295,
  "lahoma": 20963,
  "lai": 40776,
  "lain": 26676,
  "laine": 32004,
  "laire": 26369,
  "laje": 10117,
  "lak": 40791,
  "lake": 34671,
  "lal": 17634,
  "lalon": 25473,
  "lam": 2497,
  "lame": 38378,
  "lamento": 5947,
  "lamiento": 14156,
  "lamo": 22160,
  "lamos": 21291,
  "lan": 590,
  "lana": 27174,
  "lanada": 28202,
  "lanas": 35110,
  "lanca": 16617,
  "lanco": 32072,
  "land": 2290,
  "landa": 7135,
  "lander": 37934,
  "landes": 8607,
  "landesa": 14939,
  "landesas": 36609,
  "landeses": 18948,
  "landia": 7507,
  "lando": 6073,
  "lands": 18935,
  "landÃ©s": 9104,
  "lane": 33906,
  "laneda": 26937,
  "lanes": 15903,
  "lang": 43670,
  "lano": 31858,
  "lanos": 10391,
  "lant": 15480,
  "lanta": 10530,
  "lantaciÃ³n": 30977,
  "lante": 10203,
  "lantes": 24869,
  "lantic": 22595,
  "lanto": 35272,
  "lanza": 40402,
  "lao": 13621,
  "lap": 46425,
  "lar": 583,
  "lara": 12057,
  "laraciÃ³n": 22015,
  "lard": 17724,
  "lardo": 27312,
  "lares": 2483,
  "laria": 21178,
  "laron": 7868,
  "lars": 41184,
  "larse": 10265,
  "larÃ³": 32610,
  "las": 540,
  "lase": 38778,
  "lash": 12348,
  "laso": 39098,
  "lass": 47271,
  "lat": 32416,
  "lata": 16110,
  "late": 21030,
  "later": 3038,
  "lateral": 45435,
  "laterales": 48378,
  "laterra": 3231,
  "lation": 46262,
  "lativo": 38009,
  "lato": 38891,
  "lau": 28122,
  "laus": 48755,
  "lav": 2895,
  "lava": 13438,
  "lavas": 50188,
  "lave": 4143,
  "laves": 11069,
  "lavia": 14420,
  "lavio": 33517,
  "lavista": 48363,
  "lavo": 31372,
  "lavos": 27749,
  "law": 37929,
  "lax": 46554,
  "lay": 16318,
  "laya": 26284,
  "layo": 18404,
  "laz": 4255,
  "laza": 21200,
  "lazada": 48756,
  "lazado": 34956,
  "lazo": 45928,
  "lazÃ³": 44216,
  "lbum": 1932,
  "ld": 2926,
  "le": 330,
  "lea": 16066,
  "leas": 33014,
  "lec": 1897,
  "lecciones": 14553,
  "lecciÃ³n": 2041,
  "lection": 18279,
  "lecto": 18936,
  "lector": 49621,
  "lectu": 6868,
  "led": 14839,
  "ledad": 8017,
  "ledge": 29036,
  "ledo": 6950,
  "lee": 21180,
  "leen": 26679,
  "leep": 33420,
  "leg": 1775,
  "legada": 20838,
  "legados": 15585,
  "legido": 24880,
  "legio": 3847,
  "legios": 11758,
  "legro": 42919,
  "legÃ³": 9799,
  "lei": 45384,
  "leibol": 18194,
  "leigh": 28132,
  "lein": 39380,
  "lejo": 29296,
  "lek": 49467,
  "lem": 5207,
  "lema": 14042,
  "leman": 43593,
  "lement": 14756,
  "len": 4015,
  "lend": 34371,
  "lengua": 49663,
  "lense": 48434,
  "leo": 5093,
  "leos": 34104,
  "ler": 2414,
  "lera": 33709,
  "lero": 45073,
  "lers": 38199,
  "les": 570,
  "lesa": 33752,
  "lesc": 7024,
  "lesi": 11232,
  "lesia": 1928,
  "lesias": 8029,
  "less": 13926,
  "let": 3497,
  "leta": 5072,
  "letas": 9941,
  "letcher": 33394,
  "lete": 20016,
  "letes": 31537,
  "letic": 13569,
  "letin": 41367,
  "letismo": 10446,
  "leto": 9027,
  "leton": 28686,
  "letos": 16226,
  "lets": 28029,
  "lett": 26204,
  "letta": 48935,
  "lette": 12075,
  "letti": 34745,
  "letÃŃn": 20390,
  "leu": 45943,
  "lev": 3518,
  "levar": 29442,
  "levard": 30829,
  "leveland": 20062,
  "lew": 49379,
  "lex": 4690,
  "ley": 2211,
  "lez": 3783,
  "leza": 5506,
  "leÃ±a": 49258,
  "leÃ±o": 39971,
  "leÃ±os": 11400,
  "li": 1061,
  "lia": 4164,
  "liana": 42074,
  "liano": 24975,
  "liar": 10596,
  "liares": 48840,
  "lias": 38918,
  "lib": 24023,
  "liber": 49790,
  "lic": 827,
  "lica": 909,
  "licaciones": 4096,
  "licaciÃ³n": 3139,
  "licamente": 15740,
  "licas": 5790,
  "lice": 12573,
  "licer": 46168,
  "lices": 22324,
  "lich": 17425,
  "liche": 44330,
  "lick": 26242,
  "lico": 2080,
  "licos": 5068,
  "lid": 9072,
  "lidas": 15476,
  "lide": 48205,
  "lidos": 7501,
  "lie": 4374,
  "lies": 30532,
  "liese": 45838,
  "life": 36317,
  "lig": 1146,
  "liga": 12319,
  "ligencia": 13879,
  "light": 20519,
  "ligo": 33791,
  "lik": 36794,
  "lim": 9212,
  "lima": 5429,
  "lime": 27042,
  "lin": 2349,
  "lina": 7786,
  "linas": 17326,
  "line": 10902,
  "lines": 12016,
  "ling": 4619,
  "linger": 44340,
  "lington": 29128,
  "lini": 41825,
  "linio": 33968,
  "lins": 13813,
  "lio": 1743,
  "lion": 46366,
  "lios": 44493,
  "lip": 16417,
  "lique": 22066,
  "liquÃ©": 20267,
  "lis": 9946,
  "lismo": 19834,
  "list": 14967,
  "lista": 12701,
  "listas": 28735,
  "lit": 48597,
  "liter": 28788,
  "literalmente": 48063,
  "lito": 12555,
  "litz": 39181,
  "lius": 37087,
  "live": 28614,
  "lix": 24066,
  "liz": 27671,
  "ll": 921,
  "lla": 2351,
  "llada": 26003,
  "llado": 17308,
  "llam": 17688,
  "llamada": 43185,
  "llamado": 42079,
  "llamente": 14602,
  "llamÃ³": 42002,
  "llan": 16592,
  "llano": 31511,
  "llar": 5662,
  "llarse": 32999,
  "llas": 3081,
  "lle": 8673,
  "ller": 10599,
  "lles": 43254,
  "llev": 29059,
  "llez": 27260,
  "lli": 26742,
  "llo": 1419,
  "lloa": 30129,
  "llos": 4087,
  "lly": 47819,
  "llÃ³": 12109,
  "llÃ³n": 45775,
  "lo": 365,
  "loa": 32699,
  "load": 48041,
  "lob": 20063,
  "loc": 46078,
  "lock": 14742,
  "locu": 18841,
  "loe": 26512,
  "log": 16423,
  "logen": 40814,
  "logo": 15690,
  "logos": 35218,
  "logy": 45279,
  "logÃŃa": 4955,
  "logÃŃas": 24272,
  "loj": 5663,
  "lom": 18776,
  "loma": 37917,
  "lomo": 35260,
  "lon": 6873,
  "long": 38100,
  "loo": 34163,
  "lop": 14590,
  "lope": 20825,
  "loponeso": 42332,
  "loque": 15046,
  "lor": 1186,
  "lora": 4560,
  "loraciÃ³n": 14595,
  "lore": 34254,
  "lores": 3177,
  "loria": 7453,
  "los": 516,
  "losa": 22180,
  "lose": 49369,
  "loso": 40345,
  "loss": 28830,
  "lot": 11613,
  "lov": 9090,
  "lova": 12287,
  "lovaquia": 13776,
  "loven": 20712,
  "lovenia": 23257,
  "low": 9040,
  "loy": 10255,
  "loyd": 13597,
  "ls": 8874,
  "lti": 893,
  "lu": 1446,
  "lub": 1098,
  "ludio": 30883,
  "luego": 40483,
  "luen": 42539,
  "luencia": 20116,
  "lugar": 35114,
  "lula": 16381,
  "lum": 15865,
  "lumb": 26575,
  "lund": 43223,
  "lus": 17271,
  "lut": 21347,
  "luy": 6754,
  "luz": 40931,
  "lvar": 5589,
  "ly": 2132,
  "lymouth": 40786,
  "lymp": 13990,
  "lyn": 10502,
  "lynn": 30602,
  "lys": 44514,
  "lywood": 47002,
  "lÃ¡": 2787,
  "lÃ¡n": 5019,
  "lÃ©": 2193,
  "lÃ©n": 14412,
  "lÃ©s": 1814,
  "lÃ©tica": 36267,
  "lÃ©tico": 4283,
  "lÃ³": 5326,
  "lÃ³gica": 44471,
  "lÃ³gico": 43239,
  "lÃ³n": 11348,
  "lÃº": 35352,
  "lÃºcar": 47253,
  "lÃŃ": 1058,
  "lÃŃada": 46314,
  "lÃŃn": 4023,
  "lÃŃnea": 36626,
  "lÃŃsima": 42405,
  "m": 86,
  "ma": 407,
  "maba": 39338,
  "mac": 20007,
  "macht": 36546,
  "macia": 30480,
  "maciÃ³n": 18909,
  "mack": 23323,
  "mackDown": 29919,
  "maco": 21176,
  "macos": 29937,
  "macul": 17248,
  "maculada": 21323,
  "mad": 9399,
  "mada": 7380,
  "mado": 6009,
  "mados": 29767,
  "madre": 46036,
  "madura": 16040,
  "maduras": 36232,
  "maestre": 44490,
  "mag": 18698,
  "mail": 32387,
  "main": 23342,
  "maine": 43910,
  "mak": 49276,
  "mal": 6074,
  "mala": 6918,
  "males": 28744,
  "mall": 17662,
  "malte": 25278,
  "mam": 30321,
  "mamente": 15107,
  "mamuri": 41965,
  "man": 635,
  "mana": 1644,
  "manas": 2906,
  "mance": 27222,
  "mand": 16846,
  "manda": 30224,
  "mandant": 48695,
  "mando": 26184,
  "manera": 42164,
  "manes": 4763,
  "mani": 37345,
  "mania": 2411,
  "manifestÃ³": 34442,
  "mann": 4728,
  "mano": 2059,
  "manos": 3751,
  "mans": 27839,
  "mant": 46613,
  "mante": 18726,
  "manuel": 19053,
  "mar": 1219,
  "mara": 27791,
  "maras": 10888,
  "marck": 36393,
  "mare": 31209,
  "mark": 25957,
  "markt": 34510,
  "mart": 29172,
  "marzo": 43177,
  "marÃ©s": 6008,
  "mas": 687,
  "mascar": 20967,
  "mascullÃ³": 29771,
  "mash": 38190,
  "maso": 31051,
  "master": 27500,
  "mat": 21016,
  "mata": 26431,
  "matas": 50024,
  "mate": 16258,
  "material": 43359,
  "matic": 31040,
  "matical": 37317,
  "matics": 41393,
  "mato": 9805,
  "maux": 43818,
  "max": 26294,
  "may": 13579,
  "mayo": 24325,
  "mayor": 33121,
  "maz": 43114,
  "mb": 555,
  "mberg": 19724,
  "mbito": 8303,
  "mbo": 8517,
  "mbre": 1662,
  "mbres": 46891,
  "mburgo": 16314,
  "me": 536,
  "mebol": 39245,
  "mec": 47336,
  "med": 13132,
  "meda": 44364,
  "medes": 46377,
  "medi": 10916,
  "media": 13649,
  "medias": 45367,
  "mediatamente": 19550,
  "medio": 7663,
  "medios": 26820,
  "medo": 27782,
  "mej": 4861,
  "mejor": 31484,
  "mel": 8571,
  "mela": 21517,
  "melo": 8473,
  "mem": 23993,
  "men": 1966,
  "mena": 43951,
  "mendi": 47857,
  "mendo": 22209,
  "menes": 7251,
  "menos": 45686,
  "mens": 18009,
  "mensional": 30094,
  "ment": 1635,
  "menta": 9747,
  "mentaciÃ³n": 8774,
  "mentada": 40707,
  "mentado": 35844,
  "mental": 5407,
  "mentales": 24684,
  "mentar": 50249,
  "mentary": 44483,
  "mente": 519,
  "mento": 2319,
  "mentos": 2807,
  "ments": 21607,
  "mer": 1875,
  "mera": 26171,
  "meral": 16231,
  "meralda": 23063,
  "meraldas": 31863,
  "mere": 47481,
  "mero": 25597,
  "meros": 49356,
  "merpool": 42727,
  "mers": 21231,
  "merÃŃa": 12741,
  "mes": 4352,
  "mesÃŃ": 38222,
  "met": 19880,
  "metal": 44641,
  "mete": 45899,
  "metro": 4858,
  "metros": 3233,
  "metrÃŃa": 25628,
  "mett": 41888,
  "meyer": 17300,
  "mez": 25043,
  "mi": 876,
  "mia": 15721,
  "mic": 29081,
  "mica": 9004,
  "micas": 24708,
  "mico": 13099,
  "micos": 21070,
  "mid": 9969,
  "midas": 47332,
  "midos": 21143,
  "midt": 24635,
  "mie": 38149,
  "miembro": 40925,
  "miento": 939,
  "mientos": 2051,
  "mientras": 42224,
  "mier": 11260,
  "mig": 27060,
  "migraciÃ³n": 37323,
  "mil": 1984,
  "mila": 35287,
  "mile": 22063,
  "militar": 40292,
  "millan": 47084,
  "millas": 13084,
  "millos": 25996,
  "min": 721,
  "mina": 5030,
  "minaciÃ³n": 9915,
  "minas": 22570,
  "mine": 25945,
  "minente": 15969,
  "ming": 28983,
  "mini": 43931,
  "minis": 34175,
  "minist": 2280,
  "ministro": 44358,
  "mino": 26786,
  "minos": 6236,
  "minster": 28873,
  "mintiÃ³": 43563,
  "minton": 39770,
  "mio": 2011,
  "mios": 3581,
  "mir": 5985,
  "mira": 15625,
  "mirante": 9739,
  "miro": 37562,
  "mirÃ³": 31740,
  "mis": 7687,
  "misa": 44268,
  "misiÃ³n": 8009,
  "mission": 39828,
  "mit": 1804,
  "mita": 7680,
  "mitas": 22095,
  "mite": 5480,
  "miten": 19876,
  "mites": 6739,
  "mith": 4911,
  "mitido": 42761,
  "mitir": 30913,
  "mitismo": 45080,
  "mitiÃ³": 14400,
  "mito": 26425,
  "mitri": 30132,
  "mitt": 46603,
  "mitÃŃa": 16046,
  "mitÃŃan": 32300,
  "ml": 47508,
  "mler": 40608,
  "mlin": 45030,
  "mm": 11284,
  "mo": 433,
  "moc": 38092,
  "moder": 33642,
  "mografÃŃa": 9092,
  "mol": 6018,
  "mon": 2475,
  "mona": 20822,
  "mond": 7995,
  "mones": 13022,
  "monio": 13749,
  "mono": 45907,
  "monos": 38599,
  "mons": 23435,
  "mont": 12917,
  "monte": 25636,
  "monÃŃa": 47288,
  "mor": 2291,
  "more": 9234,
  "mortal": 43962,
  "mos": 648,
  "mosa": 14196,
  "mose": 30661,
  "mosis": 26485,
  "moslo": 31073,
  "moso": 22330,
  "mot": 49231,
  "moto": 29130,
  "mour": 26410,
  "mous": 41699,
  "mouth": 20678,
  "mov": 29016,
  "mp": 375,
  "mpa": 7706,
  "mpan": 46343,
  "mpe": 4521,
  "mper": 49956,
  "mph": 17120,
  "mphis": 28130,
  "mphony": 36719,
  "mpica": 17592,
  "mpico": 8461,
  "mpicos": 3663,
  "mpl": 1531,
  "mple": 2144,
  "mplemente": 17912,
  "ms": 7271,
  "msterdam": 15481,
  "mu": 6314,
  "mud": 35233,
  "mudas": 46833,
  "mujer": 34624,
  "mul": 4694,
  "mula": 6382,
  "mulaciÃ³n": 16611,
  "mular": 37766,
  "mun": 5873,
  "muna": 43703,
  "mund": 14129,
  "mundo": 16672,
  "mune": 47726,
  "municipio": 14947,
  "mur": 43904,
  "murm": 6626,
  "murmurÃ³": 7209,
  "mus": 8737,
  "music": 34666,
  "musitÃ³": 21488,
  "mut": 19162,
  "muy": 27983,
  "my": 4306,
  "mÃ¡": 1730,
  "mÃ¡genes": 4527,
  "mÃ¡n": 2296,
  "mÃ¡s": 12988,
  "mÃ¡tica": 4422,
  "mÃ¡ticamente": 29850,
  "mÃ¡ticas": 7278,
  "mÃ¡tico": 6523,
  "mÃ¡ticos": 10781,
  "mÃ©": 13803,
  "mÃ©n": 41209,
  "mÃ©tica": 31671,
  "mÃ³": 7744,
  "mÃ³n": 12186,
  "mÃ³s": 10105,
  "mÃºsica": 48102,
  "mÃŃ": 24908,
  "mÃŃn": 17690,
  "n": 87,
  "na": 542,
  "nab": 34886,
  "naba": 48002,
  "nacida": 28681,
  "nacido": 13337,
  "nacional": 2010,
  "naciÃ³n": 4825,
  "nada": 18193,
  "nado": 12357,
  "nados": 30617,
  "naeus": 32935,
  "nah": 37109,
  "nai": 44922,
  "naire": 43535,
  "nais": 48058,
  "nak": 35994,
  "nal": 5451,
  "nales": 23234,
  "nam": 11025,
  "nament": 49385,
  "namente": 44519,
  "nan": 16411,
  "nando": 44063,
  "nar": 11233,
  "nard": 40977,
  "nas": 1788,
  "nat": 48987,
  "nata": 28463,
  "nate": 28967,
  "nati": 26914,
  "nato": 43562,
  "natural": 44610,
  "nau": 46686,
  "nav": 30003,
  "naval": 16740,
  "navales": 47664,
  "nay": 43847,
  "ncia": 34382,
  "nd": 16099,
  "ne": 1004,
  "nea": 24688,
  "neapolis": 41871,
  "nec": 35756,
  "ned": 41019,
  "neg": 15302,
  "negie": 41619,
  "negre": 34522,
  "nel": 30099,
  "nell": 16626,
  "nen": 24878,
  "neo": 23174,
  "neos": 9253,
  "ner": 2709,
  "nero": 46563,
  "neros": 25325,
  "ners": 38574,
  "nes": 2539,
  "nesia": 44104,
  "nesota": 15492,
  "ness": 14161,
  "nesto": 11120,
  "net": 4670,
  "nett": 28985,
  "nette": 41938,
  "ney": 3628,
  "ng": 14521,
  "ni": 4319,
  "nia": 7578,
  "nibus": 36302,
  "nic": 26088,
  "nica": 20350,
  "nicamente": 35002,
  "nick": 45308,
  "nico": 24949,
  "nidad": 19018,
  "nido": 29644,
  "nidos": 46889,
  "nie": 6702,
  "nier": 35759,
  "night": 29868,
  "nik": 14335,
  "nikov": 43033,
  "nin": 35215,
  "ning": 11710,
  "nio": 15007,
  "nip": 35503,
  "nis": 12598,
  "nistÃŃa": 30373,
  "niz": 30506,
  "nm": 10525,
  "no": 671,
  "nock": 33829,
  "noff": 44067,
  "nombre": 32444,
  "non": 20975,
  "nor": 16586,
  "norte": 33911,
  "nos": 743,
  "nosa": 38824,
  "nosis": 41931,
  "noso": 33075,
  "not": 33351,
  "nota": 47958,
  "nov": 28820,
  "nova": 38505,
  "novela": 39508,
  "nover": 31212,
  "now": 11487,
  "nown": 50038,
  "noz": 34612,
  "ns": 11363,
  "nsbruck": 47417,
  "nu": 27109,
  "nueve": 21841,
  "num": 47244,
  "nunca": 39182,
  "nus": 34765,
  "nut": 45009,
  "ny": 3824,
  "nÂº": 31877,
  "nÃ¡": 32032,
  "nÃ©": 29369,
  "nÃ©s": 39868,
  "nÃ³": 11939,
  "nÃºmero": 36803,
  "nÃŃ": 38195,
  "o": 88,
  "oa": 24430,
  "ob": 697,
  "oba": 35630,
  "obia": 20491,
  "obje": 28363,
  "objetÃ³": 42641,
  "oble": 31691,
  "obo": 7982,
  "obos": 16252,
  "obra": 39908,
  "observÃ³": 20848,
  "oby": 28494,
  "oc": 787,
  "ocada": 35469,
  "ocal": 3712,
  "ocas": 21566,
  "occidental": 47786,
  "oce": 3225,
  "oceno": 28075,
  "ocer": 42923,
  "oci": 749,
  "ocidio": 32965,
  "ocina": 33070,
  "ocitos": 43310,
  "ock": 3870,
  "ocket": 47339,
  "ockey": 15546,
  "ocles": 42535,
  "ocol": 16772,
  "ocolmo": 17243,
  "ocos": 15373,
  "octubre": 46066,
  "ocu": 2053,
  "ocus": 41372,
  "ocÃ³": 39108,
  "ocÃŃ": 43133,
  "ocÃŃa": 18804,
  "od": 1899,
  "odi": 36227,
  "odka": 35005,
  "odo": 21259,
  "odon": 49105,
  "ody": 20588,
  "oeste": 31464,
  "of": 11209,
  "off": 22730,
  "offs": 41524,
  "oficial": 42665,
  "oficialmente": 48351,
  "og": 3448,
  "ogle": 10287,
  "oh": 20962,
  "ois": 30900,
  "ojos": 35504,
  "ok": 2737,
  "oka": 29610,
  "oke": 19362,
  "okie": 41359,
  "oks": 36333,
  "oku": 42123,
  "ol": 339,
  "ola": 4145,
  "oladas": 38847,
  "olan": 26905,
  "olar": 16757,
  "olares": 21952,
  "olas": 5410,
  "old": 4361,
  "oldo": 48715,
  "olds": 26891,
  "oldÃ¡n": 33065,
  "ole": 20374,
  "oler": 37912,
  "oles": 2322,
  "olf": 26818,
  "oli": 10685,
  "olia": 16061,
  "olib": 47996,
  "olic": 39156,
  "olin": 24732,
  "olina": 4898,
  "oling": 44464,
  "olio": 37856,
  "olis": 49092,
  "olita": 28137,
  "olito": 43098,
  "olk": 39501,
  "oll": 15177,
  "olla": 14090,
  "ollas": 20918,
  "ollo": 25901,
  "ollos": 35022,
  "olly": 28026,
  "olo": 643,
  "olog": 3675,
  "ologia": 37354,
  "ological": 21072,
  "ologie": 29159,
  "ologista": 36159,
  "ologna": 37401,
  "ology": 7636,
  "ologÃŃa": 1803,
  "ologÃŃas": 12041,
  "olor": 34538,
  "olos": 9674,
  "ols": 18594,
  "olu": 1304,
  "oluca": 24644,
  "olucion": 5620,
  "oluciones": 18225,
  "oluciÃ³n": 2492,
  "olution": 13536,
  "olver": 6296,
  "olvid": 31672,
  "olviÃ³": 13552,
  "olÃ³g": 2234,
  "olÃ³gica": 5749,
  "olÃ³gicamente": 30652,
  "olÃ³gicas": 8879,
  "olÃ³gico": 4732,
  "olÃ³gicos": 7326,
  "olÃŃ": 14927,
  "olÃŃn": 25678,
  "olÃŃtico": 23591,
  "om": 308,
  "oma": 1399,
  "omag": 32650,
  "omal": 26554,
  "oman": 12148,
  "omar": 17790,
  "omas": 2576,
  "omayor": 40533,
  "omb": 663,
  "omba": 8639,
  "ombat": 46588,
  "ombe": 39517,
  "ombi": 6514,
  "ombia": 3621,
  "ombie": 49196,
  "ombo": 16455,
  "ombre": 702,
  "ombres": 11029,
  "ombros": 21893,
  "ome": 1358,
  "omedes": 49391,
  "omen": 8707,
  "omencla": 23124,
  "omenclatura": 32259,
  "omeo": 24043,
  "omer": 9668,
  "omery": 27005,
  "omet": 47349,
  "ometra": 8709,
  "ometraje": 10793,
  "ometrajes": 23382,
  "ometrÃŃa": 16681,
  "omi": 14486,
  "omic": 28367,
  "omin": 1746,
  "ominaciÃ³n": 24959,
  "ominada": 12077,
  "ominado": 9282,
  "ominados": 44961,
  "oming": 28965,
  "omio": 41094,
  "omista": 47449,
  "omo": 1282,
  "omon": 24847,
  "omor": 16369,
  "omorfas": 45538,
  "omos": 3351,
  "omosex": 11733,
  "omp": 12642,
  "ompe": 10578,
  "ompiÃ©": 31435,
  "ompson": 18520,
  "oms": 29451,
  "omun": 46143,
  "omy": 25137,
  "omys": 48754,
  "omÃ¡n": 39715,
  "omÃ©": 7033,
  "omÃ©trico": 46740,
  "omÃŃa": 2608,
  "on": 279,
  "ona": 613,
  "onaciÃ³n": 33899,
  "onada": 13846,
  "onadas": 46177,
  "onado": 8415,
  "onados": 33937,
  "onaje": 18559,
  "onal": 5458,
  "onaldo": 48704,
  "onales": 16290,
  "onan": 46952,
  "onas": 3100,
  "onata": 26895,
  "onato": 2090,
  "onatos": 7763,
  "onazo": 31701,
  "onazos": 38542,
  "onces": 6268,
  "oncesto": 7141,
  "oncito": 46600,
  "ond": 1589,
  "onda": 3280,
  "ondalar": 19508,
  "ondas": 33243,
  "onde": 14632,
  "onder": 45381,
  "ondo": 10913,
  "ondr": 28422,
  "ondra": 50216,
  "onduras": 10316,
  "one": 2529,
  "onel": 3623,
  "onely": 47771,
  "onen": 47540,
  "oner": 45262,
  "onera": 35134,
  "onero": 42540,
  "onerÃŃa": 34099,
  "ones": 592,
  "onesa": 11944,
  "oneses": 34154,
  "oneso": 39632,
  "oneta": 27309,
  "onetas": 39165,
  "oney": 16335,
  "ong": 1650,
  "onga": 25374,
  "ongo": 42766,
  "ongÃ³": 50200,
  "oni": 7945,
  "onia": 2048,
  "onial": 13196,
  "oniales": 27755,
  "onias": 16462,
  "onic": 47621,
  "onimia": 18188,
  "onio": 2257,
  "onios": 7100,
  "onis": 41053,
  "onista": 40367,
  "onizaciÃ³n": 32888,
  "onmano": 18779,
  "onna": 12506,
  "onne": 32037,
  "ono": 1494,
  "onomÃŃa": 30416,
  "onos": 12313,
  "onovan": 32470,
  "ons": 5682,
  "onso": 8844,
  "ont": 12470,
  "onte": 3207,
  "ontes": 27319,
  "onto": 12011,
  "ony": 4607,
  "onymous": 47373,
  "onz": 3347,
  "onÃ©s": 14519,
  "onÃŃa": 7435,
  "oo": 11551,
  "ood": 3905,
  "op": 4282,
  "oper": 11202,
  "opera": 14415,
  "operaciÃ³n": 12136,
  "oph": 11788,
  "ophe": 35055,
  "opinÃ³": 49979,
  "opl": 21093,
  "or": 282,
  "ora": 517,
  "oraciones": 9814,
  "oraciÃ³n": 2575,
  "orada": 1547,
  "oradas": 19058,
  "orado": 9406,
  "orah": 29460,
  "oral": 25670,
  "orary": 34766,
  "oras": 8764,
  "orato": 33355,
  "orb": 22009,
  "orca": 11152,
  "orcio": 28087,
  "ord": 959,
  "orde": 20086,
  "orden": 3891,
  "ordenadas": 6205,
  "ordenÃ³": 15278,
  "ordin": 5498,
  "ordon": 13299,
  "ords": 28761,
  "ore": 3802,
  "orean": 49408,
  "orema": 23861,
  "orero": 29881,
  "ores": 693,
  "orestaciÃ³n": 47388,
  "oreste": 9237,
  "org": 12116,
  "organ": 35065,
  "organiz": 13187,
  "organizaciÃ³n": 42703,
  "orge": 2451,
  "ori": 8457,
  "oria": 888,
  "orien": 17723,
  "oriental": 38335,
  "orig": 34141,
  "orio": 6355,
  "orios": 22350,
  "oris": 48388,
  "ork": 1973,
  "orld": 3488,
  "orm": 1133,
  "ormal": 22450,
  "ormales": 43159,
  "ormalmente": 37393,
  "orme": 3091,
  "ormemente": 19467,
  "ormes": 6263,
  "orn": 1245,
  "ornada": 6751,
  "orneo": 3072,
  "orning": 23978,
  "ornio": 32392,
  "ornis": 46963,
  "orno": 24856,
  "oro": 2872,
  "oroeste": 7152,
  "oros": 13847,
  "orr": 14899,
  "orra": 14002,
  "orrag": 30302,
  "orro": 6749,
  "orros": 29800,
  "orrow": 33198,
  "ors": 10972,
  "ort": 897,
  "ortales": 29481,
  "orte": 1264,
  "ortes": 39373,
  "orth": 5001,
  "orum": 19545,
  "ory": 5648,
  "orÃ¡n": 6166,
  "orÃŃa": 1320,
  "orÃŃas": 5840,
  "os": 271,
  "osa": 1185,
  "osamente": 5321,
  "osas": 4980,
  "ose": 18867,
  "osh": 11915,
  "oshi": 22739,
  "oshima": 34140,
  "osible": 27666,
  "osio": 50142,
  "osis": 42186,
  "oslav": 33334,
  "oso": 892,
  "osofÃŃa": 5771,
  "osos": 4091,
  "osotras": 12090,
  "osotros": 1931,
  "ost": 13660,
  "osta": 37501,
  "ot": 1093,
  "ota": 7335,
  "otas": 43815,
  "ote": 30434,
  "oth": 9937,
  "other": 35786,
  "othy": 25352,
  "oto": 35987,
  "otra": 47330,
  "otro": 48826,
  "ots": 8760,
  "otswe": 48624,
  "ott": 40326,
  "otti": 37085,
  "ou": 29400,
  "out": 39994,
  "ov": 6927,
  "ova": 16737,
  "ove": 39960,
  "ovich": 29642,
  "ovna": 42000,
  "ox": 34012,
  "oy": 769,
  "oya": 7206,
  "oyage": 49588,
  "oye": 35766,
  "oyle": 12399,
  "oyo": 13514,
  "oyote": 20498,
  "oz": 1035,
  "ozas": 39463,
  "ozco": 6831,
  "p": 89,
  "pa": 432,
  "paba": 10180,
  "paban": 25568,
  "pac": 18430,
  "pace": 19341,
  "paces": 23747,
  "pach": 49010,
  "pacho": 41159,
  "paci": 26734,
  "pacidad": 14896,
  "pacio": 33973,
  "paciones": 7685,
  "paciÃ³n": 2564,
  "pacÃ¡": 49580,
  "pad": 40190,
  "pada": 6674,
  "padas": 25541,
  "pado": 3244,
  "pador": 34340,
  "pados": 8254,
  "padre": 35569,
  "page": 50124,
  "pagn": 47304,
  "pagne": 48368,
  "paje": 15973,
  "pal": 4615,
  "pala": 46619,
  "palo": 40664,
  "palos": 32792,
  "pan": 2850,
  "pando": 19825,
  "pania": 20704,
  "panqui": 49116,
  "pany": 9732,
  "panyol": 36706,
  "par": 493,
  "para": 5048,
  "parable": 24984,
  "parables": 44658,
  "paraÃŃso": 16069,
  "pard": 26239,
  "pardo": 24979,
  "park": 41109,
  "paro": 35593,
  "paron": 16192,
  "parque": 44921,
  "parquÃŃa": 48159,
  "parse": 17591,
  "part": 2480,
  "parta": 13925,
  "partamento": 3074,
  "parte": 11922,
  "parti": 48203,
  "partido": 45540,
  "parto": 11395,
  "pas": 1567,
  "pasa": 33798,
  "paso": 39580,
  "pat": 25343,
  "pata": 15237,
  "patas": 50169,
  "path": 45587,
  "pati": 23552,
  "pato": 30211,
  "patos": 45019,
  "patra": 25909,
  "patri": 33510,
  "patÃŃa": 24633,
  "pay": 28538,
  "payÃ¡n": 47281,
  "paz": 24372,
  "paÃ±": 845,
  "paÃ±a": 1029,
  "paÃ±as": 12547,
  "paÃ±o": 48700,
  "paÃ±ol": 1568,
  "pciÃ³n": 2790,
  "pe": 459,
  "pea": 23545,
  "pear": 50125,
  "pec": 1302,
  "pecabezas": 34929,
  "pecciÃ³n": 42249,
  "peci": 891,
  "pecial": 8002,
  "pecie": 23052,
  "pecies": 6491,
  "pecto": 2252,
  "pector": 25381,
  "pectos": 7622,
  "pecu": 25929,
  "ped": 36638,
  "peda": 31153,
  "pedo": 43175,
  "pel": 1778,
  "pelin": 46837,
  "pell": 26136,
  "pelle": 48497,
  "pellier": 32940,
  "pelo": 15796,
  "pelÃŃcula": 36174,
  "pen": 1228,
  "penas": 10365,
  "pencer": 14859,
  "pendi": 30633,
  "pendo": 24496,
  "penhauer": 44042,
  "pens": 6191,
  "pensa": 15684,
  "pensÃ³": 15838,
  "peo": 29879,
  "peonato": 14099,
  "per": 532,
  "pera": 3192,
  "peraciÃ³n": 5507,
  "peras": 15652,
  "perci": 25518,
  "perio": 43148,
  "pero": 4948,
  "peros": 31890,
  "pers": 9150,
  "person": 44901,
  "pert": 25360,
  "pertura": 5987,
  "pes": 2800,
  "peso": 38970,
  "pest": 17070,
  "pet": 31744,
  "peta": 13338,
  "petas": 32109,
  "pete": 38589,
  "peto": 26824,
  "peuta": 41754,
  "pez": 4115,
  "peÃ³": 25699,
  "peÃ³n": 7449,
  "pf": 29017,
  "pg": 7508,
  "ph": 1706,
  "pha": 16996,
  "phane": 45465,
  "phe": 26752,
  "pher": 31679,
  "phi": 30756,
  "phia": 14522,
  "phie": 12468,
  "phin": 43586,
  "pho": 34990,
  "phon": 26630,
  "phone": 34901,
  "phor": 23031,
  "phora": 47872,
  "phorbia": 33892,
  "phus": 40066,
  "phy": 7155,
  "phyll": 33015,
  "phylla": 41430,
  "phyllum": 41974,
  "phyta": 46680,
  "pi": 742,
  "pia": 6199,
  "piano": 34212,
  "pias": 4225,
  "pic": 10039,
  "pica": 11263,
  "picas": 36688,
  "pice": 20893,
  "picio": 48270,
  "pico": 18092,
  "picos": 34076,
  "pid": 22604,
  "pida": 5324,
  "pidamente": 26419,
  "pidas": 24151,
  "pide": 22588,
  "pides": 47107,
  "pidez": 7676,
  "pidiÃ³": 23853,
  "pido": 3620,
  "pidos": 17835,
  "pie": 15566,
  "pier": 35216,
  "pies": 41960,
  "pil": 14853,
  "pila": 26723,
  "pilaciÃ³n": 41766,
  "pin": 5076,
  "pina": 18182,
  "pine": 40926,
  "ping": 24073,
  "pingo": 30433,
  "pino": 19420,
  "pio": 8652,
  "pion": 35894,
  "pir": 2235,
  "pira": 8846,
  "piraciones": 32335,
  "piraciÃ³n": 5085,
  "piran": 40973,
  "pirando": 17856,
  "pire": 31813,
  "piro": 5642,
  "piros": 14468,
  "pirÃ©": 34972,
  "pirÃ³": 5033,
  "pis": 17977,
  "pista": 8940,
  "pistas": 23621,
  "pit": 12949,
  "pita": 7960,
  "pital": 3680,
  "pite": 40101,
  "piter": 13801,
  "pitiÃ³": 11235,
  "pito": 11473,
  "pitos": 39720,
  "piÃ©": 9394,
  "piÃ©lago": 15050,
  "piÃ©s": 39498,
  "piÃ±a": 31088,
  "piÃ³": 23951,
  "piÃ³n": 44861,
  "pl": 2262,
  "pla": 5722,
  "plan": 7325,
  "plano": 26054,
  "plas": 21118,
  "plasma": 40268,
  "plata": 33718,
  "play": 19991,
  "ple": 2813,
  "plen": 42055,
  "pler": 41277,
  "ples": 7045,
  "plex": 33859,
  "plic": 3387,
  "plica": 11711,
  "plicaciÃ³n": 33238,
  "plicas": 29070,
  "plicidad": 48874,
  "plicÃ³": 5100,
  "plo": 25296,
  "plom": 6435,
  "plona": 14667,
  "plÃ©n": 44200,
  "pm": 19499,
  "po": 478,
  "pob": 19667,
  "poca": 21031,
  "poda": 41194,
  "poder": 26482,
  "poderoso": 40057,
  "podo": 33838,
  "podos": 23593,
  "podrÃŃa": 45808,
  "poel": 40387,
  "pol": 2507,
  "pola": 30831,
  "pole": 8081,
  "poles": 11826,
  "poli": 14012,
  "polis": 8482,
  "polit": 6848,
  "polita": 46430,
  "politan": 33226,
  "politana": 10607,
  "politano": 15010,
  "politanos": 45856,
  "polo": 27379,
  "polÃŃtica": 42188,
  "pon": 732,
  "ponde": 41089,
  "pone": 14624,
  "ponen": 37217,
  "ponentes": 49863,
  "poner": 16588,
  "ponerse": 27131,
  "pones": 32989,
  "pongo": 7624,
  "poniendo": 41637,
  "ponimia": 18933,
  "pont": 44943,
  "ponÃ©s": 6877,
  "ponÃŃa": 37330,
  "pool": 12675,
  "pop": 22497,
  "pope": 39932,
  "por": 651,
  "pora": 7074,
  "poraciÃ³n": 9872,
  "poro": 42957,
  "porque": 24195,
  "porro": 42419,
  "port": 2022,
  "porta": 38713,
  "portamiento": 46048,
  "porte": 3521,
  "portes": 14111,
  "portivo": 12658,
  "porto": 26289,
  "ports": 26305,
  "pos": 727,
  "posa": 13692,
  "posas": 24291,
  "posi": 7208,
  "posiciones": 7291,
  "posiciÃ³n": 2537,
  "poso": 32296,
  "posterÃŃa": 31509,
  "pot": 17872,
  "pota": 49998,
  "potam": 34805,
  "potamia": 36924,
  "pote": 26266,
  "potencia": 46376,
  "potente": 45690,
  "poulos": 50241,
  "pov": 36713,
  "pp": 8576,
  "ppa": 47210,
  "ppe": 28357,
  "ppen": 38869,
  "pper": 31448,
  "ppi": 29489,
  "pping": 35967,
  "ppy": 31995,
  "pr": 4303,
  "pra": 23943,
  "prano": 37948,
  "pre": 1049,
  "pregun": 1996,
  "pregunta": 22133,
  "pregunto": 36314,
  "preguntÃ©": 14127,
  "preguntÃ³": 2223,
  "pren": 2198,
  "pres": 2572,
  "presente": 16749,
  "presidente": 49751,
  "presiÃ³n": 9030,
  "press": 43021,
  "pri": 19110,
  "prim": 15696,
  "primer": 38032,
  "primera": 34885,
  "prin": 16711,
  "princip": 28161,
  "principalmente": 42271,
  "pring": 42581,
  "pris": 43665,
  "prise": 34218,
  "pro": 3032,
  "probablemente": 48281,
  "produ": 17369,
  "producciÃ³n": 22124,
  "profes": 49919,
  "prome": 39363,
  "pron": 30798,
  "prop": 37052,
  "propuso": 35719,
  "pros": 13516,
  "prosiguiÃ³": 16123,
  "prote": 48931,
  "protestÃ³": 21045,
  "provincia": 29397,
  "prudencia": 34400,
  "ps": 3151,
  "psala": 48833,
  "psi": 49850,
  "psia": 24302,
  "psis": 10722,
  "pso": 14938,
  "psut": 39546,
  "psy": 47289,
  "pt": 25466,
  "pta": 18794,
  "pter": 31824,
  "ptera": 34366,
  "pti": 1616,
  "ptible": 36650,
  "ptiembre": 1828,
  "pto": 17889,
  "pton": 16793,
  "ptos": 34676,
  "pu": 600,
  "puato": 45330,
  "pub": 37636,
  "public": 42530,
  "pue": 16654,
  "pueblo": 46294,
  "puede": 36724,
  "puedo": 48453,
  "puente": 46087,
  "pues": 1255,
  "puesta": 2602,
  "puestamente": 15242,
  "puestas": 7416,
  "puesto": 2328,
  "puestos": 7477,
  "pugn": 34030,
  "pul": 3676,
  "pula": 9647,
  "pulaciones": 33627,
  "pulaciÃ³n": 8455,
  "pular": 2162,
  "pulas": 25812,
  "pulco": 30518,
  "pulo": 16111,
  "pulos": 14923,
  "pun": 25151,
  "punk": 42215,
  "punto": 33130,
  "pur": 11271,
  "pura": 15148,
  "pus": 6658,
  "puse": 48968,
  "puso": 5358,
  "put": 46665,
  "puÃ©s": 737,
  "px": 1351,
  "py": 12283,
  "pÃ¡": 6421,
  "pÃ¡g": 36851,
  "pÃ¡n": 28759,
  "pÃ¡tica": 38664,
  "pÃ¡tico": 43779,
  "pÃ©": 8918,
  "pÃ³": 2612,
  "pÃ³n": 27520,
  "pÃ³sito": 30231,
  "pÃ³st": 22001,
  "pÃº": 46517,
  "pÃŃ": 23229,
  "pÃŃa": 13078,
  "q": 90,
  "qa": 34735,
  "qi": 41392,
  "qu": 369,
  "qua": 23076,
  "que": 295,
  "quea": 34608,
  "queado": 39554,
  "queando": 40444,
  "quear": 30610,
  "quedad": 18338,
  "quel": 770,
  "queline": 31256,
  "quen": 12205,
  "quena": 43594,
  "quense": 49079,
  "queo": 27228,
  "quer": 5885,
  "quera": 12527,
  "queras": 38931,
  "quero": 9519,
  "queros": 8666,
  "querque": 36010,
  "querra": 43014,
  "querÃŃa": 12727,
  "querÃŃas": 39694,
  "ques": 1474,
  "quesa": 8065,
  "quest": 25160,
  "questa": 6311,
  "quet": 15292,
  "queta": 6066,
  "quetas": 16448,
  "quetbol": 35324,
  "quete": 6656,
  "queteo": 46107,
  "quetes": 13964,
  "quez": 5616,
  "queÃ±a": 20351,
  "queÃ±as": 45517,
  "queÃ±o": 17819,
  "queÃ±os": 34451,
  "queÃ³": 25176,
  "qui": 710,
  "quia": 3803,
  "quiab": 26683,
  "quial": 26348,
  "quias": 16548,
  "quicia": 19327,
  "quidad": 27325,
  "quido": 9086,
  "quidos": 22220,
  "quie": 5186,
  "quiel": 26821,
  "quiem": 41470,
  "quien": 23111,
  "quier": 1179,
  "quiera": 2158,
  "quierda": 14754,
  "quiere": 8117,
  "quieren": 16570,
  "quieres": 30547,
  "quil": 2299,
  "quila": 7514,
  "quilib": 6550,
  "quill": 25414,
  "quilla": 6979,
  "quillaje": 21209,
  "quillas": 21832,
  "quillo": 13572,
  "quillos": 26582,
  "quilo": 23955,
  "quim": 14030,
  "quimbo": 29603,
  "quin": 7897,
  "quina": 3860,
  "quinas": 7733,
  "quines": 29872,
  "quino": 19316,
  "quinos": 44565,
  "quio": 19785,
  "quios": 33146,
  "quipa": 20607,
  "quique": 29516,
  "quir": 25396,
  "quiriÃ³": 12959,
  "quis": 4038,
  "quisiciÃ³n": 11673,
  "quismo": 15574,
  "quiso": 31122,
  "quist": 15564,
  "quista": 9171,
  "quistas": 18323,
  "quit": 47517,
  "quita": 10946,
  "quitas": 32534,
  "quito": 10771,
  "quitos": 20352,
  "quiv": 5671,
  "quival": 48473,
  "quivir": 39230,
  "quizÃ¡": 49305,
  "quiÃ¡": 24202,
  "quiÃ©n": 12958,
  "quo": 40680,
  "quÃ©": 2408,
  "quÃ©n": 23458,
  "quÃ©s": 5272,
  "quÃŃ": 1120,
  "quÃŃa": 4712,
  "quÃŃas": 26007,
  "quÃŃmica": 27628,
  "quÃŃn": 6891,
  "quÃŃvo": 24376,
  "r": 91,
  "ra": 306,
  "rab": 15138,
  "raba": 4591,
  "raban": 11038,
  "rac": 4726,
  "raca": 27474,
  "racciÃ³n": 46233,
  "race": 50008,
  "racia": 22821,
  "raciones": 6194,
  "raciÃ³n": 1532,
  "rad": 6906,
  "rada": 2397,
  "radas": 6254,
  "rado": 1141,
  "rador": 6865,
  "radora": 20640,
  "radores": 18972,
  "rados": 3293,
  "radura": 17485,
  "raduras": 48126,
  "rael": 4843,
  "raft": 34134,
  "rag": 2025,
  "raga": 27038,
  "ragon": 32211,
  "ragona": 18342,
  "rague": 47071,
  "ragÃ³n": 4883,
  "ragÃ¼": 33940,
  "rah": 39925,
  "rai": 23301,
  "raje": 31929,
  "rak": 38052,
  "ral": 835,
  "ralde": 49648,
  "rales": 5178,
  "ralo": 44902,
  "raltar": 18294,
  "ram": 4176,
  "rama": 24050,
  "rame": 16402,
  "ramente": 34955,
  "ramiento": 31216,
  "ramo": 24468,
  "ramos": 4490,
  "ramundo": 46339,
  "ran": 387,
  "rana": 5937,
  "ranas": 23145,
  "rance": 28474,
  "rand": 7500,
  "randa": 9356,
  "rande": 39631,
  "rando": 1636,
  "rane": 19312,
  "rang": 28533,
  "range": 17027,
  "rani": 46095,
  "ranio": 30104,
  "rano": 3777,
  "ranos": 26592,
  "ranova": 44734,
  "rans": 3745,
  "rant": 27268,
  "rante": 740,
  "rantes": 4505,
  "ranza": 20943,
  "ranÃŃa": 47114,
  "rar": 1422,
  "rara": 15633,
  "rarme": 18068,
  "raron": 7533,
  "rarse": 5635,
  "rary": 21859,
  "rarÃŃa": 24502,
  "ras": 487,
  "rasa": 41895,
  "rasburgo": 30709,
  "rase": 17761,
  "rash": 22686,
  "raska": 23573,
  "rass": 43286,
  "rastra": 33650,
  "rastro": 37852,
  "rat": 20210,
  "rata": 41621,
  "rate": 13451,
  "rath": 30437,
  "rathen": 46226,
  "rato": 14726,
  "ratos": 45884,
  "rax": 27219,
  "ray": 6854,
  "raz": 37898,
  "raza": 44440,
  "razo": 43739,
  "rd": 30244,
  "re": 294,
  "rea": 1735,
  "reak": 22728,
  "real": 11853,
  "ream": 18658,
  "rear": 38859,
  "reas": 3723,
  "reau": 30979,
  "reb": 17291,
  "rec": 12934,
  "recciÃ³n": 10285,
  "reci": 48158,
  "reconoci": 27887,
  "reconociÃ³": 29294,
  "record": 44824,
  "recta": 21376,
  "rectamente": 28656,
  "rectas": 42194,
  "recto": 19489,
  "rector": 17525,
  "recu": 44077,
  "recuerdas": 49583,
  "red": 11215,
  "rede": 1907,
  "rededor": 11547,
  "redo": 34314,
  "redÃ³n": 33925,
  "ree": 13219,
  "reg": 2062,
  "regiÃ³n": 29395,
  "rego": 37594,
  "regor": 28861,
  "regÃ³": 23905,
  "rei": 49018,
  "reinato": 23766,
  "rek": 34849,
  "rel": 35793,
  "rela": 33068,
  "relie": 49714,
  "rell": 12089,
  "reloj": 21264,
  "rem": 41772,
  "remberg": 34707,
  "reme": 47766,
  "remo": 10271,
  "remos": 4818,
  "remoto": 38304,
  "ren": 757,
  "rena": 18644,
  "rence": 15288,
  "rencia": 21734,
  "renda": 14704,
  "rendas": 30921,
  "rene": 13145,
  "reno": 3762,
  "rense": 25525,
  "rent": 30083,
  "renta": 14347,
  "rente": 5622,
  "rentes": 24271,
  "reo": 2653,
  "reola": 46707,
  "reos": 13401,
  "rep": 26352,
  "repe": 37027,
  "repitiÃ³": 12285,
  "replicÃ³": 7696,
  "repres": 46102,
  "repuso": 9226,
  "rer": 3447,
  "rera": 1620,
  "reras": 5778,
  "rero": 1544,
  "reros": 5876,
  "rerÃŃa": 13075,
  "rerÃŃas": 35453,
  "res": 362,
  "resa": 19442,
  "resal": 40253,
  "rese": 27999,
  "reses": 33903,
  "resiÃ³n": 16210,
  "reso": 24726,
  "respon": 1810,
  "responde": 27471,
  "respondiÃ³": 3972,
  "respondÃŃ": 21261,
  "ress": 24506,
  "rest": 7171,
  "reste": 8691,
  "restle": 36062,
  "restling": 13011,
  "restre": 10371,
  "restres": 14895,
  "resÃŃa": 30773,
  "ret": 15803,
  "reta": 24230,
  "retario": 23473,
  "rete": 28158,
  "retera": 45662,
  "reto": 11546,
  "retro": 38008,
  "rett": 29585,
  "rev": 37128,
  "rey": 4842,
  "rez": 2172,
  "reza": 10013,
  "reÃ±a": 42090,
  "reÃŃ": 35856,
  "rgia": 35738,
  "ri": 319,
  "ria": 1433,
  "riaga": 34460,
  "rial": 5146,
  "rialdad": 20720,
  "riales": 43869,
  "riam": 38767,
  "rian": 24766,
  "riana": 29403,
  "riano": 17755,
  "rianos": 49853,
  "rias": 16798,
  "rib": 818,
  "riba": 13325,
  "ribe": 17847,
  "rible": 3992,
  "ribles": 11647,
  "ribu": 1841,
  "ribuciÃ³n": 3816,
  "ribun": 5327,
  "ribunal": 6973,
  "ribuy": 4778,
  "ric": 2385,
  "rica": 9936,
  "ricaciÃ³n": 11636,
  "rich": 6270,
  "ricio": 45486,
  "riciÃ³n": 37949,
  "rick": 13592,
  "rico": 12898,
  "rict": 44722,
  "rid": 1484,
  "rida": 4693,
  "ridad": 2085,
  "ridades": 30479,
  "ridae": 32663,
  "ridas": 13262,
  "ridge": 6991,
  "ridi": 37724,
  "rido": 2214,
  "ridos": 8291,
  "rie": 3809,
  "riega": 39970,
  "riego": 27712,
  "riel": 4265,
  "riendo": 2626,
  "riente": 3557,
  "rientes": 7681,
  "rier": 24123,
  "riera": 10125,
  "rieran": 28562,
  "rieron": 4020,
  "ries": 20377,
  "riese": 24587,
  "riet": 23004,
  "rieta": 32343,
  "rieto": 18488,
  "rif": 49220,
  "rift": 44147,
  "rig": 1057,
  "riga": 14496,
  "rigal": 49682,
  "rigan": 39637,
  "rige": 44596,
  "right": 10303,
  "rigiÃ³": 19308,
  "rigo": 19790,
  "rigor": 28351,
  "rigoyen": 31844,
  "rik": 8103,
  "rika": 36885,
  "ril": 1113,
  "riles": 9617,
  "rill": 9417,
  "rilla": 7629,
  "rillas": 15833,
  "riller": 38733,
  "rillero": 47672,
  "rillo": 4202,
  "rillos": 10274,
  "rim": 509,
  "rima": 16310,
  "rimas": 4845,
  "rimento": 47131,
  "rimiento": 5559,
  "rimientos": 16085,
  "rimonio": 2875,
  "rimos": 21902,
  "rin": 8011,
  "rina": 15367,
  "ring": 22328,
  "rington": 29534,
  "rino": 18212,
  "rinos": 43356,
  "rio": 1752,
  "rion": 33607,
  "rios": 3090,
  "riosa": 11578,
  "rioso": 7766,
  "riota": 18688,
  "riotas": 16769,
  "rique": 3422,
  "rir": 1879,
  "rirse": 49534,
  "rirÃŃa": 17933,
  "ris": 833,
  "risa": 1859,
  "risas": 9473,
  "rise": 37736,
  "rish": 22775,
  "rishna": 44632,
  "risis": 5364,
  "rismo": 6431,
  "rison": 12483,
  "riss": 47396,
  "rissa": 27209,
  "rist": 1072,
  "rista": 6630,
  "ristal": 46362,
  "ristas": 10181,
  "riste": 4233,
  "risto": 12781,
  "ristol": 27116,
  "rit": 12913,
  "rita": 12788,
  "rital": 31253,
  "ritas": 32025,
  "riti": 45414,
  "ritis": 46760,
  "rito": 2232,
  "ritos": 7330,
  "ritu": 3357,
  "rium": 38101,
  "rius": 43833,
  "rix": 19691,
  "riz": 2133,
  "rizaba": 47826,
  "rizado": 49419,
  "rizio": 31274,
  "rizo": 44261,
  "riÃ©ndose": 26963,
  "riÃ³": 973,
  "riÃ³n": 21249,
  "ro": 315,
  "roc": 36297,
  "rock": 19657,
  "roco": 15647,
  "rod": 28226,
  "roe": 19650,
  "roeste": 11062,
  "roga": 39268,
  "rogÃ³": 42647,
  "rojo": 40484,
  "rol": 32482,
  "roll": 22724,
  "rom": 5171,
  "roma": 33936,
  "romana": 29511,
  "romato": 47878,
  "rome": 48003,
  "ron": 1443,
  "rona": 19425,
  "ronce": 4475,
  "rone": 24251,
  "rones": 7410,
  "rong": 19566,
  "ronto": 11070,
  "room": 42309,
  "rop": 9224,
  "roquÃŃ": 23965,
  "ror": 2359,
  "rores": 9465,
  "ros": 688,
  "rosa": 6842,
  "rosamente": 34001,
  "rosas": 23303,
  "rose": 37504,
  "rosis": 46802,
  "roso": 4704,
  "rosoft": 15829,
  "rosos": 22590,
  "ross": 9826,
  "rost": 27686,
  "rota": 29496,
  "rough": 23954,
  "rov": 21437,
  "row": 15008,
  "roy": 21169,
  "rr": 39995,
  "rs": 28760,
  "ru": 447,
  "ruci": 48258,
  "ructu": 33094,
  "rudencia": 23077,
  "rue": 8259,
  "ruecos": 12634,
  "rug": 47881,
  "rugiÃ³": 41016,
  "ruguay": 4589,
  "ruguaya": 26190,
  "rum": 8757,
  "rump": 3877,
  "run": 31269,
  "rup": 6182,
  "rupciÃ³n": 8334,
  "rupo": 3746,
  "rura": 33861,
  "ruro": 40579,
  "rus": 27441,
  "rust": 19887,
  "rutia": 40009,
  "ruz": 1639,
  "ry": 1557,
  "ryn": 25461,
  "rys": 22401,
  "rÃ¡": 2409,
  "rÃ¡cula": 40960,
  "rÃ¡n": 3556,
  "rÃ¡ncfort": 26546,
  "rÃ¡ndole": 40978,
  "rÃ¡ndose": 15692,
  "rÃ¡s": 11128,
  "rÃ¡st": 24997,
  "rÃ©": 3395,
  "rÃ©is": 44058,
  "rÃ©pito": 27505,
  "rÃ©s": 16912,
  "rÃ©st": 43591,
  "rÃ³": 1372,
  "rÃ³n": 3584,
  "rÃ³nicas": 33739,
  "rÃ³nimo": 33896,
  "rÃ³polis": 24399,
  "rÃ³s": 41084,
  "rÃ¶": 21129,
  "rÃº": 20255,
  "rÃŃ": 4129,
  "rÃŃa": 1223,
  "rÃŃan": 4937,
  "rÃŃas": 13975,
  "rÃŃe": 14499,
  "rÃŃn": 41553,
  "rÃŃo": 11282,
  "rÃŃos": 37544,
  "rÃŃquez": 21396,
  "s": 92,
  "sa": 1124,
  "sab": 28461,
  "sabe": 34373,
  "sabes": 19256,
  "sable": 24545,
  "sac": 28542,
  "sage": 47058,
  "sai": 36422,
  "sal": 5976,
  "sales": 31651,
  "saludÃ³": 35047,
  "salvo": 49920,
  "sam": 34562,
  "san": 8436,
  "sar": 14953,
  "sas": 6882,
  "sat": 41670,
  "sau": 25422,
  "sault": 46773,
  "say": 13949,
  "sayos": 40194,
  "sberg": 36553,
  "sburg": 41770,
  "sburgo": 9906,
  "scar": 9751,
  "sch": 8410,
  "sche": 10283,
  "schild": 44710,
  "se": 425,
  "sea": 11760,
  "sec": 10879,
  "secciÃ³n": 21820,
  "secu": 9120,
  "secuciÃ³n": 11112,
  "sed": 28004,
  "see": 15656,
  "segu": 3505,
  "seguida": 6178,
  "segun": 28943,
  "segunda": 43615,
  "segÃºn": 21283,
  "sei": 32954,
  "seis": 43195,
  "sel": 9140,
  "sela": 12644,
  "selas": 42794,
  "sele": 18030,
  "selecciÃ³n": 42205,
  "sell": 12435,
  "selo": 5733,
  "semb": 29434,
  "semble": 42659,
  "semos": 20173,
  "sen": 3748,
  "senada": 37763,
  "senal": 15965,
  "sens": 45772,
  "sent": 30536,
  "sentenciÃ³": 38552,
  "seo": 19267,
  "seos": 45764,
  "ser": 6328,
  "serie": 23667,
  "serv": 6543,
  "servÃ³": 18502,
  "ses": 5232,
  "set": 12987,
  "seudo": 43840,
  "sever": 34690,
  "sex": 16622,
  "sey": 11224,
  "seÃ±": 2034,
  "seÃ±alÃ³": 19676,
  "seÃ±o": 49230,
  "seÃ±or": 15746,
  "sfield": 30808,
  "sh": 2687,
  "sha": 26960,
  "shaw": 45600,
  "she": 43534,
  "shine": 45833,
  "ship": 6864,
  "shire": 11467,
  "shot": 50086,
  "si": 676,
  "sia": 17223,
  "sian": 27569,
  "sias": 6079,
  "sic": 12822,
  "siciÃ³n": 10729,
  "sico": 48174,
  "side": 10320,
  "sider": 17743,
  "sie": 10191,
  "siempre": 36384,
  "siendo": 46199,
  "sier": 49517,
  "sieur": 23210,
  "sig": 16308,
  "siglo": 22551,
  "siguiÃ³": 27484,
  "sii": 46510,
  "sil": 28093,
  "sim": 18882,
  "sima": 18202,
  "simo": 15582,
  "sin": 5944,
  "sina": 34630,
  "sing": 35798,
  "sini": 34354,
  "sinki": 23051,
  "sino": 41970,
  "sion": 3316,
  "sional": 47139,
  "siones": 3111,
  "sionista": 40788,
  "sionistas": 34206,
  "sions": 28073,
  "sis": 14333,
  "sistema": 38005,
  "sita": 14717,
  "site": 18895,
  "sito": 4068,
  "sitos": 16039,
  "situdes": 49575,
  "sius": 45847,
  "siva": 13815,
  "sive": 49402,
  "sivo": 14036,
  "siÃ³n": 1353,
  "sk": 6176,
  "ska": 27014,
  "skaya": 41187,
  "ski": 6540,
  "sky": 12341,
  "smo": 8921,
  "smouth": 45842,
  "so": 806,
  "sobre": 20852,
  "soci": 27644,
  "socia": 9546,
  "sociaciÃ³n": 5531,
  "social": 40861,
  "sohn": 46797,
  "sol": 8468,
  "sola": 15525,
  "solini": 31887,
  "solo": 26548,
  "soltÃ³": 34773,
  "solu": 31721,
  "son": 735,
  "sonal": 27263,
  "sono": 28736,
  "sonriÃ³": 16470,
  "sons": 25765,
  "sor": 11599,
  "sos": 2652,
  "souri": 19332,
  "sov": 39475,
  "sovia": 16638,
  "ss": 20464,
  "sson": 13790,
  "st": 300,
  "sta": 1199,
  "stable": 40474,
  "stad": 15217,
  "stadt": 22933,
  "stag": 46103,
  "stal": 16484,
  "stan": 32216,
  "stancias": 40996,
  "stand": 32805,
  "standing": 43209,
  "stant": 30491,
  "stante": 2976,
  "star": 24431,
  "stas": 2618,
  "ste": 4127,
  "sted": 6611,
  "stedes": 30432,
  "stedt": 46989,
  "stein": 13542,
  "sten": 14376,
  "ster": 4085,
  "sterdam": 13453,
  "steres": 44929,
  "sternaciÃ³n": 41080,
  "sters": 31942,
  "stin": 28405,
  "stitu": 1099,
  "stituciÃ³n": 45890,
  "stituto": 3140,
  "sto": 7296,
  "stock": 39648,
  "ston": 9377,
  "stone": 15443,
  "stos": 8936,
  "stown": 44055,
  "stra": 7517,
  "stre": 38482,
  "strom": 49503,
  "strong": 23396,
  "stru": 894,
  "strucciÃ³n": 24898,
  "strÃ¶": 28906,
  "strÃ¶m": 29640,
  "su": 3250,
  "suana": 46480,
  "sub": 21289,
  "sue": 43228,
  "sugi": 25579,
  "sugiriÃ³": 25810,
  "sul": 10990,
  "sula": 6536,
  "sum": 36202,
  "sumo": 40167,
  "sun": 29737,
  "sung": 28028,
  "super": 36652,
  "suplicÃ³": 43473,
  "sur": 13206,
  "sus": 5317,
  "suspirÃ³": 22518,
  "susur": 8040,
  "susurrÃ³": 8988,
  "sy": 10577,
  "sylvania": 39702,
  "sÃ©": 25844,
  "sÃ©s": 22293,
  "sÃ³": 17922,
  "sÃ³lo": 33976,
  "sÃŃ": 16724,
  "sÃŃmil": 46434,
  "t": 93,
  "ta": 329,
  "tab": 16879,
  "taba": 1206,
  "taban": 3633,
  "tabilidad": 39242,
  "table": 4271,
  "tables": 14623,
  "tac": 38608,
  "taca": 13922,
  "taciones": 3772,
  "taciÃ³n": 1289,
  "tad": 1424,
  "tada": 1766,
  "tadamente": 45045,
  "tadas": 3470,
  "tades": 5842,
  "tado": 773,
  "tador": 5277,
  "tadora": 10397,
  "tadoras": 19760,
  "tadores": 6836,
  "tados": 1613,
  "tadura": 8985,
  "taduras": 32015,
  "tae": 42349,
  "tag": 2295,
  "tage": 35465,
  "tagon": 3361,
  "tagonista": 20945,
  "tagÃ³nica": 47127,
  "tagÃ³nico": 31662,
  "tah": 12373,
  "tahualpa": 46899,
  "tai": 45218,
  "tain": 8134,
  "taine": 37467,
  "tainment": 12087,
  "taje": 13598,
  "taker": 49152,
  "tal": 666,
  "tala": 35069,
  "tale": 28846,
  "tales": 3830,
  "taleza": 23588,
  "talgia": 20697,
  "tali": 33796,
  "talo": 20380,
  "talos": 20190,
  "tam": 6054,
  "tambiÃ©n": 10757,
  "tame": 13719,
  "tamen": 16146,
  "tamente": 1335,
  "tamentos": 26500,
  "tamiento": 5871,
  "tamos": 11979,
  "tamude": 34829,
  "tan": 1542,
  "tana": 14700,
  "tanas": 28646,
  "tanasio": 45782,
  "tando": 1717,
  "tane": 30668,
  "taneidad": 49000,
  "tanes": 39160,
  "tang": 49670,
  "tani": 49334,
  "tania": 21036,
  "tano": 9082,
  "tanol": 48031,
  "tanos": 17693,
  "tanque": 48190,
  "tans": 50093,
  "tante": 1956,
  "tantes": 5441,
  "tanto": 14738,
  "tapa": 16428,
  "tar": 543,
  "tara": 5041,
  "taran": 24212,
  "tarco": 37465,
  "tard": 48243,
  "tari": 20823,
  "taria": 5732,
  "tariado": 22484,
  "tariamente": 21387,
  "tarias": 17294,
  "tario": 2897,
  "tarios": 6206,
  "tarla": 12860,
  "tarle": 8222,
  "tarlo": 8189,
  "tarlos": 48272,
  "tarme": 11036,
  "tarnos": 46770,
  "taro": 12453,
  "taron": 2675,
  "taros": 30405,
  "tarse": 3568,
  "tarte": 31072,
  "tary": 40431,
  "tarÃ¡": 10232,
  "tarÃ©": 32964,
  "tarÃŃa": 4334,
  "tas": 587,
  "tasar": 29681,
  "tase": 10354,
  "tasen": 33038,
  "tasio": 24407,
  "tasis": 23060,
  "taste": 26051,
  "tat": 27781,
  "tata": 46195,
  "tate": 12036,
  "tation": 31867,
  "tativa": 16278,
  "tativas": 16561,
  "tativo": 30789,
  "tauro": 49030,
  "taxis": 39847,
  "tay": 29604,
  "taz": 30210,
  "tazgo": 40162,
  "tazo": 30213,
  "taÃ±a": 6756,
  "taÃ±o": 17911,
  "tbol": 1785,
  "tch": 19131,
  "te": 296,
  "tea": 9130,
  "teaba": 20271,
  "teaban": 27642,
  "teado": 13985,
  "teando": 15950,
  "tear": 14949,
  "teas": 29927,
  "teatro": 48352,
  "teau": 21141,
  "tebol": 35887,
  "tebrados": 41688,
  "tec": 2606,
  "teca": 3596,
  "tecas": 12852,
  "tecciÃ³n": 14262,
  "tech": 36065,
  "tecn": 34486,
  "tecnia": 42930,
  "tecnologÃŃa": 41263,
  "teco": 48589,
  "tective": 28607,
  "tecto": 46539,
  "tector": 24380,
  "tectura": 48760,
  "tecture": 41917,
  "ted": 1232,
  "tedes": 7447,
  "tedr": 4598,
  "tedra": 16086,
  "tedral": 5552,
  "tee": 26116,
  "teen": 41312,
  "teg": 1103,
  "tega": 13082,
  "tegia": 46511,
  "tegorÃŃa": 1652,
  "tegra": 25254,
  "tegui": 19337,
  "tein": 9043,
  "teis": 31791,
  "tek": 37164,
  "tel": 1628,
  "tela": 8514,
  "tele": 27187,
  "teles": 6899,
  "telier": 45375,
  "tell": 4302,
  "tella": 6057,
  "tellas": 16647,
  "telle": 45804,
  "telli": 33474,
  "tello": 14701,
  "telo": 10099,
  "tem": 20981,
  "tema": 39736,
  "temb": 36793,
  "tember": 46874,
  "temburgo": 45988,
  "teme": 26097,
  "temos": 33273,
  "temp": 8277,
  "templ": 26334,
  "temporada": 20582,
  "ten": 539,
  "tena": 14249,
  "tenango": 38730,
  "tenberg": 26549,
  "tencia": 3817,
  "tencias": 13425,
  "tenciÃ³n": 2018,
  "tenible": 30116,
  "tenido": 49622,
  "teniente": 19912,
  "tenientes": 30879,
  "teno": 48611,
  "tens": 38982,
  "tense": 12501,
  "tensiÃ³n": 49614,
  "tent": 7955,
  "tenta": 8578,
  "tente": 9301,
  "tentes": 19851,
  "tento": 16190,
  "tentos": 48029,
  "tentri": 16363,
  "tenÃŃa": 38696,
  "teo": 5342,
  "teos": 18417,
  "tep": 33350,
  "tepec": 22664,
  "ter": 388,
  "tera": 1403,
  "terapia": 22955,
  "teras": 5119,
  "teratura": 4400,
  "tercera": 47491,
  "terciÃ³": 48670,
  "terdam": 28023,
  "tere": 36379,
  "teres": 24265,
  "teri": 44585,
  "teria": 16241,
  "terial": 19121,
  "terina": 30875,
  "terio": 5204,
  "terior": 1306,
  "teriores": 3381,
  "teriormente": 2862,
  "terios": 12131,
  "terista": 21621,
  "termin": 16091,
  "terminÃ³": 45851,
  "tern": 4253,
  "terna": 7772,
  "ternal": 22333,
  "ternas": 41035,
  "ternidad": 11507,
  "terno": 11622,
  "ternos": 24980,
  "tero": 1925,
  "terofilia": 38783,
  "terona": 36442,
  "teros": 5488,
  "terra": 46186,
  "terreno": 41978,
  "terror": 40396,
  "terrÃ¡n": 5824,
  "terrÃ¡neo": 8451,
  "ters": 6757,
  "terson": 33666,
  "tery": 42204,
  "terÃŃa": 2915,
  "terÃŃas": 9052,
  "tes": 569,
  "tese": 21319,
  "tesis": 6219,
  "test": 38510,
  "testÃ³": 3310,
  "tet": 35404,
  "tete": 42390,
  "teto": 11092,
  "tetos": 47510,
  "teur": 14476,
  "teurs": 44914,
  "tex": 20105,
  "text": 789,
  "texto": 14407,
  "tez": 10932,
  "teza": 8680,
  "tezuma": 46123,
  "teÃ³": 16124,
  "tford": 40609,
  "th": 1192,
  "tha": 10308,
  "thal": 41095,
  "tham": 49683,
  "than": 30388,
  "thar": 35015,
  "the": 7906,
  "ther": 8552,
  "thers": 19104,
  "thing": 20855,
  "tho": 32123,
  "thon": 32885,
  "thor": 30105,
  "thorne": 43447,
  "thur": 9412,
  "thus": 40291,
  "thy": 9944,
  "ti": 321,
  "tia": 2242,
  "tiago": 3070,
  "tiagu": 26177,
  "tial": 30862,
  "tian": 21336,
  "tiana": 26380,
  "tias": 31052,
  "tibilidad": 32079,
  "tible": 8352,
  "tibles": 17081,
  "tic": 1183,
  "tica": 871,
  "tical": 20590,
  "ticamente": 4313,
  "ticas": 1791,
  "tice": 22307,
  "tices": 33159,
  "tici": 41087,
  "ticia": 28535,
  "ticias": 45441,
  "ticidad": 23349,
  "ticin": 49894,
  "ticiones": 20574,
  "ticismo": 25037,
  "ticiÃ³n": 4403,
  "tick": 40439,
  "tico": 969,
  "ticos": 1680,
  "tics": 16121,
  "ticu": 16119,
  "ticuatro": 16424,
  "ticul": 18819,
  "ticular": 3115,
  "ticus": 48646,
  "ticut": 24930,
  "tid": 29717,
  "tida": 3113,
  "tidad": 2439,
  "tidades": 7239,
  "tidae": 28602,
  "tidas": 7670,
  "tidez": 42572,
  "tidi": 8949,
  "tido": 796,
  "tidor": 35124,
  "tidores": 45673,
  "tidos": 3137,
  "tidumbre": 16945,
  "tie": 11445,
  "tiembre": 25301,
  "tiemp": 17031,
  "tiempo": 20866,
  "tiempos": 41914,
  "tien": 3117,
  "tienda": 34647,
  "tiende": 6785,
  "tienden": 25062,
  "tiendes": 39657,
  "tiendo": 2851,
  "tiene": 3921,
  "tienen": 8961,
  "tienes": 40617,
  "tienne": 26617,
  "tier": 11724,
  "tiera": 8230,
  "tieran": 22043,
  "tieron": 4770,
  "tierra": 28902,
  "ties": 20240,
  "tiese": 23896,
  "tif": 10707,
  "tific": 3098,
  "tifica": 16515,
  "tificaciones": 18258,
  "tificaciÃ³n": 7977,
  "tificado": 11754,
  "tificar": 33735,
  "tificia": 18012,
  "tificÃ³": 40166,
  "tig": 8765,
  "tiga": 22464,
  "tigio": 12560,
  "tigo": 12889,
  "tigos": 38331,
  "tigu": 16257,
  "tii": 37604,
  "tija": 37390,
  "tijas": 46751,
  "tijo": 29140,
  "tik": 31589,
  "til": 731,
  "tila": 31848,
  "tilaciÃ³n": 26748,
  "tilda": 47542,
  "tilde": 21042,
  "tile": 33353,
  "tiles": 4423,
  "tileza": 34506,
  "tilidad": 8952,
  "tilio": 37042,
  "tiliz": 1444,
  "till": 5708,
  "tilla": 3147,
  "tillana": 40383,
  "tillas": 6455,
  "tille": 21099,
  "tillo": 2735,
  "tillos": 13147,
  "tilo": 30894,
  "tim": 3961,
  "tima": 15809,
  "timamente": 29979,
  "timar": 36841,
  "time": 19000,
  "timer": 31506,
  "timiento": 15700,
  "timo": 36568,
  "timologÃŃa": 11923,
  "timore": 20136,
  "timos": 15180,
  "tin": 895,
  "tina": 4048,
  "tinamente": 31956,
  "tinas": 10666,
  "tine": 22763,
  "tinente": 23981,
  "tines": 15167,
  "ting": 10430,
  "tinga": 43289,
  "tini": 18580,
  "tinio": 38569,
  "tino": 4491,
  "tinos": 6556,
  "tinu": 7084,
  "tinuÃ³": 9881,
  "tiny": 26494,
  "tio": 1600,
  "tiocho": 36570,
  "tion": 1178,
  "tional": 4262,
  "tionale": 44437,
  "tionary": 25963,
  "tiones": 39823,
  "tions": 4854,
  "tiopÃŃa": 23777,
  "tios": 6769,
  "tious": 18423,
  "tipo": 9025,
  "tipos": 17843,
  "tique": 25682,
  "tir": 805,
  "tira": 27728,
  "tirado": 30320,
  "tire": 45704,
  "tires": 25452,
  "tiri": 45606,
  "tiro": 18010,
  "tirse": 10234,
  "tis": 1535,
  "tisa": 25226,
  "tish": 12857,
  "tislava": 42959,
  "tismo": 4489,
  "tist": 22162,
  "tista": 2610,
  "tistas": 9207,
  "tiste": 18619,
  "tit": 13239,
  "tita": 16854,
  "titas": 21238,
  "titlÃ¡n": 27675,
  "tito": 10837,
  "titos": 22754,
  "titu": 6512,
  "titud": 3096,
  "titudes": 14191,
  "tiu": 46548,
  "tium": 30512,
  "tius": 28000,
  "tiv": 811,
  "tiva": 1074,
  "tivaciÃ³n": 41023,
  "tivamente": 3173,
  "tivar": 48321,
  "tivas": 2240,
  "tive": 6262,
  "tiverio": 32249,
  "tives": 21125,
  "tivi": 2070,
  "tividad": 5741,
  "tividades": 23655,
  "tivillus": 35626,
  "tivismo": 26917,
  "tivista": 34809,
  "tivo": 861,
  "tivos": 1470,
  "tiz": 4409,
  "tiza": 9515,
  "tizaciÃ³n": 14470,
  "tizada": 23631,
  "tizadas": 39889,
  "tizado": 18922,
  "tizados": 28700,
  "tizan": 38516,
  "tizar": 11534,
  "tizo": 21155,
  "tizÃ³": 29165,
  "tiÃ¡n": 40790,
  "tiÃ©ndole": 31494,
  "tiÃ©ndose": 7122,
  "tiÃ³": 1027,
  "tiÃ³n": 33352,
  "tl": 44076,
  "tland": 37415,
  "tle": 4516,
  "tlÃ¡n": 42500,
  "tman": 47322,
  "tn": 6096,
  "tnam": 10582,
  "to": 318,
  "tock": 32235,
  "toda": 38381,
  "todo": 4418,
  "todos": 8013,
  "toes": 36844,
  "tografÃŃa": 13897,
  "tois": 33452,
  "tok": 39147,
  "tol": 4779,
  "tola": 33535,
  "toli": 46153,
  "tolicismo": 23800,
  "tolo": 29414,
  "tologÃŃa": 7025,
  "tolÃ³g": 12679,
  "tolÃ³gica": 35123,
  "tolÃ³gico": 36797,
  "tom": 5391,
  "toma": 35443,
  "ton": 639,
  "tona": 13657,
  "tonces": 1033,
  "tonda": 36893,
  "tone": 9078,
  "tones": 8441,
  "toni": 45352,
  "tonia": 20800,
  "tonio": 44728,
  "tono": 19217,
  "tonÃŃa": 46666,
  "toon": 33103,
  "top": 19097,
  "topÃŃa": 37320,
  "tor": 460,
  "tora": 6447,
  "toras": 22488,
  "tore": 26440,
  "tores": 1957,
  "tori": 26417,
  "toria": 1860,
  "torial": 3720,
  "toriales": 22039,
  "torias": 6878,
  "torio": 2120,
  "torios": 5339,
  "toris": 38758,
  "torium": 41054,
  "torm": 48215,
  "torno": 5003,
  "toro": 46389,
  "torre": 41295,
  "torrique": 30565,
  "tors": 30381,
  "tory": 20515,
  "torÃŃa": 22000,
  "tos": 458,
  "tosa": 21537,
  "tosh": 40580,
  "toso": 41865,
  "tour": 46876,
  "tov": 16833,
  "town": 15687,
  "tox": 37836,
  "toÃ±o": 9535,
  "tr": 391,
  "tra": 481,
  "traba": 15207,
  "trabajo": 48563,
  "traciones": 30392,
  "traciÃ³n": 11156,
  "track": 36610,
  "trad": 21994,
  "trada": 24375,
  "trado": 13176,
  "trados": 28340,
  "tradu": 43121,
  "trait": 40826,
  "tral": 6005,
  "trales": 13501,
  "trall": 14857,
  "tram": 39357,
  "tramos": 9007,
  "tran": 11796,
  "trando": 5839,
  "trans": 21934,
  "trar": 10026,
  "traron": 20960,
  "trarse": 24293,
  "tras": 619,
  "trase": 23570,
  "traste": 40427,
  "trato": 12819,
  "tre": 504,
  "trea": 34454,
  "trecht": 34806,
  "tremos": 41021,
  "tren": 28816,
  "treo": 29472,
  "trera": 42629,
  "trero": 22426,
  "treros": 38983,
  "tres": 15704,
  "tress": 38118,
  "tri": 5574,
  "tribu": 42272,
  "tric": 15106,
  "trica": 11261,
  "tricas": 18438,
  "trice": 24803,
  "trices": 11821,
  "trich": 31323,
  "trick": 28781,
  "trico": 11297,
  "tricos": 16946,
  "trin": 26741,
  "trina": 9905,
  "trinas": 22630,
  "triz": 3418,
  "tro": 513,
  "trodu": 3042,
  "troit": 16372,
  "trol": 7287,
  "tron": 4057,
  "tronomÃŃa": 18544,
  "trop": 9214,
  "tropical": 42115,
  "tropo": 30967,
  "tropÃŃa": 47488,
  "tros": 633,
  "trospec": 24664,
  "tru": 14304,
  "trum": 26537,
  "trus": 37986,
  "try": 9861,
  "trÃ¡fico": 36702,
  "trÃ¡n": 18431,
  "trÃ¡s": 1705,
  "trÃ©": 21318,
  "trÃ©s": 28512,
  "trÃ³": 3612,
  "trÃ³geno": 28222,
  "trÃ³leo": 12355,
  "trÃ³n": 4341,
  "trÃ³nica": 39565,
  "trÃŃa": 9009,
  "ts": 1640,
  "tsch": 33539,
  "tse": 48547,
  "tsk": 39420,
  "tski": 47943,
  "tsky": 50210,
  "tsu": 27492,
  "tt": 2952,
  "tta": 8276,
  "tte": 5453,
  "tten": 25677,
  "tter": 15897,
  "ttgart": 20115,
  "tti": 7987,
  "tto": 7895,
  "tton": 23743,
  "ttp": 44732,
  "tty": 32319,
  "tu": 376,
  "tua": 5936,
  "tuaciÃ³n": 36045,
  "tual": 5759,
  "tuales": 14031,
  "tualmente": 18878,
  "tuando": 31187,
  "tuar": 35836,
  "tuario": 8219,
  "tuarios": 28529,
  "tube": 30002,
  "tuber": 35415,
  "tubre": 44992,
  "tud": 1914,
  "tudes": 10045,
  "tudy": 29444,
  "tul": 26586,
  "tula": 22971,
  "tular": 37841,
  "tulia": 37239,
  "tulias": 49904,
  "tulo": 30368,
  "tum": 8331,
  "tumb": 3912,
  "tumbre": 7011,
  "tun": 5634,
  "tune": 17269,
  "tuno": 35638,
  "tuos": 28046,
  "tuosa": 14552,
  "tuosamente": 27880,
  "tuosas": 32819,
  "tuosidad": 40704,
  "tuoso": 12245,
  "tuosos": 25800,
  "tur": 1576,
  "tura": 715,
  "turaciÃ³n": 46589,
  "turado": 36434,
  "tural": 1505,
  "turales": 4149,
  "turalmente": 8610,
  "turar": 42447,
  "turas": 2314,
  "ture": 6776,
  "tures": 13562,
  "turi": 47323,
  "turing": 35486,
  "turismo": 49725,
  "turista": 46325,
  "turn": 26565,
  "turo": 3210,
  "tus": 3968,
  "tuta": 47848,
  "tuve": 16634,
  "tuviera": 19983,
  "tuvieron": 8021,
  "tuvo": 1895,
  "tuÃ¡n": 40155,
  "ty": 2696,
  "tyle": 46534,
  "tz": 4793,
  "tzal": 30201,
  "tzsche": 30499,
  "tÃ¡": 2733,
  "tÃ¡cico": 27946,
  "tÃ¡culo": 40762,
  "tÃ¡is": 44795,
  "tÃ¡l": 33953,
  "tÃ¡menes": 49910,
  "tÃ¡n": 2052,
  "tÃ¡ndola": 31175,
  "tÃ¡ndole": 21454,
  "tÃ¡ndolo": 33641,
  "tÃ¡ndome": 40110,
  "tÃ¡ndose": 9547,
  "tÃ©": 2248,
  "tÃ©cn": 36880,
  "tÃ©moc": 42046,
  "tÃ©n": 31376,
  "tÃ©r": 47270,
  "tÃ©s": 27402,
  "tÃ³": 610,
  "tÃ³grafo": 44687,
  "tÃ³logo": 35103,
  "tÃ³n": 2582,
  "tÃ³nica": 38969,
  "tÃ³nico": 37221,
  "tÃ³r": 29734,
  "tÃ³rica": 17788,
  "tÃ³ricas": 43973,
  "tÃ³rico": 28059,
  "tÃº": 21982,
  "tÃºa": 26491,
  "tÃºan": 38766,
  "tÃŃ": 6790,
  "tÃŃa": 3766,
  "tÃŃan": 12630,
  "tÃŃas": 36218,
  "tÃŃfice": 28723,
  "tÃŃn": 2156,
  "tÃŃo": 44154,
  "tÃŃtulo": 29954,
  "tÃŃtulos": 48150,
  "u": 94,
  "ua": 6857,
  "uad": 14988,
  "ual": 2274,
  "uales": 4622,
  "ualidad": 7714,
  "ualmente": 7918,
  "ualpa": 45961,
  "uan": 22898,
  "uar": 38734,
  "uario": 36542,
  "uarte": 42746,
  "uas": 30735,
  "uasiÃ³n": 46056,
  "ub": 508,
  "uba": 14630,
  "ube": 10147,
  "uben": 24461,
  "uber": 12729,
  "ubern": 14340,
  "uberna": 43587,
  "ubert": 24345,
  "ubio": 16035,
  "ubishi": 34222,
  "uble": 13853,
  "ubles": 45665,
  "ublic": 5865,
  "ubo": 6081,
  "uc": 7423,
  "uca": 9729,
  "ucan": 39636,
  "ucaso": 29733,
  "ucci": 29505,
  "uce": 18228,
  "uces": 24137,
  "ucester": 50037,
  "uch": 9271,
  "ucha": 48402,
  "uche": 27185,
  "uchi": 45309,
  "ucho": 45738,
  "uci": 16916,
  "uck": 10878,
  "ucky": 21433,
  "uco": 8669,
  "ucos": 34033,
  "ucristo": 19938,
  "ud": 856,
  "uda": 1901,
  "udaciÃ³n": 25249,
  "udad": 21995,
  "udado": 26122,
  "udal": 10954,
  "udales": 22623,
  "udar": 16691,
  "udas": 9083,
  "ude": 4824,
  "udes": 24116,
  "udez": 32264,
  "udi": 720,
  "udia": 10976,
  "udicial": 9421,
  "udillo": 18712,
  "udillos": 19524,
  "udio": 7667,
  "udis": 40457,
  "udita": 24056,
  "udo": 2060,
  "udol": 19712,
  "udor": 19054,
  "udos": 9333,
  "udÃ³": 12559,
  "udÃ³nimo": 18057,
  "udÃŃ": 26104,
  "ue": 284,
  "ueb": 37000,
  "ueba": 13076,
  "ueca": 47191,
  "ueducto": 36806,
  "uega": 6737,
  "uego": 840,
  "uegos": 2278,
  "uel": 685,
  "uela": 1392,
  "uelan": 32562,
  "uelas": 5284,
  "uele": 31197,
  "uelen": 31299,
  "ueles": 28129,
  "uelle": 49924,
  "uello": 50161,
  "uelo": 2309,
  "uelos": 7149,
  "uelta": 5184,
  "ueltas": 13430,
  "uelto": 6794,
  "ueltos": 15256,
  "uelva": 15431,
  "uelve": 10018,
  "uelven": 35275,
  "uelvo": 27963,
  "uen": 949,
  "uenca": 12520,
  "uer": 483,
  "uera": 12597,
  "ueras": 11738,
  "uerga": 35444,
  "uerpos": 39712,
  "uerra": 1274,
  "uerta": 8320,
  "uertas": 21338,
  "uerte": 9091,
  "uerto": 2561,
  "uertos": 14535,
  "uerzo": 12677,
  "ues": 515,
  "ueso": 41174,
  "uest": 38652,
  "uesta": 3935,
  "uestas": 7988,
  "uesto": 3047,
  "uestos": 6559,
  "uestra": 3718,
  "uestras": 27609,
  "uestro": 10988,
  "uestros": 21812,
  "uet": 30537,
  "ueta": 12667,
  "uetas": 29571,
  "ueto": 25421,
  "ueva": 5111,
  "uevas": 13297,
  "ueve": 10713,
  "ueven": 48291,
  "uevo": 17435,
  "uevos": 45864,
  "uez": 14914,
  "ueÃ±a": 28819,
  "ueÃ±o": 19455,
  "uf": 5764,
  "ufac": 19033,
  "uff": 42842,
  "ufra": 22684,
  "ufrag": 26191,
  "ug": 851,
  "uga": 17477,
  "ugan": 40946,
  "ugas": 30033,
  "uge": 11633,
  "ugeot": 24727,
  "ugg": 30441,
  "ugh": 4741,
  "ught": 27953,
  "ughter": 43006,
  "ughton": 38187,
  "ugi": 12624,
  "ugio": 26938,
  "ugo": 46183,
  "ugu": 22158,
  "ugÃŃa": 16941,
  "uh": 39423,
  "ui": 13817,
  "uido": 32142,
  "uil": 20537,
  "uja": 32378,
  "ujo": 21978,
  "uk": 8547,
  "uka": 17130,
  "uke": 18825,
  "uki": 21150,
  "ul": 436,
  "ula": 1912,
  "ulaciones": 29742,
  "ulaciÃ³n": 12710,
  "ulada": 16926,
  "ulado": 10675,
  "ulados": 22301,
  "ular": 1249,
  "ulares": 11953,
  "ulas": 4408,
  "ulata": 43001,
  "ulce": 39270,
  "uld": 13372,
  "ule": 10699,
  "ulen": 47915,
  "ules": 14834,
  "uleto": 44126,
  "ulf": 22785,
  "ulfo": 37534,
  "ulgar": 7400,
  "ulgaria": 14440,
  "uli": 23182,
  "ulia": 12022,
  "uliano": 32767,
  "ulin": 22665,
  "ulina": 46973,
  "ulio": 1614,
  "ulip": 25313,
  "ulipas": 30352,
  "ulk": 20725,
  "ull": 3341,
  "ulla": 12511,
  "ulle": 28549,
  "ullen": 32133,
  "ulli": 46079,
  "ulliciÃ³n": 48519,
  "ullo": 19032,
  "ullos": 47427,
  "ullÃ³": 23149,
  "ulo": 4251,
  "ulon": 42877,
  "ulos": 7862,
  "ulosa": 21116,
  "ulouse": 25615,
  "uls": 3285,
  "ulsiÃ³n": 12371,
  "ult": 7185,
  "ultado": 12951,
  "ulu": 19941,
  "ulus": 42209,
  "ulÃ³": 20313,
  "ulÃº": 38747,
  "um": 491,
  "uma": 4925,
  "uman": 26955,
  "umann": 25365,
  "umar": 43066,
  "umas": 9292,
  "umb": 2694,
  "umba": 21699,
  "umbia": 42580,
  "umbo": 37489,
  "umbra": 14356,
  "umbre": 33558,
  "umbres": 30816,
  "ume": 5224,
  "umen": 4570,
  "umento": 30261,
  "umer": 10906,
  "umi": 13246,
  "umiÃ³": 50106,
  "umo": 7050,
  "umont": 31764,
  "ump": 32751,
  "un": 290,
  "una": 1707,
  "unar": 15862,
  "unas": 11805,
  "unca": 1277,
  "unci": 2638,
  "uncia": 6605,
  "unciaciÃ³n": 21302,
  "uncias": 25811,
  "uncio": 29459,
  "unciÃ³": 3178,
  "unciÃ³n": 7811,
  "und": 1562,
  "unda": 3681,
  "undaciÃ³n": 5970,
  "undada": 40192,
  "undado": 29087,
  "undai": 43044,
  "undamente": 7238,
  "unday": 33901,
  "unde": 40042,
  "under": 16368,
  "unders": 36892,
  "undi": 27186,
  "undin": 34980,
  "undinamarca": 40463,
  "undo": 7140,
  "undos": 23328,
  "unds": 33634,
  "undÃ³": 40264,
  "undÃŃan": 38179,
  "une": 8507,
  "unes": 12227,
  "ung": 3475,
  "unga": 31564,
  "unge": 32623,
  "ungen": 35003,
  "uni": 19598,
  "unidad": 3184,
  "unidades": 49943,
  "uniden": 2311,
  "unidense": 34327,
  "unk": 19088,
  "unn": 8710,
  "unning": 31472,
  "unnisa": 40853,
  "uno": 4005,
  "unos": 22086,
  "unque": 946,
  "unt": 3541,
  "unta": 5615,
  "untain": 21749,
  "untamiento": 5858,
  "untamientos": 37203,
  "unto": 763,
  "untos": 3638,
  "untry": 26489,
  "untÃ³": 27101,
  "uny": 43896,
  "unya": 19146,
  "unÃ¡nime": 40698,
  "uo": 18039,
  "up": 5387,
  "upe": 41971,
  "upendo": 35804,
  "ur": 470,
  "ura": 1070,
  "uraba": 16244,
  "urable": 42094,
  "uraciÃ³n": 7356,
  "uracÃ¡n": 11146,
  "urada": 14436,
  "uradas": 47721,
  "urado": 7707,
  "urados": 27151,
  "urai": 35973,
  "ural": 10865,
  "urante": 5763,
  "urar": 8558,
  "uras": 2320,
  "urasia": 45220,
  "urb": 26669,
  "urbano": 49997,
  "urbios": 17575,
  "urce": 22515,
  "urces": 33615,
  "urd": 44127,
  "ure": 4049,
  "urel": 21797,
  "uren": 16213,
  "ures": 19173,
  "urg": 7989,
  "urgatorio": 48554,
  "urgo": 11606,
  "uri": 2554,
  "uria": 27574,
  "urias": 8171,
  "urier": 41457,
  "urin": 49985,
  "urio": 26787,
  "urios": 22183,
  "uris": 40572,
  "urita": 42189,
  "uriÃ³n": 44927,
  "urm": 4574,
  "urn": 14780,
  "urnal": 11307,
  "uro": 1111,
  "uroeste": 42226,
  "uron": 46761,
  "uros": 4817,
  "urosis": 32688,
  "urra": 41386,
  "urre": 27846,
  "urrecciÃ³n": 15348,
  "urru": 47549,
  "urs": 8397,
  "urst": 30275,
  "urt": 6098,
  "uru": 32036,
  "urus": 14854,
  "ury": 10702,
  "urÃ©": 30599,
  "urÃ³": 3312,
  "urÃŃ": 26411,
  "urÃŃa": 11472,
  "us": 400,
  "usa": 1876,
  "usal": 9926,
  "usamente": 36654,
  "usan": 39117,
  "usas": 12770,
  "usco": 16898,
  "uscos": 31048,
  "use": 3126,
  "user": 28564,
  "uses": 36054,
  "useum": 48647,
  "ush": 9378,
  "ushi": 44510,
  "ushima": 46514,
  "usia": 10480,
  "usiera": 36215,
  "usieron": 16296,
  "usina": 43585,
  "usion": 19221,
  "usiones": 10006,
  "usiÃ³n": 2691,
  "usk": 11990,
  "uso": 930,
  "usoleo": 32895,
  "usos": 6681,
  "uss": 7433,
  "ussa": 44039,
  "usse": 15221,
  "ussein": 45259,
  "ussia": 29693,
  "ussy": 38748,
  "ust": 658,
  "usta": 6047,
  "uste": 10061,
  "uster": 16784,
  "usto": 6014,
  "uston": 13756,
  "ustos": 10828,
  "ustra": 30369,
  "ustro": 17303,
  "usura": 11591,
  "ut": 819,
  "uta": 5795,
  "utable": 35693,
  "utaciÃ³n": 32576,
  "utada": 46501,
  "utado": 43379,
  "utamente": 9227,
  "utar": 40979,
  "utas": 10761,
  "utbol": 4464,
  "utbolista": 5403,
  "utch": 13941,
  "ute": 14390,
  "uter": 26143,
  "utes": 46042,
  "uth": 3895,
  "uthor": 31090,
[...]
